[PAD]	0
[UNK]	0
[CLS]	0
[SEP]	0
[MASK]	0
▁이	-0
▁있	-1
..	-2
▁대	-3
으로	-4
▁사	-5
▁그	-6
에서	-7
▁지	-8
▁1	-9
▁아	-10
▁하	-11
▁기	-12
▁수	-13
▁한	-14
▁정	-15
▁2	-16
▁전	-17
▁가	-18
했다	-19
▁보	-20
하는	-21
▁자	-22
▁나	-23
▁시	-24
니다	-25
하고	-26
▁다	-27
▁국	-28
▁것	-29
▁일	-30
▁제	-31
▁있다	-32
▁인	-33
▁공	-34
▁주	-35
▁경	-36
이다	-37
▁안	-38
ᄏᄏ	-39
▁중	-40
▁등	-41
...	-42
▁문	-43
▁부	-44
▁조	-45
▁고	-46
▁없	-47
▁미	-48
▁위	-49
▁해	-50
▁개	-51
들이	-52
▁오	-53
▁어	-54
▁모	-55
▁상	-56
▁3	-57
▁말	-58
▁내	-59
▁비	-60
▁여	-61
▁무	-62
▁유	-63
▁의	-64
▁소	-65
▁서	-66
▁20	-67
▁우	-68
한다	-69
▁관	-70
▁마	-71
▁진	-72
라고	-73
▁최	-74
▁않	-75
는데	-76
▁만	-77
▁세	-78
▁연	-79
▁바	-80
▁생	-81
▁거	-82
▁신	-83
지만	-84
▁선	-85
▁5	-86
▁더	-87
▁도	-88
까지	-89
▁구	-90
▁김	-91
습니다	-92
▁저	-93
▁발	-94
▁강	-95
▁4	-96
▁현	-97
면서	-98
▁당	-99
00	-100
▁방	-101
▁동	-102
▁있는	-103
▁영	-104
▁통	-105
▁성	-106
다고	-107
▁때	-108
▁불	-109
▁장	-110
▁반	-111
▁북	-112
▁남	-113
들은	-114
에게	-115
▁실	-116
▁노	-117
▁되	-118
▁스	-119
▁재	-120
▁못	-121
▁한국	-122
▁적	-123
▁원	-124
▁아니	-125
!!	-126
▁알	-127
다는	-128
▁예	-129
▁받	-130
▁대한	-131
▁사람	-132
▁국민	-133
▁많	-134
▁같	-135
부터	-136
▁분	-137
▁결	-138
하게	-139
▁“	-140
▁추	-141
▁잘	-142
▁‘	-143
▁201	-144
▁차	-145
통령	-146
▁올	-147
▁참	-148
라는	-149
▁교	-150
▁또	-151
해서	-152
▁매	-153
▁특	-154
▁6	-155
▁계	-156
▁우리	-157
들어	-158
적으로	-159
▁따	-160
▁후	-161
▁평	-162
▁살	-163
▁지난	-164
▁할	-165
▁입	-166
▁7	-167
었다	-168
▁확	-169
된다	-170
▁민	-171
▁ᄏᄏ	-172
▁좋	-173
▁서울	-174
적인	-175
??	-176
▁대통령	-177
▁하는	-178
▁감	-179
▁열	-180
▁미국	-181
하다	-182
▁청	-183
에는	-184
▁일본	-185
▁회	-186
▁역	-187
하지	-188
▁단	-189
▁문재	-190
하면	-191
▁외	-192
대로	-193
▁건	-194
▁집	-195
▁피	-196
▁북한	-197
리고	-198
~~	-199
▁박	-200
....	-201
▁밝	-202
▁설	-203
▁물	-204
▁투	-205
▁과	-206
▁출	-207
이나	-208
▁10	-209
▁배	-210
▁왜	-211
▁정부	-212
으면	-213
▁판	-214
▁생각	-215
하기	-216
▁나라	-217
▁파	-218
▁8	-219
▁처	-220
▁너	-221
▁달	-222
▁포	-223
▁법	-224
▁화	-225
▁것으로	-226
▁행	-227
▁맞	-228
▁한다	-229
들의	-230
▁직	-231
▁문제	-232
▁중국	-233
▁요	-234
▁검	-235
▁에	-236
이라	-237
▁앞	-238
▁증	-239
▁운	-240
해야	-241
▁양	-242
▁이런	-243
보다	-244
▁본	-245
▁위해	-246
▁작	-247
▁9	-248
▁쓰	-249
▁금	-250
▁총	-251
▁종	-252
▁두	-253
리는	-254
▁죽	-255
▁때문	-256
▁명	-257
▁새	-258
▁뭐	-259
▁누	-260
이고	-261
되는	-262
▁임	-263
▁학	-264
▁게	-265
▁하고	-266
▁함	-267
▁애	-268
▁언	-269
▁간	-270
▁문재인	-271
입니다	-272
▁돈	-273
▁니	-274
▁합	-275
▁밝혔	-276
▁심	-277
▁필	-278
자는	-279
나라	-280
▁지금	-281
▁높	-282
▁초	-283
▁이번	-284
▁프	-285
이라고	-286
▁목	-287
▁같은	-288
▁점	-289
▁경제	-290
▁및	-291
들을	-292
▁A	-293
렇게	-294
니까	-295
▁삼	-296
▁S	-297
▁트	-298
▁돌	-299
▁산	-300
▁치	-301
겠다	-302
에도	-303
ᄏᄏᄏᄏ	-304
▁카	-305
▁근	-306
인데	-307
▁타	-308
▁변	-309
▁통해	-310
▁손	-311
▁밝혔다	-312
뉴스	-313
에서는	-314
세요	-315
▁협	-316
▁이상	-317
▁넘	-318
▁드	-319
▁했다	-320
▁들어	-321
▁독	-322
됐다	-323
▁0	-324
▁업	-325
▁관련	-326
지는	-327
자가	-328
▁약	-329
▁대표	-330
▁했	-331
▁그러	-332
사를	-333
▁활	-334
기를	-335
▁가능	-336
▁기업	-337
▁진짜	-338
▁코	-339
▁광	-340
▁군	-341
▁뒤	-342
▁힘	-343
장은	-344
▁취	-345
▁정치	-346
▁호	-347
▁말했다	-348
▁로	-349
▁얼	-350
▁경우	-351
위원	-352
▁데	-353
▁19	-354
▁사진	-355
지고	-356
▁속	-357
▁하나	-358
▁좀	-359
▁지역	-360
이지	-361
▁줄	-362
▁환	-363
시간	-364
▁국가	-365
▁친	-366
▁없는	-367
▁리	-368
민국	-369
▁버	-370
▁없다	-371
000	-372
▁다른	-373
▁-	-374
▁함께	-375
▁민주	-376
장이	-377
▁체	-378
▁걸	-379
▁폭	-380
▁편	-381
해라	-382
▁국회	-383
기업	-384
합니다	-385
았다	-386
▁각	-387
하며	-388
▁지원	-389
▁위한	-390
▁필요	-391
▁먹	-392
▁것이	-393
장을	-394
성이	-395
▁아이	-396
▁아닌	-397
도록	-398
▁빨	-399
으며	-400
▁(	-401
▁진행	-402
가는	-403
▁그냥	-404
레이	-405
▁관계	-406
네요	-407
▁이어	-408
▁C	-409
라도	-410
▁사업	-411
▁사용	-412
▁12	-413
▁이후	-414
▁때문에	-415
▁난	-416
▁완	-417
처럼	-418
▁잡	-419
▁규	-420
기도	-421
▁투자	-422
▁기자	-423
▁순	-424
▁11	-425
▁절	-426
▁크	-427
▁태	-428
스트	-429
주의	-430
리를	-431
▁경찰	-432
억원	-433
▁그런	-434
만원	-435
어서	-436
▁홍	-437
레기	-438
▁시작	-439
▁라	-440
▁모두	-441
▁충	-442
▁피해	-443
▁날	-444
▁표	-445
▁사실	-446
는다	-447
▁대한민국	-448
▁이제	-449
인이	-450
▁자유	-451
▁눈	-452
였다	-453
는거	-454
리가	-455
▁자신	-456
▁대해	-457
▁그래	-458
기가	-459
사는	-460
려고	-461
한테	-462
사가	-463
▁들	-464
▁좌	-465
기에	-466
같은	-467
구나	-468
▁따라	-469
▁큰	-470
▁끝	-471
▁논	-472
▁너무	-473
▁사회	-474
▁의원	-475
▁막	-476
▁벌	-477
▁망	-478
▁토	-479
정부	-480
▁은	-481
▁가장	-482
▁상황	-483
▁30	-484
▁아니라	-485
하면서	-486
▁늘	-487
▁야	-488
▁메	-489
▁와	-490
▁인간	-491
▁M	-492
▁온	-493
▁철	-494
▁세계	-495
▁될	-496
▁몰	-497
▁등을	-498
▁핵	-499
이는	-500
▁국내	-501
▁그리고	-502
▁채	-503
▁ᄏᄏᄏᄏ	-504
▁현재	-505
▁이용	-506
▁준	-507
▁L	-508
▁권	-509
▁며	-510
!!!	-511
▁항	-512
▁창	-513
▁T	-514
▁는	-515
정은	-516
기는	-517
비스	-518
▁패	-519
▁많이	-520
거나	-521
▁정도	-522
▁찾	-523
▁보고	-524
▁모르	-525
▁허	-526
지를	-527
으니	-528
▁정말	-529
▁다시	-530
▁나오	-531
들에게	-532
▁K	-533
력을	-534
럼프	-535
▁200	-536
▁이날	-537
되고	-538
하여	-539
▁네	-540
▁된다	-541
▁B	-542
상을	-543
▁정신	-544
▁15	-545
▁복	-546
▁조사	-547
▁담	-548
다가	-549
▁'	-550
▁I	-551
.1	-552
▁많은	-553
▁수준	-554
▁승	-555
▁싶	-556
어야	-557
▁지난해	-558
▁삼성	-559
▁음	-560
▁제공	-561
들도	-562
▁최근	-563
▁디	-564
▁검찰	-565
들아	-566
▁책	-567
▁천	-568
▁모든	-569
졌다	-570
▁범	-571
▁시간	-572
사람	-573
▁것이다	-574
▁올해	-575
▁하지	-576
성을	-577
▁O	-578
▁머	-579
▁기술	-580
▁교육	-581
르면	-582
▁트럼프	-583
▁형	-584
▁정권	-585
▁식	-586
▁예정	-587
20	-588
▁하지만	-589
▁아무	-590
▁무슨	-591
▁엄	-592
▁열린	-593
▁용	-594
이가	-595
▁것은	-596
지도	-597
하겠	-598
인가	-599
▁베	-600
▁결과	-601
▁오후	-602
▁글	-603
▁이유	-604
시아	-605
시키	-606
▁계획	-607
▁악	-608
의원	-609
▁세금	-610
▁백	-611
▁를	-612
▁농	-613
▁브	-614
했습니다	-615
▁기사	-616
아서	-617
▁떨	-618
▁빠	-619
▁지지	-620
놓고	-621
er	-622
▁프로	-623
▁운영	-624
▁설명	-625
▁존	-626
▁어떻	-627
화를	-628
▁"	-629
▁오전	-630
▁G	-631
▁.	-632
▁2018	-633
in	-634
▁답	-635
▁병	-636
co	-637
▁번	-638
▁조국	-639
▁계속	-640
▁갈	-641
,,	-642
▁만들	-643
▁이미	-644
댓글	-645
▁아직	-646
▁정책	-647
▁장관	-648
와대	-649
▁얼마	-650
▁시장	-651
▁ᄏᄏᄏ	-652
경제	-653
▁탄	-654
있는	-655
했다고	-656
▁좋은	-657
▁개발	-658
▁질	-659
것도	-660
▁느	-661
▁폐	-662
▁D	-663
▁100	-664
▁해야	-665
▁민주당	-666
▁여러	-667
▁P	-668
▁씨	-669
.0	-670
▁을	-671
▁어떻게	-672
이라는	-673
▁만들어	-674
▁특히	-675
위원회	-676
▁뉴	-677
▁것을	-678
주는	-679
▁사건	-680
인지	-681
▁플	-682
▁싸	-683
이트	-684
on	-685
▁최고	-686
▁별	-687
지가	-688
▁된	-689
▁커	-690
▁정상	-691
학교	-692
▁있을	-693
들과	-694
▁연구	-695
▁발표	-696
▁볼	-697
▁대상	-698
▁있었	-699
▁따르면	-700
한국	-701
▁황	-702
▁청와대	-703
사업	-704
▁후보	-705
▁모습	-706
정을	-707
▁기준	-708
▁월	-709
▁뉴스	-710
▁보면	-711
▁전문	-712
▁놈	-713
▁우리나라	-714
시스	-715
▁효	-716
▁떠	-717
에서도	-718
▁기록	-719
센터	-720
▁n	-721
▁증가	-722
▁18	-723
수가	-724
▁문재앙	-725
▁다음	-726
▁있어	-727
▁응	-728
▁댓글	-729
▁언론	-730
▁접	-731
▁몇	-732
▁자기	-733
▁역시	-734
이냐	-735
한다고	-736
▁받아	-737
▁내용	-738
▁갖	-739
▁측	-740
대표	-741
어나	-742
명이	-743
▁곳	-744
▁낮	-745
력이	-746
거리	-747
▁13	-748
▁욕	-749
???	-750
▁키	-751
.2	-752
국민	-753
▁떨어	-754
한당	-755
▁부산	-756
자를	-757
소리	-758
밖에	-759
▁서비스	-760
▁추가	-761
▁먼	-762
의를	-763
없는	-764
▁있다고	-765
▁돌아	-766
▁확인	-767
▁당시	-768
▁급	-769
▁발생	-770
▁쓰레기	-771
▁다양	-772
▁결국	-773
는지	-774
가지	-775
is	-776
돼지	-777
시장	-778
▁향	-779
▁죄	-780
▁참여	-781
▁뭔	-782
▁이게	-783
▁수사	-784
▁레	-785
▁있습니다	-786
보고	-787
▁거래	-788
해도	-789
하나	-790
원이	-791
▁면	-792
▁이렇게	-793
자의	-794
▁잘못	-795
▁14	-796
인다	-797
▁길	-798
▁최대	-799
▁25	-800
▁50	-801
대가	-802
▁추진	-803
▁금융	-804
▁안전	-805
▁어디	-806
▁혐	-807
▁나타	-808
an	-809
▁제대로	-810
▁극	-811
▁축	-812
말고	-813
▁페	-814
▁16	-815
▁탈	-816
하네	-817
하는데	-818
▁이라고	-819
로운	-820
▁여성	-821
하자	-822
으나	-823
▁믿	-824
▁그렇게	-825
▁공개	-826
▁바로	-827
랜드	-828
▁김정은	-829
▁저런	-830
▁공격	-831
없이	-832
▁기대	-833
는게	-834
라이	-835
▁사고	-836
▁E	-837
▁게임	-838
▁책임	-839
제로	-840
▁오늘	-841
기로	-842
정권	-843
▁팔	-844
▁보여	-845
자리	-846
▁대비	-847
.5	-848
인은	-849
ᄒᄒ	-850
운데	-851
▁시민	-852
수는	-853
동안	-854
▁블	-855
▁판단	-856
▁:	-857
이네	-858
▁봐	-859
▁캐	-860
▁제품	-861
▁17	-862
▁현대	-863
▁그만	-864
근혜	-865
▁자한당	-866
▁외국	-867
▁밀	-868
주고	-869
민주	-870
보를	-871
▁전체	-872
▁귀	-873
리아	-874
ew	-875
교육	-876
도로	-877
주시	-878
▁상승	-879
▁보내	-880
겠지	-881
부는	-882
▁다양한	-883
▁알려	-884
▁희	-885
~~~	-886
▁전국	-887
▁사람이	-888
▁처음	-889
▁판매	-890
▁사이	-891
▁산업	-892
▁국제	-893
▁똑	-894
▁살아	-895
▁중요	-896
더니	-897
▁쳐	-898
치는	-899
자들	-900
도를	-901
▁높은	-902
하냐	-903
▁않고	-904
▁해외	-905
▁관계자는	-906
▁일반	-907
▁분석	-908
▁웃	-909
▁테	-910
▁직접	-911
▁확대	-912
▁또한	-913
▁이해	-914
▁평화	-915
▁N	-916
치를	-917
▁일부	-918
인의	-919
▁F	-920
▁적극	-921
무원	-922
▁얼마나	-923
도가	-924
▁클	-925
시켜	-926
▁자체	-927
회담	-928
▁강화	-929
▁첫	-930
야지	-931
회의	-932
▁평가	-933
시다	-934
com	-935
▁얘	-936
▁놀	-937
▁누가	-938
마트	-939
▁잠	-940
▁하면	-941
▁없어	-942
▁관심	-943
▁남북	-944
▁좋아	-945
▁혼	-946
▁학생	-947
전에	-948
▁울	-949
▁이름	-950
파트	-951
거지	-952
잖아	-953
▁없이	-954
왔다	-955
▁풀	-956
▁선거	-957
▁해결	-958
이야	-959
▁포함	-960
사의	-961
▁반대	-962
▁경기	-963
▁나온	-964
▁가격	-965
자들이	-966
.....	-967
▁가족	-968
▁해당	-969
▁오는	-970
▁유지	-971
▁않는	-972
▁있다는	-973
▁있는데	-974
▁어떤	-975
하라	-976
진다	-977
명을	-978
개월	-979
▁않은	-980
원은	-981
▁제발	-982
▁더불	-983
했던	-984
▁주장	-985
▁가운데	-986
ᄏᄏᄏ	-987
ᄍᄍ	-988
▁앞으로	-989
▁압	-990
이었	-991
▁인정	-992
위를	-993
▁뽑	-994
▁상태	-995
▁마련	-996
▁되는	-997
갱이	-998
드는	-999
▁대통령이	-1000
▁그는	-1001
▁있고	-1002
상이	-1003
▁능	-1004
▁윤	-1005
▁미래	-1006
▁아니다	-1007
기관	-1008
!!!!	-1009
or	-1010
▁요구	-1011
▁조선	-1012
세먼	-1013
ᅳᅳ	-1014
인을	-1015
보면	-1016
▁위원	-1017
▁골	-1018
같이	-1019
▁이를	-1020
▁방송	-1021
▁이야	-1022
치고	-1023
▁등의	-1024
en	-1025
▁마음	-1026
▁완전	-1027
▁연합	-1028
▁터	-1029
▁지방	-1030
▁최저	-1031
▁성장	-1032
한국당	-1033
ᄏᄏᄏᄏᄏᄏᄏᄏ	-1034
회를	-1035
▁싫	-1036
은행	-1037
▁같이	-1038
동을	-1039
.3	-1040
▁수도	-1041
▁어려	-1042
▁결정	-1043
▁21	-1044
거다	-1045
▁참석	-1046
이스	-1047
▁24	-1048
▁둘	-1049
리지	-1050
▁짓	-1051
산업	-1052
▁알고	-1053
▁휴	-1054
시는	-1055
되어	-1056
▁현지	-1057
▁ᄏ	-1058
▁환경	-1059
이터	-1060
▁OO	-1061
▁있도록	-1062
▁규모	-1063
▁구속	-1064
▁송	-1065
▁이에	-1066
▁더불어	-1067
▁t	-1068
원을	-1069
했고	-1070
▁전망	-1071
수를	-1072
식을	-1073
▁OOO	-1074
지역	-1075
▁방문	-1076
▁쪽	-1077
▁준비	-1078
▁침	-1079
ews	-1080
▁암	-1081
▁적용	-1082
조사	-1083
▁예상	-1084
▁그렇	-1085
▁개선	-1086
▁찍	-1087
▁영향	-1088
부분	-1089
▁퍼	-1090
▁그러나	-1091
▁인터	-1092
▁생산	-1093
▁뿐	-1094
이면	-1095
▁s	-1096
▁등이	-1097
되면	-1098
ar	-1099
문에	-1100
안을	-1101
▁강조	-1102
▁받고	-1103
▁노동	-1104
▁범죄	-1105
어도	-1106
▁지속	-1107
▁좌파	-1108
려는	-1109
이며	-1110
▁R	-1111
▁물론	-1112
▁먼저	-1113
▁개인	-1114
▁갑	-1115
▁문화	-1116
▁대학	-1117
▁40	-1118
리에	-1119
▁고객	-1120
▁예정이다	-1121
▁아니고	-1122
at	-1123
▁외교	-1124
▁공동	-1125
▁당신	-1126
라며	-1127
▁활용	-1128
장에서	-1129
▁여자	-1130
▁기존	-1131
▁찾아	-1132
가서	-1133
▁22	-1134
▁자동	-1135
▁얻	-1136
되지	-1137
▁뉴시스	-1138
단체	-1139
▁당연	-1140
▁징	-1141
▁어느	-1142
▁내가	-1143
▁학교	-1144
▁말고	-1145
▁23	-1146
있다	-1147
▁내려	-1148
▁깨	-1149
▁p	-1150
▁하루	-1151
▁주요	-1152
러운	-1153
▁효과	-1154
▁목표	-1155
▁박근혜	-1156
10	-1157
▁올라	-1158
그램	-1159
동산	-1160
▁않았	-1161
▁또는	-1162
났다	-1163
▁기다	-1164
▁한번	-1165
렸다	-1166
▁똥	-1167
▁한편	-1168
기술	-1169
하던	-1170
▁적폐	-1171
▁언제	-1172
▁동안	-1173
▁수출	-1174
▁듯	-1175
어요	-1176
▁소비	-1177
▁끌	-1178
을까	-1179
혁신	-1180
▁육	-1181
▁불법	-1182
▁2017	-1183
▁미세먼	-1184
임금	-1185
대를	-1186
스터	-1187
연구	-1188
▁매출	-1189
정도	-1190
▁쇼	-1191
▁기본	-1192
이라도	-1193
▁자유한국당	-1194
▁이러	-1195
▁누구	-1196
▁여기	-1197
▁지적	-1198
새끼	-1199
▁영화	-1200
▁의미	-1201
▁아닌가	-1202
▁H	-1203
것이	-1204
▁의견	-1205
▁보인다	-1206
▁등장	-1207
▁붙	-1208
아니	-1209
▁꼭	-1210
▁숨	-1211
▁왕	-1212
▁만나	-1213
▁착	-1214
.4	-1215
세를	-1216
▁보수	-1217
스로	-1218
마다	-1219
▁러	-1220
에선	-1221
▁영상	-1222
▁정의	-1223
▁다만	-1224
▁기간	-1225
대한	-1226
린다	-1227
▁아주	-1228
▁news	-1229
▁새로운	-1230
제를	-1231
▁그럼	-1232
▁대통령은	-1233
▁성공	-1234
마라	-1235
▁자신의	-1236
중에	-1237
가고	-1238
▁경쟁	-1239
▁주민	-1240
▁빼	-1241
자로	-1242
장의	-1243
▁26	-1244
▁현실	-1245
18	-1246
▁대구	-1247
▁정부가	-1248
▁전쟁	-1249
한다는	-1250
정책	-1251
▁말이	-1252
▁설치	-1253
일까지	-1254
▁혐의	-1255
시에	-1256
서는	-1257
▁27	-1258
▁인사	-1259
▁꼴	-1260
▁처벌	-1261
정이	-1262
▁구성	-1263
가가	-1264
당이	-1265
▁몸	-1266
▁아파트	-1267
봐라	-1268
▁절대	-1269
▁관리	-1270
▁대부분	-1271
.6	-1272
▁기관	-1273
운동	-1274
▁넘어	-1275
로벌	-1276
ot	-1277
▁거짓	-1278
텐데	-1279
▁28	-1280
아야	-1281
구만	-1282
▁중심	-1283
.7	-1284
반도	-1285
지원	-1286
▁반영	-1287
▁정보	-1288
▁2016	-1289
▁가지고	-1290
▁그래서	-1291
▁앞서	-1292
장관	-1293
▁연합뉴스	-1294
라인	-1295
▁어린	-1296
▁합니다	-1297
▁공무원	-1298
▁부분	-1299
▁택	-1300
▁빨갱이	-1301
▁회사	-1302
▁까	-1303
▁특별	-1304
▁국회의원	-1305
하겠다	-1306
▁차량	-1307
▁업무	-1308
이버	-1309
▁과거	-1310
전을	-1311
없다	-1312
▁영업	-1313
.8	-1314
▁보도	-1315
사회	-1316
al	-1317
▁제주	-1318
▁뭘	-1319
▁하락	-1320
50	-1321
하지만	-1322
▁맡	-1323
▁대해서	-1324
▁쉽	-1325
먹고	-1326
개발	-1327
▁것도	-1328
▁가치	-1329
일부터	-1330
▁솔	-1331
▁딸	-1332
▁미친	-1333
▁존재	-1334
▁...	-1335
▁이건	-1336
▁재판	-1337
▁분야	-1338
림픽	-1339
▁나라가	-1340
▁내년	-1341
▁의혹	-1342
▁비교	-1343
나요	-1344
관계	-1345
하니	-1346
▁없고	-1347
▁부동산	-1348
시설	-1349
▁문제가	-1350
▁설명했다	-1351
▁만든	-1352
정한	-1353
▁부모	-1354
▁만큼	-1355
▁스타	-1356
▁있었다	-1357
▁재앙	-1358
이오	-1359
.9	-1360
▁지나	-1361
▁인천	-1362
▁워	-1363
금을	-1364
▁수익	-1365
스는	-1366
▁개최	-1367
문화	-1368
▁소리	-1369
▁라고	-1370
▁즉	-1371
겠네	-1372
원에	-1373
주세요	-1374
▁상대	-1375
▁출시	-1376
▁석	-1377
▁상당	-1378
▁꼬	-1379
르고	-1380
▁탄핵	-1381
^^	-1382
30	-1383
▁건강	-1384
▁해라	-1385
선거	-1386
당은	-1387
했는데	-1388
▁글로벌	-1389
▁광주	-1390
▁매우	-1391
이상	-1392
▁빨리	-1393
하는거	-1394
다니	-1395
스럽	-1396
▁이재	-1397
▁LG	-1398
▁우려	-1399
대통령	-1400
르는	-1401
▁newsis	-1402
▁스마트	-1403
▁같다	-1404
명의	-1405
le	-1406
씨는	-1407
립니다	-1408
▁선택	-1409
이었다	-1410
▁뜻	-1411
▁공산	-1412
장에	-1413
▁아베	-1414
▁크게	-1415
이익	-1416
▁홈	-1417
▁합의	-1418
▁에서	-1419
▁비롯	-1420
▁여론	-1421
▁감소	-1422
▁W	-1423
▁보다	-1424
로는	-1425
▁도시	-1426
▁엄청	-1427
리스	-1428
관리	-1429
▁대응	-1430
▁위험	-1431
식이	-1432
▁전부	-1433
더라	-1434
▁여러분	-1435
한거	-1436
▁콘	-1437
▁△	-1438
▁비핵	-1439
▁퇴	-1440
년간	-1441
▁방법	-1442
re	-1443
▁컨	-1444
▁중소	-1445
▁뇌	-1446
▁통일	-1447
대는	-1448
▁아직도	-1449
70	-1450
▁TV	-1451
▁정부는	-1452
▁29	-1453
▁사기	-1454
21	-1455
점을	-1456
려면	-1457
지지	-1458
▁?	-1459
자인	-1460
▁등에	-1461
▁드러	-1462
▁써	-1463
▁더욱	-1464
▁근데	-1465
▁않는다	-1466
ᅲᅲ	-1467
시고	-1468
▁직원	-1469
▁듣	-1470
▁이동	-1471
스를	-1472
▁억	-1473
▁하는데	-1474
▁비판	-1475
▁틀	-1476
▁노력	-1477
▁격	-1478
▁해도	-1479
▁친일	-1480
투자	-1481
▁2019	-1482
▁행사	-1483
▁m	-1484
▁관광	-1485
▁팀	-1486
▁주변	-1487
▁세상	-1488
가를	-1489
▁..	-1490
업체	-1491
이니	-1492
▁계획이다	-1493
▁이는	-1494
사고	-1495
▁노조	-1496
▁활동	-1497
나는	-1498
정보	-1499
▁이뤄	-1500
▁위해서	-1501
▁새끼	-1502
됩니다	-1503
▁시스	-1504
란다	-1505
조건	-1506
▁거의	-1507
▁고려	-1508
▁미세먼지	-1509
▁일자리	-1510
▁경기도	-1511
▁긴	-1512
▁역할	-1513
장과	-1514
▁상품	-1515
▁건설	-1516
▁생활	-1517
▁원내	-1518
▁도움	-1519
▁코스	-1520
▁조작	-1521
▁히	-1522
▁조금	-1523
▁구조	-1524
▁쓸	-1525
부가	-1526
▁역사	-1527
▁즐	-1528
▁궁	-1529
▁프로그램	-1530
인트	-1531
it	-1532
선을	-1533
▁보호	-1534
권을	-1535
▁사람들이	-1536
▁남자	-1537
▁과정	-1538
▁공감	-1539
▁시스템	-1540
▁견	-1541
▁청년	-1542
▁U	-1543
이를	-1544
▁받은	-1545
▁SK	-1546
▁카드	-1547
▁잔	-1548
▁각각	-1549
원에서	-1550
▁힘들	-1551
전자	-1552
▁최저임금	-1553
▁위치	-1554
▁c	-1555
세계	-1556
▁사람들	-1557
▁/	-1558
▁못한	-1559
보는	-1560
▁얼굴	-1561
간다	-1562
▁요즘	-1563
▁자리	-1564
▁러시아	-1565
▁V	-1566
머니	-1567
식으로	-1568
▁사랑	-1569
▁도입	-1570
사일	-1571
▁발전	-1572
▁’	-1573
롯데	-1574
▁봉	-1575
▁술	-1576
▁~	-1577
대에	-1578
▁찬	-1579
▁뛰	-1580
▁헌	-1581
▁사라	-1582
▁있으며	-1583
he	-1584
▁고용	-1585
▁국민들	-1586
언론	-1587
기고	-1588
과의	-1589
료를	-1590
도는	-1591
▁시행	-1592
▁경영	-1593
▁그런데	-1594
민주당	-1595
▁걱	-1596
▁서민	-1597
주택	-1598
되었다	-1599
▁혁신	-1600
▁엔	-1601
경찰	-1602
▁오른	-1603
▁업체	-1604
와서	-1605
▁선정	-1606
국가	-1607
▁브랜드	-1608
▁낙	-1609
▁60	-1610
지막	-1611
▁대체	-1612
▁있지만	-1613
▁제시	-1614
물을	-1615
▁대상으로	-1616
이지만	-1617
▁보유	-1618
▁신청	-1619
내고	-1620
▁평균	-1621
분기	-1622
▁협력	-1623
▁풍	-1624
도시	-1625
스가	-1626
부를	-1627
하는게	-1628
▁공급	-1629
▁핵심	-1630
대체	-1631
▁니들	-1632
▁국민의	-1633
▁때문이다	-1634
▁제외	-1635
거래	-1636
▁지난달	-1637
어난	-1638
이란	-1639
▁비핵화	-1640
▁멀	-1641
▁국정	-1642
▁기념	-1643
환경	-1644
▁전략	-1645
19	-1646
지않	-1647
▁밥	-1648
▁ᄒᄒ	-1649
▁논의	-1650
되었	-1651
▁감사	-1652
▁공공	-1653
▁지켜	-1654
▁대책	-1655
▁나가	-1656
기사	-1657
지로	-1658
▁서로	-1659
▁네이버	-1660
▁넣	-1661
▁한반도	-1662
이랑	-1663
▁해서	-1664
하기로	-1665
▁ᄍᄍ	-1666
영상	-1667
▁신고	-1668
▁나서	-1669
드시	-1670
다면	-1671
▁국무	-1672
어라	-1673
▁품	-1674
▁증거	-1675
학생	-1676
▁그대로	-1677
▁않았다	-1678
서를	-1679
▁확보	-1680
▁제작	-1681
▁그게	-1682
▁집중	-1683
▁겨	-1684
▁전기	-1685
리면	-1686
▁티	-1687
▁밝혀	-1688
▁케	-1689
▁공식	-1690
▁사과	-1691
증권	-1692
▁국방	-1693
▁롯데	-1694
▁강조했다	-1695
스크	-1696
▁31	-1697
▁안보	-1698
▁발언	-1699
▁빌	-1700
했지만	-1701
▁규제	-1702
프로	-1703
▁교수	-1704
▁필요한	-1705
원의	-1706
▁무역	-1707
▁되어	-1708
▁강원	-1709
ou	-1710
적이	-1711
훈련	-1712
히려	-1713
▁그래도	-1714
받고	-1715
▁딱	-1716
▁마지막	-1717
명박	-1718
▁라이	-1719
가능	-1720
대의	-1721
릭터	-1722
▁세월	-1723
▁유럽	-1724
▁돼	-1725
▁따른	-1726
으면서	-1727
▁아니냐	-1728
겠다는	-1729
▁대신	-1730
▁조성	-1731
▁강남	-1732
▁슬	-1733
약을	-1734
▁변호	-1735
▁2015	-1736
▁한국당	-1737
▁짜	-1738
조선	-1739
▁최종	-1740
두고	-1741
▁우리가	-1742
▁어렵	-1743
던데	-1744
▁예산	-1745
했다는	-1746
▁여행	-1747
▁얘기	-1748
▁헤	-1749
▁기반	-1750
▁북미	-1751
놈들	-1752
만큼	-1753
▁실시	-1754
촛불	-1755
▁구축	-1756
보니	-1757
▁출신	-1758
▁부담	-1759
화가	-1760
▁중앙	-1761
▁짱	-1762
▁참가	-1763
▁최소	-1764
문제	-1765
▁h	-1766
때문에	-1767
▁강력	-1768
▁뻔	-1769
▁우선	-1770
▁바른	-1771
것이다	-1772
우는	-1773
그룹	-1774
▁인권	-1775
더라도	-1776
▁비슷	-1777
일이	-1778
▁자동차	-1779
위에	-1780
▁맛	-1781
건가	-1782
▁말을	-1783
▁전했다	-1784
르게	-1785
▁촉	-1786
▁많다	-1787
▁개돼지	-1788
끼리	-1789
▁모델	-1790
▁등으로	-1791
트를	-1792
▁70	-1793
겠습니다	-1794
건데	-1795
▁언급	-1796
수도	-1797
려라	-1798
▁국민이	-1799
▁원내대표	-1800
한데	-1801
정상	-1802
▁선보	-1803
????	-1804
▁루	-1805
회사	-1806
▁선동	-1807
이자	-1808
▁스스로	-1809
▁그동안	-1810
▁능력	-1811
년에	-1812
▁법무	-1813
아라	-1814
이기	-1815
▁입장	-1816
▁캐릭터	-1817
▁졸	-1818
거야	-1819
▁젊	-1820
▁없애	-1821
▁최초	-1822
스타	-1823
▁받을	-1824
▁삶	-1825
▁무엇	-1826
▁됐다	-1827
▁오히려	-1828
항공	-1829
▁다니	-1830
하다고	-1831
지면	-1832
▁인상	-1833
▁이전	-1834
인들	-1835
시민	-1836
통신	-1837
중한	-1838
▁겁	-1839
▁일이	-1840
▁사망	-1841
▁부족	-1842
▁행정	-1843
▁종목	-1844
▁나는	-1845
▁행동	-1846
스의	-1847
▁한심	-1848
▁못하고	-1849
라면	-1850
▁확실	-1851
▁바람	-1852
▁그리	-1853
ion	-1854
▁논란	-1855
▁작품	-1856
▁색	-1857
▁경험	-1858
▁199	-1859
▁뭐가	-1860
BS	-1861
()	-1862
ic	-1863
▁놓	-1864
▁땅	-1865
▁시키	-1866
▁영국	-1867
▁쿠	-1868
▁가능성이	-1869
▁됐	-1870
▁혜	-1871
▁수입	-1872
하거나	-1873
▁소속	-1874
업을	-1875
▁특검	-1876
▁무능	-1877
▁챙	-1878
▁000	-1879
▁사법	-1880
원으로	-1881
▁흔	-1882
▁되고	-1883
회에서	-1884
▁기능	-1885
▁이야기	-1886
▁이라며	-1887
지에	-1888
▁괴	-1889
▁두고	-1890
▁이거	-1891
▁북한이	-1892
▁꾸	-1893
▁받는	-1894
▁꺼	-1895
▁하다	-1896
▁전문가	-1897
▁모습을	-1898
▁한다고	-1899
▁없었	-1900
디어	-1901
하시	-1902
달러	-1903
▁엘	-1904
▁처리	-1905
▁뒷	-1906
▁아니면	-1907
▁먹고	-1908
▁가진	-1909
▁구매	-1910
▁걱정	-1911
......	-1912
▁덕	-1913
▁국민을	-1914
▁대변	-1915
이션	-1916
▁제일	-1917
▁응원	-1918
oto	-1919
이라며	-1920
겠냐	-1921
감을	-1922
▁않을	-1923
자들은	-1924
▁선수	-1925
▁유치	-1926
▁무조건	-1927
▁반드시	-1928
km	-1929
트남	-1930
오는	-1931
▁대단	-1932
▁인해	-1933
▁공정	-1934
냈다	-1935
▁사는	-1936
▁안정	-1937
갔다	-1938
▁친구	-1939
것들	-1940
겠지만	-1941
▁한다는	-1942
▁곧	-1943
▁성과	-1944
▁숙	-1945
hoto	-1946
▁쥐	-1947
율이	-1948
계를	-1949
▁경남	-1950
▁니들이	-1951
물이	-1952
주가	-1953
▁정확	-1954
▁혈	-1955
내는	-1956
▁빈	-1957
▁대화	-1958
문을	-1959
세대	-1960
건지	-1961
▁나라를	-1962
▁안되	-1963
▁조직	-1964
▁묻	-1965
▁실제	-1966
▁인도	-1967
▁나온다	-1968
▁살인	-1969
▁대표는	-1970
▁,	-1971
너지	-1972
소년	-1973
▁잡아	-1974
것은	-1975
겠다고	-1976
비를	-1977
▁주택	-1978
기간	-1979
이어	-1980
▁이명박	-1981
▁납	-1982
난다	-1983
▁못하는	-1984
▁촛불	-1985
장으로	-1986
▁헬	-1987
▁흐	-1988
▁운동	-1989
▁표현	-1990
소를	-1991
안전	-1992
st	-1993
▁현지시간	-1994
▁덧	-1995
▁혹	-1996
▁가까	-1997
▁도대체	-1998
이드	-1999
▁판결	-2000
수록	-2001
공사	-2002
▁교통	-2003
▁대기업	-2004
우리	-2005
리즈	-2006
▁갖고	-2007
▁펼	-2008
국이	-2009
▁이벤	-2010
미래	-2011
▁되었	-2012
려서	-2013
▁전혀	-2014
▁정부의	-2015
▁가는	-2016
▁택시	-2017
▁연결	-2018
▁미국이	-2019
▁바뀌	-2020
했을	-2021
범죄	-2022
▁칼	-2023
들고	-2024
▁쉬	-2025
위는	-2026
하세요	-2027
▁모르는	-2028
▁사람은	-2029
금융	-2030
▁슈	-2031
▁부정	-2032
▁일단	-2033
▁끼	-2034
▁제기	-2035
해주	-2036
▁정상회담	-2037
▁민간	-2038
▁J	-2039
▁자식	-2040
▁자연	-2041
▁세월호	-2042
생각	-2043
행을	-2044
것을	-2045
▁정도로	-2046
지말고	-2047
▁소득	-2048
회가	-2049
들만	-2050
하다는	-2051
▁대형	-2052
므로	-2053
▁밖에	-2054
5%	-2055
씨가	-2056
▁더불어민주당	-2057
우고	-2058
▁맞는	-2059
▁독재	-2060
▁발견	-2061
▁국민들이	-2062
▁꿈	-2063
▁보는	-2064
▁중요한	-2065
가리	-2066
▁있게	-2067
▁근로	-2068
▁photo	-2069
▁맨	-2070
▁플레이	-2071
▁지급	-2072
▁마이	-2073
▁봤	-2074
▁만에	-2075
▁검토	-2076
▁거짓말	-2077
▁사형	-2078
▁내부	-2079
▁밤	-2080
▁중소기업	-2081
▁독립	-2082
▁신경	-2083
▁기획	-2084
치가	-2085
▁소방	-2086
▁어쩌	-2087
▁기억	-2088
~~~~	-2089
▁의료	-2090
▁대법	-2091
▁달리	-2092
▁요청	-2093
▁의원은	-2094
▁하면서	-2095
▁대통령의	-2096
▁참고	-2097
▁결혼	-2098
봐야	-2099
져야	-2100
▁통신	-2101
그래	-2102
사로	-2103
▁AI	-2104
▁전년	-2105
▁전투	-2106
▁젊은	-2107
▁서울시	-2108
▁영상을	-2109
▁원래	-2110
▁괜	-2111
▁미국의	-2112
정신	-2113
,,,	-2114
▁희망	-2115
▁앵	-2116
▁차지	-2117
▁ᄉ	-2118
▁비용	-2119
무현	-2120
▁움	-2121
▁80	-2122
▁외국인	-2123
...)	-2124
▁공연	-2125
▁전달	-2126
▁어찌	-2127
▁가짜	-2128
자와	-2129
회는	-2130
▁집단	-2131
▁·	-2132
▁좌빨	-2133
▁녹	-2134
제가	-2135
위가	-2136
자기	-2137
반기	-2138
▁이하	-2139
▁잇	-2140
▁않아	-2141
▁74	-2142
▁충분	-2143
▁팬	-2144
▁주식	-2145
수사	-2146
▁신규	-2147
▁소개	-2148
▁덧붙	-2149
촬영	-2150
년부터	-2151
▁베트남	-2152
▁평창	-2153
하도록	-2154
▁주인	-2155
▁알아	-2156
▁집값	-2157
▁이루	-2158
성과	-2159
사와	-2160
▁종합	-2161
▁안되는	-2162
▁방향	-2163
텐츠	-2164
▁수요	-2165
회에	-2166
▁지키	-2167
조작	-2168
해야지	-2169
▁임명	-2170
가족	-2171
▁독자	-2172
▁회담	-2173
보험	-2174
▁채용	-2175
▁지도	-2176
당한	-2177
▁염	-2178
▁무시	-2179
음을	-2180
▁여러분의	-2181
▁대출	-2182
할수	-2183
성은	-2184
▁너희	-2185
▁반면	-2186
심히	-2187
▁시설	-2188
▁가지	-2189
▁지하	-2190
생활	-2191
차를	-2192
▁안타	-2193
문재	-2194
▁현장	-2195
하겠습니다	-2196
안이	-2197
▁머리	-2198
노총	-2199
실을	-2200
▁영향을	-2201
▁그걸	-2202
번째	-2203
▁나오는	-2204
ing	-2205
▁중인	-2206
▁은행	-2207
만에	-2208
▁아마	-2209
▁단체	-2210
ent	-2211
▁전환	-2212
▁취업	-2213
▁잃	-2214
일본	-2215
임을	-2216
등학교	-2217
▁성폭	-2218
▁분양	-2219
이팅	-2220
▁군사	-2221
▁되었다	-2222
▁사무	-2223
관이	-2224
지방	-2225
▁멍	-2226
▁썩	-2227
▁일을	-2228
▁위반	-2229
▁각종	-2230
연금	-2231
▁아무리	-2232
▁자료	-2233
▁분위	-2234
만이	-2235
▁제보를	-2236
▁나쁜	-2237
▁혐의로	-2238
▁탑	-2239
▁치료	-2240
▁시절	-2241
▁개혁	-2242
▁으로	-2243
▁500	-2244
▁달러	-2245
▁맘	-2246
▁이익	-2247
▁기레기	-2248
사건	-2249
정치	-2250
▁인터넷	-2251
▁쓴	-2252
▁무기	-2253
일을	-2254
▁미사일	-2255
▁이젠	-2256
▁주가	-2257
드를	-2258
▁시즌	-2259
▁전자	-2260
▁개정	-2261
▁근무	-2262
그러	-2263
어가	-2264
▁국토	-2265
사에	-2266
▁b	-2267
▁있던	-2268
자들의	-2269
(...)	-2270
준다	-2271
▁도로	-2272
점이	-2273
▁+	-2274
의도	-2275
▁앉	-2276
▁니가	-2277
▁기다립니다	-2278
▁대전	-2279
▁KT	-2280
▁향후	-2281
▁데이터	-2282
▁제재	-2283
▁움직	-2284
국의	-2285
▁관련해	-2286
▁받았	-2287
▁장애	-2288
거냐	-2289
▁지들	-2290
▁행복	-2291
구가	-2292
▁제조	-2293
et	-2294
하기도	-2295
인간	-2296
▁경찰은	-2297
량을	-2298
사에서	-2299
▁전라도	-2300
▁분명	-2301
▁높아	-2302
▁운전	-2303
▁심각	-2304
▁2014	-2305
▁보험	-2306
▁실제로	-2307
▁소중한	-2308
▁푸	-2309
▁권력	-2310
11	-2311
으로는	-2312
//	-2313
▁유명	-2314
▁던	-2315
40	-2316
었는데	-2317
▁투표	-2318
▁활성	-2319
교통	-2320
▁건물	-2321
▁돈을	-2322
▁협상	-2323
▁여전	-2324
▁어린이	-2325
▁아님	-2326
▁이래	-2327
▁벗	-2328
▁주는	-2329
▁온라인	-2330
▁있으면	-2331
▁가능한	-2332
▁혜택	-2333
루킹	-2334
▁우리는	-2335
▁ᄌ	-2336
▁가져	-2337
▁혼자	-2338
▁회의	-2339
▁인공	-2340
▁달라	-2341
▁가서	-2342
줘야	-2343
▁탓	-2344
먹는	-2345
발전	-2346
▁보니	-2347
▁!	-2348
▁본격	-2349
▁제한	-2350
▁줄어	-2351
규모	-2352
방송	-2353
아가	-2354
세가	-2355
▁읽	-2356
▁프랑	-2357
▁독일	-2358
영업	-2359
서비스	-2360
▁프리	-2361
▁정은	-2362
노동	-2363
▁본인	-2364
▁반도	-2365
▁제보	-2366
▁가능하다	-2367
페이지	-2368
▁사례	-2369
시키고	-2370
▁문죄	-2371
이라면	-2372
이에	-2373
리기	-2374
롭게	-2375
▁신뢰	-2376
▁전시	-2377
▁비해	-2378
▁나와	-2379
단을	-2380
▁항공	-2381
▁피해자	-2382
▁들어가	-2383
▁당장	-2384
구를	-2385
▁이사	-2386
▁당연히	-2387
▁통합	-2388
북한	-2389
체가	-2390
▁보기	-2391
▁02	-2392
▁계약	-2393
려야	-2394
량이	-2395
▁털	-2396
▁자격	-2397
▁오래	-2398
▁인근	-2399
▁과정에서	-2400
▁황교	-2401
▁한미	-2402
▁지정	-2403
안에	-2404
중앙	-2405
수의	-2406
▁방침	-2407
나마	-2408
▁총선	-2409
▁업계	-2410
▁전용	-2411
▁가입	-2412
복지	-2413
▁철저	-2414
▁싱	-2415
랍니다	-2416
▁아버	-2417
▁지금까지	-2418
▁과학	-2419
위로	-2420
본부	-2421
▁전에	-2422
▁w	-2423
▁쉽게	-2424
id	-2425
느냐	-2426
▁아시아	-2427
▁앵커	-2428
▁우수	-2429
▁자체가	-2430
명은	-2431
▁북한의	-2432
▁겪	-2433
▁광고	-2434
와의	-2435
▁보이	-2436
▁배우	-2437
▁되면	-2438
▁공간	-2439
▁소재	-2440
▁담당	-2441
▁나도	-2442
▁대북	-2443
60	-2444
제품	-2445
포인트	-2446
.5%	-2447
년을	-2448
▁않다	-2449
들에	-2450
▁하자	-2451
▁전해	-2452
▁실적	-2453
▁회복	-2454
할때	-2455
▁역할을	-2456
▁지랄	-2457
▁자살	-2458
▁300	-2459
▁사퇴	-2460
▁뿌	-2461
▁울산	-2462
▁있어서	-2463
▁f	-2464
▁월급	-2465
▁그룹	-2466
단이	-2467
▁끊	-2468
▁바란다	-2469
▁있지	-2470
ed	-2471
▁이번에	-2472
준표	-2473
공항	-2474
회견	-2475
▁제출	-2476
차피	-2477
▁면서	-2478
▁레이	-2479
▁파악	-2480
▁알바	-2481
도의	-2482
보다는	-2483
▁들고	-2484
▁캠	-2485
로부터	-2486
나고	-2487
▁ᅳ	-2488
했으며	-2489
▁인물	-2490
▁맞아	-2491
▁맥	-2492
▁벌어	-2493
▁노무현	-2494
▁열심히	-2495
을때	-2496
평화	-2497
13	-2498
▁시리즈	-2499
▁인생	-2500
▁작성	-2501
지사	-2502
바일	-2503
라서	-2504
노조	-2505
보자	-2506
▁감독	-2507
랫폼	-2508
▁상위	-2509
12	-2510
소득	-2511
▁추천	-2512
▁화재	-2513
--	-2514
BC	-2515
▁재산	-2516
대학	-2517
일에	-2518
인으로	-2519
프트	-2520
▁영업이익	-2521
▁있으니	-2522
▁받았다	-2523
국은	-2524
▁훨	-2525
▁찌	-2526
▁되지	-2527
라리	-2528
▁인터뷰	-2529
병원	-2530
진짜	-2531
es	-2532
▁ᄏᄏᄏᄏᄏ	-2533
▁공유	-2534
▁휘	-2535
▁홍보	-2536
▁좋다	-2537
▁나올	-2538
▁돼지	-2539
평가	-2540
▁장기	-2541
지게	-2542
이런	-2543
부에	-2544
나가	-2545
;;	-2546
▁힘을	-2547
이로	-2548
▁설립	-2549
전쟁	-2550
▁의심	-2551
▁문제를	-2552
▁Y	-2553
▁역대	-2554
올림픽	-2555
▁변화	-2556
▁체험	-2557
▁많아	-2558
일보	-2559
지금	-2560
워서	-2561
▁중심으로	-2562
개혁	-2563
80	-2564
른다	-2565
과는	-2566
▁증권	-2567
▁사회적	-2568
▁늦	-2569
▁끌어	-2570
성에	-2571
▁알려졌다	-2572
관에서	-2573
움을	-2574
▁다르	-2575
차가	-2576
▁사실상	-2577
▁이와	-2578
리의	-2579
▁싶다	-2580
▁동물	-2581
as	-2582
▁서비스를	-2583
되면서	-2584
▁양심	-2585
▁덧붙였다	-2586
▁특수	-2587
만한	-2588
▁동시에	-2589
▁포기	-2590
▁시켜	-2591
▁항상	-2592
▁자세	-2593
▁그림	-2594
▁연속	-2595
am	-2596
▁하늘	-2597
법을	-2598
쳤다	-2599
▁홈페이지	-2600
무리	-2601
▁북한에	-2602
▁나경	-2603
사파	-2604
수준	-2605
연합	-2606
▁나왔	-2607
수수	-2608
▁시험	-2609
주를	-2610
▁기자회견	-2611
▁멋	-2612
▁냉	-2613
자에게	-2614
▁상장	-2615
▁장난	-2616
까요	-2617
▁통과	-2618
▁만드는	-2619
아이	-2620
▁화제	-2621
기의	-2622
▁반도체	-2623
▁이벤트	-2624
어버	-2625
▁아프	-2626
시킨	-2627
▁라는	-2628
▁같은데	-2629
정에	-2630
계획	-2631
▁왼	-2632
25	-2633
▁안된다	-2634
▁체결	-2635
▁섬	-2636
▁정당	-2637
▁바꾸	-2638
▁수상	-2639
▁90	-2640
▁어려운	-2641
바로	-2642
▁솔직	-2643
▁스킬	-2644
▁저렇게	-2645
▁중단	-2646
▁마찬	-2647
▁중이다	-2648
부모	-2649
리로	-2650
▁기준으로	-2651
받는	-2652
슬람	-2653
▁그때	-2654
년이	-2655
........	-2656
▁바른미래	-2657
받은	-2658
▁조용	-2659
▁강제	-2660
▁문제는	-2661
▁아예	-2662
월부터	-2663
▁변경	-2664
▁대해서는	-2665
▁남성	-2666
하라고	-2667
대책	-2668
시가	-2669
▁했는데	-2670
▁통한	-2671
▁있나	-2672
▁폐지	-2673
▁자주	-2674
복을	-2675
▁나타났다	-2676
▁주고	-2677
분이	-2678
규직	-2679
▁굴	-2680
단은	-2681
▁왔	-2682
▁주목	-2683
마디	-2684
수로	-2685
많은	-2686
▁없을	-2687
▁지지율	-2688
주시면	-2689
▁쓰는	-2690
레스	-2691
▁옆	-2692
▁도와	-2693
▁모바일	-2694
▁진출	-2695
세금	-2696
▁놓고	-2697
▁이유가	-2698
▁자신이	-2699
il	-2700
▁금지	-2701
▁일본이	-2702
하려	-2703
포츠	-2704
),	-2705
듯이	-2706
▁전남	-2707
▁상대로	-2708
나서	-2709
▁기록했다	-2710
▁밑	-2711
▁팩	-2712
el	-2713
▁약속	-2714
15	-2715
▁의해	-2716
▁검사	-2717
▁없다는	-2718
▁앞에서	-2719
받아	-2720
▁d	-2721
▁선고	-2722
▁까지	-2723
▁낮은	-2724
▁하이	-2725
▁임대	-2726
▁대선	-2727
명으로	-2728
▁여전히	-2729
▁유일	-2730
성장	-2731
관은	-2732
▁내놓	-2733
것들이	-2734
리카	-2735
▁청문	-2736
▁구체	-2737
인들이	-2738
▁실패	-2739
▁무서	-2740
▁곡	-2741
억원을	-2742
▁헛	-2743
▁거기	-2744
▁흑	-2745
대학교	-2746
▁평양	-2747
▁옮	-2748
감이	-2749
률이	-2750
비가	-2751
▁특징	-2752
▁보통	-2753
▁순매	-2754
▁여의도	-2755
▁비중	-2756
▁아는	-2757
▁반응	-2758
웨이	-2759
▁그러면서	-2760
일은	-2761
tt	-2762
카오	-2763
▁국회에서	-2764
▁불구	-2765
▁확정	-2766
▁실시간	-2767
▁평생	-2768
시키는	-2769
▁마찬가지	-2770
▁사실을	-2771
조차	-2772
지마라	-2773
▁거쳐	-2774
받습니다	-2775
▁야당	-2776
주기	-2777
▁스트	-2778
▁플랫폼	-2779
개의	-2780
아닌	-2781
▁회장	-2782
▁창업	-2783
▁판단되는	-2784
▁피해를	-2785
▁경북	-2786
부의	-2787
▁드루킹	-2788
▁모양	-2789
▁궁금	-2790
▁깊	-2791
▁출연	-2792
▁마라	-2793
▁업종	-2794
▁그의	-2795
▁스마트폰	-2796
점에서	-2797
▁일본의	-2798
▁없다고	-2799
▁투입	-2800
▁단순	-2801
▁삭	-2802
▁공감언론	-2803
든지	-2804
하였다	-2805
나게	-2806
▁형태	-2807
플레이	-2808
▁이유로	-2809
▁조치	-2810
▁옛	-2811
여서	-2812
상에	-2813
▁작년	-2814
화폐	-2815
청은	-2816
▁721	-2817
과학	-2818
제도	-2819
▁사전	-2820
▁X	-2821
▁o	-2822
.2%	-2823
아치	-2824
▁사람들은	-2825
▁것이라고	-2826
▁홍준표	-2827
▁35	-2828
▁고통	-2829
▁난리	-2830
▁있기	-2831
어를	-2832
▁ᅳᅳ	-2833
▁가치나	-2834
.1%	-2835
▁자랑	-2836
▁뉴시스가	-2837
.3%	-2838
였던	-2839
▁좋겠다	-2840
▁보내주시면	-2841
▁시간이	-2842
▁조건	-2843
▁어차피	-2844
▁사진영상	-2845
▁화제성이	-2846
▁#	-2847
▁7470	-2848
▁반영하겠습니다	-2849
▁제보받습니다	-2850
▁사진영상부	-2851
▁액	-2852
▁임금	-2853
▁공부	-2854
▁하기	-2855
스코	-2856
▁전날	-2857
▁난민	-2858
▁점검	-2859
거든	-2860
▁징역	-2861
▁법무부	-2862
▁올려	-2863
▁올랐	-2864
▁만들고	-2865
관광	-2866
▁제도	-2867
에만	-2868
▁사태	-2869
카드	-2870
▁촉구	-2871
▁말아	-2872
▁흥	-2873
활동	-2874
▁아래	-2875
분에	-2876
▁2013	-2877
▁쌍	-2878
▁입장을	-2879
▁관한	-2880
디오	-2881
▁사람을	-2882
▁훨씬	-2883
▁순간	-2884
▁세종	-2885
▁→	-2886
▁일으	-2887
▁경우가	-2888
.4%	-2889
상공	-2890
▁갔	-2891
서울	-2892
▁민족	-2893
▁편의	-2894
크로	-2895
▁일베	-2896
정의	-2897
▁콘텐츠	-2898
나오	-2899
격을	-2900
▁유통	-2901
체를	-2902
▁측은	-2903
▁말도	-2904
▁의무	-2905
▁ᆢ	-2906
▁번째	-2907
정상회담	-2908
▁하며	-2909
이도	-2910
▁저지	-2911
▁보상	-2912
었던	-2913
▁왼쪽	-2914
나면	-2915
ac	-2916
▁아들	-2917
▁바라	-2918
사진	-2919
제는	-2920
인과	-2921
다운	-2922
▁매수	-2923
▁고위	-2924
▁싶은	-2925
▁최악	-2926
▁바보	-2927
▁호텔	-2928
같다	-2929
om	-2930
▁내용을	-2931
▁불러	-2932
.7%	-2933
ttp	-2934
▁완전히	-2935
▁수가	-2936
▁생각해	-2937
▁올림픽	-2938
▁둔	-2939
kr	-2940
▁생각이	-2941
▁등록	-2942
▁방어	-2943
실에서	-2944
▁종북	-2945
▁필요하다	-2946
펀드	-2947
▁작업	-2948
▁가만	-2949
▁부끄	-2950
▁엄마	-2951
액은	-2952
.6%	-2953
▁아침	-2954
▁빠져	-2955
선이	-2956
던가	-2957
나라는	-2958
▁사업을	-2959
▁작은	-2960
▁걷	-2961
▁협의	-2962
▁겸	-2963
질이	-2964
분을	-2965
▁ᅲᅲ	-2966
▁애들	-2967
년도	-2968
▁지구	-2969
지능	-2970
.8%	-2971
▁단계	-2972
▁버스	-2973
러스	-2974
▁밝히	-2975
▁차별	-2976
기와	-2977
전문	-2978
적이고	-2979
▁타고	-2980
▁본다	-2981
▁판사	-2982
▁비난	-2983
▁옥	-2984
▁바랍니다	-2985
건설	-2986
▁의사	-2987
▁열고	-2988
▁김경	-2989
▁1000	-2990
://	-2991
▁선언	-2992
▁불쌍	-2993
한다면	-2994
▁남아	-2995
심을	-2996
▁느낌	-2997
▁고민	-2998
▁지금은	-2999
자에	-3000
하려고	-3001
자동	-3002
▁이용해	-3003
▁니네	-3004
▁갤	-3005
▁잊	-3006
▁익	-3007
▁거지	-3008
▁밝혔습니다	-3009
▁늘어	-3010
▁손해	-3011
▁민주주의	-3012
▁스토	-3013
▁비롯한	-3014
▁조정	-3015
▁음악	-3016
▁쌓	-3017
▁쓰고	-3018
성도	-3019
▁살펴	-3020
ᅮᅮ	-3021
.9%	-3022
▁훈련	-3023
▁위협	-3024
▁뜨	-3025
게임	-3026
되며	-3027
▁일어나	-3028
의견	-3029
관을	-3030
▁2000	-3031
▁수행	-3032
▁불편	-3033
▁불안	-3034
▁점을	-3035
▁태풍	-3036
▁진보	-3037
▁바꿔	-3038
기준	-3039
▁주인공	-3040
▁낸	-3041
▁불과	-3042
▁빅	-3043
지의	-3044
▁흘	-3045
철수	-3046
▁이끌	-3047
없고	-3048
▁거부	-3049
▁굳	-3050
▁인구	-3051
▁프랑스	-3052
▁있네	-3053
▁희생	-3054
▁그나마	-3055
▁싫어	-3056
▁이상의	-3057
하겠다는	-3058
▁상황에서	-3059
ᄏᄏᄏᄏᄏᄏᄏᄏᄏᄏᄏᄏᄏᄏᄏᄏ	-3060
리스트	-3061
▁깔	-3062
▁더러운	-3063
바리	-3064
▁이달	-3065
▁상당히	-3066
▁매년	-3067
▁없었다	-3068
▁탐	-3069
▁집행	-3070
으니까	-3071
▁전통	-3072
▁김영	-3073
▁앞두고	-3074
▁디지	-3075
시대	-3076
▁때는	-3077
▁승리	-3078
개를	-3079
▁원하는	-3080
▁있어야	-3081
▁문재인이	-3082
▁낫	-3083
간에	-3084
▁동일	-3085
직원	-3086
인에	-3087
▁전화	-3088
▁한국의	-3089
▁보장	-3090
년대	-3091
질을	-3092
협력	-3093
▁통계	-3094
▁나머	-3095
별로	-3096
▁어제	-3097
년까지	-3098
▁활성화	-3099
▁부터	-3100
▁목숨	-3101
▁k	-3102
▁노래	-3103
▁투기	-3104
▁하여	-3105
야한다	-3106
시스템	-3107
▁할인	-3108
▁가상	-3109
▁예방	-3110
버스	-3111
▁이들은	-3112
으로서	-3113
주면	-3114
▁타이	-3115
학과	-3116
라마	-3117
22	-3118
로남	-3119
▁여름	-3120
▁부탁	-3121
▁콜	-3122
▁국립	-3123
▁돈이	-3124
▁솔직히	-3125
온다	-3126
▁첨	-3127
라스	-3128
▁이러한	-3129
▁다들	-3130
소가	-3131
▁이기	-3132
업계	-3133
un	-3134
▁의견을	-3135
화된	-3136
리어	-3137
율은	-3138
▁꼽	-3139
▁소통	-3140
▁◇	-3141
▁김성	-3142
▁미국은	-3143
▁인한	-3144
소에	-3145
차는	-3146
▁괜찮	-3147
▁매국	-3148
▁힘든	-3149
석이	-3150
▁지적했다	-3151
군이	-3152
로남불	-3153
함을	-3154
문이	-3155
▁갈등	-3156
▁창출	-3157
고있	-3158
▁군대	-3159
▁마을	-3160
▁장관은	-3161
제에	-3162
지어	-3163
▁특정	-3164
보호	-3165
▁정신차	-3166
▁제목	-3167
▁해야지	-3168
▁대중	-3169
▁남한	-3170
▁뭐냐	-3171
▁사장	-3172
▁덜	-3173
▁당선	-3174
선언	-3175
▁애플	-3176
▁안하고	-3177
▁가해	-3178
▁년	-3179
▁필요가	-3180
피해	-3181
구조	-3182
▁36	-3183
▁추정	-3184
▁비롯해	-3185
님이	-3186
▁the	-3187
▁남편	-3188
대비	-3189
품을	-3190
▁상관	-3191
▁이나라	-3192
이게	-3193
▁자꾸	-3194
▁닭	-3195
▁모르고	-3196
▁자영업	-3197
▁음주	-3198
▁설정	-3199
실이	-3200
▁소환	-3201
▁낳	-3202
▁음식	-3203
▁기소	-3204
▁차라리	-3205
▁이제는	-3206
▁놈들	-3207
▁적이	-3208
▁나이	-3209
주민	-3210
▁느끼	-3211
로서	-3212
전이	-3213
▁깜	-3214
▁측면	-3215
▁헌법	-3216
▁흡	-3217
▁프로젝	-3218
말로	-3219
▁끝까지	-3220
▁진단	-3221
▁비슷한	-3222
▁주장했다	-3223
었고	-3224
▁앱	-3225
다른	-3226
▁벤	-3227
▁화이팅	-3228
▁꽃	-3229
▁이유는	-3230
수있	-3231
만을	-3232
▁일본은	-3233
위원장	-3234
어로	-3235
▁홍콩	-3236
▁든	-3237
프라	-3238
▁나경원	-3239
상은	-3240
▁무너	-3241
▁것입니다	-3242
▁없음	-3243
률은	-3244
▁보이는	-3245
▁라며	-3246
▁가정	-3247
▁주사파	-3248
군요	-3249
하려는	-3250
16	-3251
▁도움이	-3252
▁알았	-3253
▁고생	-3254
습니까	-3255
한게	-3256
▁바른미래당	-3257
▁블랙	-3258
▁카카오	-3259
▁시청	-3260
▁나중에	-3261
17	-3262
▁예비	-3263
달라고	-3264
▁나왔다	-3265
▁전북	-3266
▁불가능	-3267
▁친일파	-3268
▁방식	-3269
자금	-3270
거라	-3271
리한	-3272
력은	-3273
가의	-3274
▁간첩	-3275
ᄏᄏᄏᄏᄏ	-3276
▁주로	-3277
섰다	-3278
▁그럴	-3279
▁엉	-3280
▁인공지능	-3281
▁촬영	-3282
ad	-3283
▁다행	-3284
▁33	-3285
▁화장	-3286
▁강한	-3287
지면서	-3288
하였	-3289
재앙	-3290
▁조합	-3291
▁빚	-3292
▁선생	-3293
▁이란	-3294
▁컴	-3295
▁말씀	-3296
▁어디서	-3297
▁멍청	-3298
겼다	-3299
▁반성	-3300
리오	-3301
▁토론	-3302
▁인증	-3303
억원으로	-3304
이들	-3305
는거지	-3306
지마	-3307
▁일정	-3308
깝다	-3309
▁장면	-3310
산을	-3311
▁쏟	-3312
▁블록	-3313
▁갑자기	-3314
단계	-3315
▁제안	-3316
적을	-3317
▁맞춰	-3318
▁있냐	-3319
▁대통령과	-3320
▁취소	-3321
▁돌려	-3322
▁이재명	-3323
▁이걸	-3324
에게는	-3325
▁씨는	-3326
해야한다	-3327
▁비행	-3328
▁압박	-3329
의회	-3330
그리고	-3331
협회	-3332
▁오르	-3333
▁기초	-3334
▁2012	-3335
▁매일	-3336
▁봄	-3337
200	-3338
니스	-3339
▁시도	-3340
▁자녀	-3341
기자	-3342
대중	-3343
▁자금	-3344
으로도	-3345
▁개판	-3346
에서의	-3347
▁밖	-3348
▁고소	-3349
▁전세계	-3350
▁기술을	-3351
▁주도	-3352
▁없는데	-3353
▁한국경제	-3354
▁않으면	-3355
트로	-3356
부와	-3357
▁가면	-3358
▁차례	-3359
해요	-3360
져서	-3361
▁자본	-3362
▁유튜	-3363
▁방안을	-3364
▁진심	-3365
▁복지	-3366
하겠다고	-3367
▁중국이	-3368
▁검찰은	-3369
▁뭔가	-3370
▁황교안	-3371
져라	-3372
▁병원	-3373
스러운	-3374
▁물어	-3375
▁무료	-3376
▁비상	-3377
▁발사	-3378
▁수석	-3379
▁누군	-3380
▁하네	-3381
▁점점	-3382
▁보이고	-3383
여행	-3384
▁2018.0	-3385
▁생긴	-3386
▁에너지	-3387
▁수십	-3388
▁근거	-3389
▁접근	-3390
▁척	-3391
▁y	-3392
▁삼성전자	-3393
운전	-3394
▁대표가	-3395
▁소송	-3396
차례	-3397
상황	-3398
재단	-3399
▁에어	-3400
▁한마디	-3401
▁기여	-3402
▁결과를	-3403
가면	-3404
▁애초	-3405
▁것에	-3406
▁옷	-3407
▁살고	-3408
대한민국	-3409
ch	-3410
▁기타	-3411
율을	-3412
국에	-3413
우스	-3414
OO	-3415
히는	-3416
▁고양	-3417
만명	-3418
▁바탕	-3419
자고	-3420
▁페이스	-3421
▁청소년	-3422
▁아울	-3423
▁몰아	-3424
▁상황이	-3425
공단	-3426
어진	-3427
리와	-3428
▁빛	-3429
▁넓	-3430
▁만약	-3431
▁자율	-3432
점으로	-3433
2%	-3434
▁따로	-3435
▁공모	-3436
들한테	-3437
▁중구	-3438
으로써	-3439
▁사상	-3440
▁하는거	-3441
▁물러	-3442
자도	-3443
부로	-3444
워크	-3445
▁수도권	-3446
라지	-3447
케팅	-3448
▁일제	-3449
▁페미	-3450
▁장관이	-3451
▁말하는	-3452
9%	-3453
▁고발	-3454
됐습니다	-3455
잡고	-3456
하다가	-3457
▁<	-3458
▁생각하는	-3459
▁몬	-3460
▁생각한다	-3461
▁감옥	-3462
▁디자인	-3463
▁예술	-3464
▁걍	-3465
▁정보를	-3466
체인	-3467
▁폴	-3468
기만	-3469
ro	-3470
▁강력한	-3471
▁싹	-3472
운드	-3473
▁초반	-3474
▁과연	-3475
▁인식	-3476
해보	-3477
▁북한은	-3478
▁[	-3479
시를	-3480
▁상황을	-3481
대회	-3482
▁토착	-3483
ig	-3484
▁분노	-3485
NS	-3486
멤버	-3487
줘라	-3488
군의	-3489
▁입니다	-3490
▁의원이	-3491
1%	-3492
▁깨끗	-3493
때는	-3494
말이	-3495
건을	-3496
▁흉	-3497
가구	-3498
놈이	-3499
▁뉴욕	-3500
▁바다	-3501
리게	-3502
8%	-3503
▁성능	-3504
▁묘	-3505
▁듣고	-3506
▁경찰이	-3507
경영	-3508
▁인수	-3509
그냥	-3510
곳에	-3511
경기	-3512
구요	-3513
▁들이	-3514
만의	-3515
▁부인	-3516
▁폭행	-3517
▁덮	-3518
▁맨날	-3519
▁인간이	-3520
국제	-3521
▁유엔	-3522
▁부문	-3523
▁금리	-3524
4%	-3525
▁중국의	-3526
▁한국은	-3527
▁봐라	-3528
통일	-3529
보네	-3530
▁혐의를	-3531
▁뇌물	-3532
▁긍	-3533
▁늘어나	-3534
상의	-3535
▁명예	-3536
위해	-3537
and	-3538
▁아닐	-3539
▁여기서	-3540
▁충분히	-3541
▁마약	-3542
진이	-3543
▁이것	-3544
▁마무리	-3545
역을	-3546
▁디지털	-3547
라우	-3548
이크	-3549
im	-3550
▁a	-3551
▁재미	-3552
었다고	-3553
▁연기	-3554
화에	-3555
3%	-3556
▁직업	-3557
▁ᄇ	-3558
▁장비	-3559
▁했던	-3560
▁팔아	-3561
이번	-3562
▁있음	-3563
▁기상	-3564
▁목소	-3565
▁획	-3566
▁198	-3567
▁아울러	-3568
겁니다	-3569
▁공장	-3570
자나	-3571
구는	-3572
▁검증	-3573
▁관심이	-3574
▁문서	-3575
가지고	-3576
▁부과	-3577
▁취급	-3578
냐고	-3579
▁레벨	-3580
▁안에	-3581
던지	-3582
▁선발	-3583
받을	-3584
사항	-3585
▁있는지	-3586
▁셀	-3587
싶다	-3588
먹을	-3589
▁어쩔	-3590
▁책임을	-3591
ay	-3592
정희	-3593
▁광화	-3594
▁동네	-3595
▁여야	-3596
▁규모의	-3597
▁폐기	-3598
▁시간을	-3599
7%	-3600
,,,,	-3601
점은	-3602
▁이들	-3603
좋은	-3604
▁인민	-3605
▁둘러	-3606
▁하니	-3607
▁국민들은	-3608
▁넌	-3609
▁달성	-3610
▁뻔뻔	-3611
▁나선	-3612
▁등은	-3613
▁시대	-3614
공개	-3615
▁연계	-3616
기지	-3617
▁올리	-3618
▁교수는	-3619
▁것이라는	-3620
시오	-3621
▁마법	-3622
니아	-3623
14	-3624
느라	-3625
하러	-3626
량은	-3627
▁그랬	-3628
▁시위	-3629
▁태극	-3630
▁없네	-3631
신문	-3632
▁믿고	-3633
▁개소리	-3634
▁100%	-3635
▁슈퍼	-3636
▁회원	-3637
상도	-3638
▁태양	-3639
▁지방선거	-3640
▁돌아가	-3641
▁매매	-3642
세력	-3643
식품	-3644
▁시각	-3645
▁종교	-3646
어야지	-3647
마을	-3648
▁주의	-3649
먹은	-3650
▁l	-3651
▁아동	-3652
▁파괴	-3653
▁대기	-3654
드가	-3655
주도	-3656
분들	-3657
▁미국과	-3658
▁출발	-3659
▁인기	-3660
티브	-3661
그런	-3662
▁똑같은	-3663
중국	-3664
▁왔다	-3665
▁있다면	-3666
▁억울	-3667
말을	-3668
▁이슈	-3669
혁명	-3670
▁찬성	-3671
▁짐	-3672
쓰레기	-3673
▁10%	-3674
격이	-3675
재판	-3676
시길	-3677
자체	-3678
▁아니라고	-3679
했으면	-3680
하는지	-3681
아요	-3682
▁떼	-3683
▁꾸준	-3684
▁못할	-3685
▁눈치	-3686
▁위안	-3687
▁생명	-3688
로를	-3689
검사	-3690
▁그저	-3691
ol	-3692
세로	-3693
▁가슴	-3694
▁v	-3695
▁열리는	-3696
자유	-3697
처리	-3698
만원을	-3699
▁전망이다	-3700
졌습니다	-3701
률을	-3702
90	-3703
▁졸업	-3704
트는	-3705
▁ᆞ	-3706
더만	-3707
▁중에	-3708
▁원전	-3709
▁옳	-3710
안보	-3711
▁셈	-3712
▁종로	-3713
▁비리	-3714
▁서울대	-3715
▁진정한	-3716
▁직장	-3717
▁미군	-3718
▁죽은	-3719
24	-3720
▁여기에	-3721
▁미리	-3722
▁실질	-3723
▁소비자	-3724
mm	-3725
▁기업이	-3726
▁아닙	-3727
▁김정	-3728
▁내고	-3729
▁뛰어	-3730
▁눈에	-3731
▁안내	-3732
▁ᄒ	-3733
이즈	-3734
▁세금으로	-3735
▁동의	-3736
속도로	-3737
▁하는게	-3738
심이	-3739
▁코스닥	-3740
▁처음으로	-3741
▁전면	-3742
고를	-3743
▁온갖	-3744
▁응원합니다	-3745
▁교체	-3746
순실	-3747
▁하게	-3748
까지는	-3749
▁비서	-3750
▁한달	-3751
가요	-3752
▁정신병	-3753
CT	-3754
▁샤	-3755
주로	-3756
▁최초로	-3757
▁정책을	-3758
▁지원을	-3759
▁전반	-3760
▁차단	-3761
▁무섭	-3762
▁수는	-3763
▁IT	-3764
▁불매	-3765
추행	-3766
▁자산	-3767
용이	-3768
들이다	-3769
▁바탕으로	-3770
자원	-3771
▁발생한	-3772
▁선진	-3773
▁애국	-3774
메라	-3775
▁진정	-3776
▁대법원	-3777
▁정치인	-3778
▁그녀	-3779
▁바이오	-3780
▁멤버	-3781
▁일자	-3782
널드	-3783
계가	-3784
▁갑질	-3785
▁원칙	-3786
년생	-3787
▁45	-3788
▁성폭행	-3789
▁ᄀ	-3790
는가	-3791
▁한일	-3792
2018	-3793
감독	-3794
▁인재	-3795
시킬	-3796
▁봐도	-3797
▁지속적으로	-3798
▁내로남불	-3799
▁불가	-3800
▁홀	-3801
단의	-3802
▁연장	-3803
▁로봇	-3804
조원	-3805
▁이중	-3806
▁새로	-3807
▁단지	-3808
6%	-3809
부대	-3810
▁그것도	-3811
▁없어서	-3812
트가	-3813
▁관심을	-3814
▁아이템	-3815
ct	-3816
상으로	-3817
▁습	-3818
▁공시	-3819
▁넘는	-3820
▁50%	-3821
조정	-3822
시켰	-3823
▁겁니다	-3824
▁결론	-3825
▁최고의	-3826
▁알아서	-3827
▁대규모	-3828
봐도	-3829
왜구	-3830
하지말고	-3831
▁너네	-3832
▁정리	-3833
달라	-3834
대전	-3835
▁지들이	-3836
▁것과	-3837
▁긴급	-3838
▁긍정	-3839
▁조사를	-3840
▁변호사	-3841
▁잘못된	-3842
▁취재	-3843
▁활동을	-3844
▁절반	-3845
아버	-3846
▁애니	-3847
당을	-3848
▁노인	-3849
▁우리의	-3850
▁확산	-3851
▁방안	-3852
▁굉	-3853
▁노선	-3854
개가	-3855
▁관람	-3856
사람이	-3857
▁페이스북	-3858
▁도착	-3859
▁했지만	-3860
▁개편	-3861
▁국민연금	-3862
▁무죄	-3863
▁영어	-3864
공원	-3865
리자	-3866
▁열어	-3867
드로	-3868
▁공산주의	-3869
했으나	-3870
▁충남	-3871
▁생각을	-3872
▁센	-3873
▁엄청난	-3874
결과	-3875
▁소유	-3876
▁쏟아	-3877
▁맺	-3878
총리	-3879
▁스포츠	-3880
▁하냐	-3881
보가	-3882
▁했습니다	-3883
▁계열	-3884
▁아무것도	-3885
텔레	-3886
신이	-3887
▁방침이다	-3888
일까	-3889
도에	-3890
▁기회	-3891
▁박원	-3892
▁처럼	-3893
▁유튜브	-3894
▁정치적	-3895
▁나무	-3896
지기	-3897
▁of	-3898
▁실시간으로	-3899
▁32	-3900
▁임시	-3901
▁나누	-3902
스럽게	-3903
▁똑같이	-3904
▁집계	-3905
신을	-3906
소에서	-3907
▁선물	-3908
▁제거	-3909
▁포함한	-3910
지요	-3911
▁효율	-3912
보수	-3913
겠나	-3914
진을	-3915
▁심지어	-3916
▁사회주의	-3917
월에	-3918
대에서	-3919
단지	-3920
▁꽤	-3921
▁높다	-3922
▁진실	-3923
▁38	-3924
사무	-3925
▁때려	-3926
▁풀어	-3927
▁관광객	-3928
▁반복	-3929
."	-3930
▁공사	-3931
▁남의	-3932
군은	-3933
▁정작	-3934
▁베이	-3935
▁아냐	-3936
있고	-3937
▁개념	-3938
▁있었던	-3939
▁관세	-3940
▁쌀	-3941
적이다	-3942
▁나머지	-3943
▁따라서	-3944
▁주차	-3945
▁오픈	-3946
▁도널드	-3947
▁Q	-3948
▁집권	-3949
▁짱깨	-3950
▁동맹	-3951
▁출마	-3952
리티	-3953
▁기업의	-3954
지구	-3955
▁철수	-3956
형을	-3957
▁반발	-3958
▁못하게	-3959
▁정의당	-3960
▁52	-3961
▁2020	-3962
▁못했다	-3963
▁인간들	-3964
▁영웅	-3965
▁대우	-3966
간의	-3967
▁남은	-3968
▁문재인은	-3969
▁했다고	-3970
▁재무	-3971
이제	-3972
냄새	-3973
건축	-3974
코리아	-3975
▁e	-3976
▁딜	-3977
▁이해가	-3978
으로부터	-3979
치지	-3980
▁g	-3981
▁정은이	-3982
포트	-3983
▁배경	-3984
▁일은	-3985
▁굉장	-3986
▁양아치	-3987
비는	-3988
▁검색	-3989
방에	-3990
▁대한민국의	-3991
▁게다가	-3992
▁여당	-3993
▁폭발	-3994
iv	-3995
▁취임	-3996
정말	-3997
스토	-3998
▁벌써	-3999
▁연예	-4000
쓰고	-4001
▁묵	-4002
특별	-4003
▁그거	-4004
책임	-4005
▁지금도	-4006
트리	-4007
▁불구하고	-4008
장애	-4009
▁모자	-4010
▁죽여	-4011
▁부회	-4012
▁사항	-4013
▁통화	-4014
▁초기	-4015
조합	-4016
▁발굴	-4017
스럽다	-4018
▁경제가	-4019
▁득	-4020
▁벌금	-4021
▁SNS	-4022
▁신용	-4023
검찰	-4024
▁완성	-4025
▁그러니	-4026
주지	-4027
▁모집	-4028
▁완료	-4029
▁새벽	-4030
▁방사	-4031
▁더이상	-4032
▁배치	-4033
▁해석	-4034
▁협박	-4035
▁말로	-4036
▁중간	-4037
▁검찰이	-4038
▁설계	-4039
▁이루어	-4040
▁천안	-4041
▁http	-4042
.”	-4043
▁본인이	-4044
즈아	-4045
하네요	-4046
▁운행	-4047
▁그러면	-4048
▁짧	-4049
가락	-4050
▁하나도	-4051
었습니다	-4052
▁개헌	-4053
리며	-4054
▁34	-4055
▁드라마	-4056
문재인	-4057
▁도망	-4058
시켜라	-4059
▁마치	-4060
▁국민은	-4061
▁저러	-4062
▁밀어	-4063
▁심판	-4064
▁실업	-4065
▁광화문	-4066
▁발표했다	-4067
▁닥	-4068
▁나오고	-4069
바이오	-4070
▁조심	-4071
할까	-4072
정부는	-4073
▁법을	-4074
요일	-4075
소는	-4076
▁보건	-4077
▁허용	-4078
▁아닌데	-4079
▁스페	-4080
수수색	-4081
당히	-4082
점에	-4083
▁회장은	-4084
▁실무	-4085
▁2011	-4086
훼손	-4087
▁기사를	-4088
▁프리미	-4089
▁만족	-4090
▁어머니	-4091
▁가고	-4092
걸로	-4093
▁횡	-4094
▁폼	-4095
▁몰랐	-4096
▁북괴	-4097
▁아름	-4098
시티	-4099
▁됩니다	-4100
▁나갈	-4101
▁진술	-4102
▁빠른	-4103
면서도	-4104
좌파	-4105
식에	-4106
ER	-4107
▁수밖에	-4108
▁집에	-4109
씨의	-4110
▁빙	-4111
상태	-4112
▁in	-4113
▁흐름	-4114
스와	-4115
▁십	-4116
포르	-4117
놈들이	-4118
지와	-4119
체육	-4120
▁중국은	-4121
▁동원	-4122
ow	-4123
▁보안	-4124
▁폐쇄	-4125
▁철저히	-4126
▁혹은	-4127
▁미투	-4128
▁공항	-4129
▁이상한	-4130
시험	-4131
▁비싸	-4132
▁그렇지	-4133
▁2010	-4134
▁월드	-4135
▁마케팅	-4136
▁사기꾼	-4137
▁무식	-4138
▁적극적으로	-4139
대가리	-4140
▁맹	-4141
종목	-4142
호를	-4143
표를	-4144
▁앞에	-4145
▁먹는	-4146
일로	-4147
력으로	-4148
▁충북	-4149
▁말은	-4150
▁프레	-4151
▁칭	-4152
그네	-4153
대상	-4154
▁악마	-4155
▁답답	-4156
▁기회를	-4157
▁쏘	-4158
▁주제로	-4159
▁철도	-4160
▁이름을	-4161
보기	-4162
▁제품을	-4163
▁가르	-4164
▁삼성전	-4165
▁유저	-4166
하는건	-4167
▁주거	-4168
▁돕	-4169
▁보였다	-4170
▁싱가	-4171
▁뽑아	-4172
▁예상된다	-4173
▁해양	-4174
▁사실이	-4175
▁이탈	-4176
▁별로	-4177
영화	-4178
돌아	-4179
OOO	-4180
!!!!!	-4181
▁빠르게	-4182
트워크	-4183
▁유치원	-4184
▁경고	-4185
자들을	-4186
▁종전	-4187
▁겨울	-4188
▁접수	-4189
▁엑	-4190
▁현대차	-4191
▁보조	-4192
기구	-4193
력과	-4194
▁확실히	-4195
▁재정	-4196
▁것들이	-4197
▁족	-4198
▁수준으로	-4199
▁수수	-4200
▁니들은	-4201
▁답변	-4202
▁수원	-4203
▁....	-4204
공동	-4205
▁류	-4206
▁상담	-4207
▁실험	-4208
▁150	-4209
▁청구	-4210
▁일어	-4211
▁진입	-4212
자동차	-4213
려나	-4214
▁치매	-4215
예술	-4216
▁나눠	-4217
▁해소	-4218
▁한국에	-4219
합시다	-4220
정부가	-4221
내가	-4222
▁ᄏᄏᄏᄏᄏᄏ	-4223
▁정확한	-4224
▁다가	-4225
▁없으면	-4226
▁지시	-4227
▁소설	-4228
▁완화	-4229
▁옹	-4230
▁못해	-4231
▁법률	-4232
▁떠나	-4233
▁압수수색	-4234
▁단속	-4235
▁자세한	-4236
▁한국이	-4237
운영	-4238
▁논란이	-4239
▁수용	-4240
▁뜯	-4241
대출	-4242
▁영원	-4243
▁지가	-4244
비아	-4245
▁덕분에	-4246
▁공기	-4247
서에	-4248
▁부르	-4249
▁20%	-4250
▁자빠	-4251
▁수치	-4252
▁합리	-4253
위의	-4254
▁건축	-4255
라니	-4256
이사	-4257
짜리	-4258
▁관련된	-4259
▁생존	-4260
▁강원도	-4261
▁기사는	-4262
스티	-4263
제발	-4264
럭시	-4265
▁이리	-4266
인줄	-4267
▁항목	-4268
▁바이	-4269
▁도둑	-4270
▁간담	-4271
▁방식으로	-4272
가격	-4273
▁외부	-4274
겠네요	-4275
마저	-4276
공자	-4277
▁수소	-4278
ht	-4279
▁매국노	-4280
▁어이	-4281
▁균	-4282
▁이때	-4283
▁경찰에	-4284
으려고	-4285
음이	-4286
▁요금	-4287
테크	-4288
인거	-4289
고도	-4290
빕니다	-4291
▁시급	-4292
▁보복	-4293
▁떡	-4294
▁기부	-4295
▁질문	-4296
보내	-4297
집단	-4298
▁사용할	-4299
비용	-4300
이라니	-4301
되기	-4302
▁바닥	-4303
라가	-4304
▁민노총	-4305
▁가짜뉴스	-4306
▁지배	-4307
연구원	-4308
▁이같이	-4309
무기	-4310
된다고	-4311
▁떨어진	-4312
▁싸움	-4313
▁그건	-4314
▁환영	-4315
▁썼	-4316
자산	-4317
▁재앙이	-4318
씨를	-4319
산물	-4320
▁뮤	-4321
500	-4322
나다	-4323
▁내일	-4324
▁것처럼	-4325
▁코스피	-4326
23	-4327
▁신속	-4328
▁굉장히	-4329
▁구간	-4330
▁객	-4331
놓은	-4332
▁판문	-4333
▁힘내	-4334
인도	-4335
▁문빠	-4336
▁참고로	-4337
역시	-4338
종의	-4339
럽다	-4340
▁센터	-4341
100	-4342
▁=	-4343
▁수술	-4344
▁개입	-4345
.18	-4346
▁주문	-4347
▁KBS	-4348
▁연간	-4349
oo	-4350
두환	-4351
▁다이	-4352
법이	-4353
▁한정	-4354
▁실현	-4355
▁이라는	-4356
▁물가	-4357
▁하던	-4358
봅니다	-4359
▁직후	-4360
동이	-4361
다시	-4362
▁없습니다	-4363
▁이야기를	-4364
▁개발한	-4365
▁투자의견	-4366
제한	-4367
들로	-4368
▁신한	-4369
민주주의	-4370
▁구입	-4371
▁주한	-4372
▁발표한	-4373
▁담배	-4374
▁30%	-4375
션을	-4376
▁한심한	-4377
▁출석	-4378
파크	-4379
▁늙	-4380
▁국개	-4381
▁몽	-4382
▁명의	-4383
▁제가	-4384
▁오른쪽	-4385
▁트위	-4386
▁뒤집	-4387
▁사용하는	-4388
▁유리	-4389
▁좋아하는	-4390
▁추가로	-4391
청산	-4392
▁계산	-4393
▁잡고	-4394
▁창원	-4395
권이	-4396
ation	-4397
▁애초에	-4398
ED	-4399
▁박정희	-4400
▁상반기	-4401
재산	-4402
▁예전	-4403
안은	-4404
▁위해서는	-4405
▁가만히	-4406
▁성향	-4407
▁파업	-4408
평균	-4409
월까지	-4410
▁~~	-4411
▁부품	-4412
▁적은	-4413
해주는	-4414
▁개요	-4415
민족	-4416
▁보도했다	-4417
▁청문회	-4418
▁입주	-4419
▁유니	-4420
▁자신을	-4421
유치	-4422
해진	-4423
▁37	-4424
▁내린	-4425
▁제외한	-4426
▁위치한	-4427
하니까	-4428
▁연금	-4429
▁EU	-4430
▁느껴	-4431
나무	-4432
▁동아	-4433
구역	-4434
▁식품	-4435
머리	-4436
ag	-4437
▁씨가	-4438
회의에서	-4439
겹다	-4440
▁해체	-4441
▁파트	-4442
▁대가	-4443
자치	-4444
▁가까운	-4445
.0%	-4446
행정	-4447
▁채널	-4448
▁거리	-4449
▁딴	-4450
조를	-4451
▁손을	-4452
▁형사	-4453
▁받지	-4454
▁지상	-4455
▁화학	-4456
하길	-4457
와는	-4458
상품	-4459
▁이른	-4460
▁동해	-4461
▁받는다	-4462
▁다소	-4463
▁핑	-4464
▁CJ	-4465
▁정기	-4466
▁하반기	-4467
▁종로구	-4468
▁뭉	-4469
당의	-4470
▁부여	-4471
았던	-4472
진흥	-4473
▁기온	-4474
▁문죄인	-4475
▁KB	-4476
▁효과가	-4477
▁달려	-4478
▁커피	-4479
▁하시	-4480
▁죽을	-4481
있네	-4482
기다	-4483
성의	-4484
▁밝힌	-4485
▁재벌	-4486
따라	-4487
▁되는데	-4488
▁제공하는	-4489
리트	-4490
▁성추행	-4491
판에	-4492
▁포항	-4493
▁보여주	-4494
없어	-4495
▁프로젝트	-4496
▁텔레	-4497
▁확장	-4498
수석	-4499
▁수준이	-4500
▁반일	-4501
▁최순실	-4502
▁춘	-4503
▁지분	-4504
av	-4505
터리	-4506
친다	-4507
▁당부	-4508
▁들여	-4509
▁할수	-4510
▁프리미엄	-4511
▁헐	-4512
▁나라냐	-4513
▁브라	-4514
▁가라	-4515
구로	-4516
ST	-4517
이었던	-4518
▁앞으로도	-4519
▁초청	-4520
▁신설	-4521
고가	-4522
미국	-4523
▁제공한다	-4524
▁피의	-4525
이의	-4526
▁민생	-4527
▁좃	-4528
제공	-4529
▁시원	-4530
한번	-4531
▁크다	-4532
쳐서	-4533
됐다고	-4534
원전	-4535
▁기자회견을	-4536
로지	-4537
▁테러	-4538
▁ᅲ	-4539
▁하세요	-4540
▁우승	-4541
▁AP	-4542
남아	-4543
인권	-4544
인가요	-4545
거고	-4546
▁운용	-4547
▁일본에	-4548
누리	-4549
▁공직	-4550
▁벽	-4551
▁누구나	-4552
▁낭	-4553
▁붕	-4554
▁팩트	-4555
▁상대적으로	-4556
청장	-4557
도와	-4558
▁시작했다	-4559
▁주말	-4560
▁김대중	-4561
ir	-4562
리핑	-4563
▁목적	-4564
▁효과를	-4565
▁사건을	-4566
▁39	-4567
방을	-4568
이든	-4569
▁김경수	-4570
▁데미	-4571
▁수사를	-4572
▁이럴	-4573
필요	-4574
▁대놓고	-4575
▁추세	-4576
▁대한항공	-4577
시마	-4578
▁쪽바리	-4579
하신	-4580
악한	-4581
법인	-4582
▁만드	-4583
▁물건	-4584
만으로	-4585
▁내용이	-4586
▁문통	-4587
▁칠	-4588
▁멈	-4589
▁GM	-4590
▁이행	-4591
곳에서	-4592
주년	-4593
▁대폭	-4594
되는데	-4595
▁훌	-4596
▁대사	-4597
무역	-4598
▁규정	-4599
님들	-4600
등급	-4601
▁CE	-4602
▁디스	-4603
▁스테	-4604
▁생기	-4605
▁가야	-4606
▁한국인	-4607
▁서초	-4608
아파트	-4609
▁관측	-4610
진핑	-4611
ᄃᄃ	-4612
▁카페	-4613
▁똑같	-4614
▁위에	-4615
▁띄	-4616
드의	-4617
▁김현	-4618
▁도전	-4619
▁싱가포르	-4620
▁멸	-4621
오고	-4622
▁전일	-4623
프레	-4624
▁꾸준히	-4625
있는데	-4626
▁카메라	-4627
▁모아	-4628
▁현금	-4629
▁교류	-4630
▁400	-4631
쟁이	-4632
▁탁	-4633
▁위원장	-4634
함이	-4635
▁메시	-4636
▁비가	-4637
▁놈들이	-4638
▁달창	-4639
▁어렵다	-4640
▁학부모	-4641
▁펜	-4642
▁죄다	-4643
화로	-4644
구의	-4645
추고	-4646
▁케이	-4647
▁등등	-4648
당에	-4649
▁확인할	-4650
호텔	-4651
▁자리를	-4652
▁ᄋ	-4653
▁꼼	-4654
▁대통령을	-4655
▁혜택을	-4656
▁이민	-4657
▁해주	-4658
▁저녁	-4659
피스	-4660
▁ᄏᄏᄏᄏᄏᄏᄏᄏ	-4661
효과	-4662
▁비밀	-4663
▁토착왜구	-4664
▁사이트	-4665
▁위원장은	-4666
▁평소	-4667
▁우려가	-4668
▁없지	-4669
▁강경	-4670
▁흔들	-4671
▁틀딱	-4672
▁힘들어	-4673
지말	-4674
해주세요	-4675
▁벗어나	-4676
?!	-4677
▁웹	-4678
▁우주	-4679
▁공약	-4680
본다	-4681
▁허위	-4682
서가	-4683
▁곳이	-4684
~!	-4685
▁돌파	-4686
▁응답	-4687
어는	-4688
▁갤럭시	-4689
상에서	-4690
▁국가가	-4691
▁살해	-4692
▁단독	-4693
.......	-4694
▁유사	-4695
▁리더	-4696
시로	-4697
▁중국에	-4698
공업	-4699
ont	-4700
▁우리나라는	-4701
▁하지말고	-4702
▁도쿄	-4703
▁나라는	-4704
▁가득	-4705
너스	-4706
▁교사	-4707
ul	-4708
▁사람도	-4709
▁방문해	-4710
사실	-4711
▁추경	-4712
▁수많은	-4713
▁빵	-4714
▁모습이	-4715
▁소상공	-4716
▁강릉	-4717
▁무능한	-4718
였습니다	-4719
▁내용은	-4720
▁봐야	-4721
절한	-4722
▁수준의	-4723
▁명이	-4724
▁축하	-4725
▁기반으로	-4726
▁금액	-4727
처벌	-4728
단다	-4729
▁명복을	-4730
▁마감	-4731
▁몬스터	-4732
웠다	-4733
us	-4734
▁생겼	-4735
▁이외	-4736
▁이미지	-4737
▁지하철	-4738
▁65	-4739
나도	-4740
▁그린	-4741
▁굳이	-4742
긴다	-4743
을텐데	-4744
전략	-4745
▁앨	-4746
▁쇼핑	-4747
▁폭염	-4748
▁등에서	-4749
▁한화	-4750
▁참석한	-4751
▁법원	-4752
▁종료	-4753
!!!!!!!!	-4754
▁강간	-4755
명한	-4756
증을	-4757
정규직	-4758
▁차이가	-4759
용으로	-4760
화점	-4761
▁것들	-4762
였고	-4763
▁한국을	-4764
어리	-4765
▁이다	-4766
▁인프라	-4767
ur	-4768
▁늘어난	-4769
▁조치를	-4770
치기	-4771
▁조용히	-4772
▁박원순	-4773
▁감안	-4774
▁구글	-4775
▁공산당	-4776
▁청원	-4777
했네	-4778
▁포인트	-4779
▁출범	-4780
▁라인	-4781
▁육성	-4782
▁총리	-4783
는거다	-4784
유가	-4785
▁후원	-4786
뿐만	-4787
▁낼	-4788
▁살기	-4789
▁거주	-4790
▁화면	-4791
▁장사	-4792
▁구분	-4793
벤처	-4794
▁시작으로	-4795
▁연락	-4796
봤다	-4797
들여	-4798
▁남녀	-4799
▁걸쳐	-4800
▁싸우	-4801
약품	-4802
▁펼쳐	-4803
▁심각한	-4804
국을	-4805
너무	-4806
▁아웃	-4807
▁않도록	-4808
▁장애인	-4809
▁인하	-4810
▁널	-4811
인듯	-4812
▁대처	-4813
레이드	-4814
▁않나	-4815
았고	-4816
미터	-4817
퓨터	-4818
▁오랜	-4819
▁진행한다	-4820
▁아버지	-4821
매매	-4822
▁원숭	-4823
▁도움을	-4824
▁유출	-4825
로가	-4826
▁체포	-4827
▁있을까	-4828
▁시장은	-4829
▁수립	-4830
▁의한	-4831
▁선임	-4832
공장	-4833
▁아나	-4834
▁김동	-4835
▁방해	-4836
스러	-4837
았는데	-4838
거운	-4839
구에	-4840
▁특성	-4841
미가	-4842
▁쪼	-4843
년동안	-4844
▁키워	-4845
▁물리	-4846
▁그가	-4847
▁상징	-4848
식은	-4849
▁곤	-4850
▁컬	-4851
▁메이	-4852
▁지자체	-4853
▁심사	-4854
▁국방부	-4855
비리	-4856
▁가격이	-4857
▁동기	-4858
▁감정	-4859
▁정체	-4860
▁넘겨	-4861
▁믿을	-4862
▁신문	-4863
▁전형	-4864
▁조국이	-4865
잖아요	-4866
▁알게	-4867
▁게시	-4868
▁최악의	-4869
께서	-4870
유의	-4871
일간	-4872
▁연출	-4873
▁캠페	-4874
▁봉사	-4875
쩝쩝	-4876
▁이내	-4877
년전	-4878
27	-4879
후보	-4880
▁태극기	-4881
사람들	-4882
▁최선을	-4883
치로	-4884
▁답이다	-4885
▁트위터	-4886
제재	-4887
▁필수	-4888
능력	-4889
▁융	-4890
무를	-4891
▁j	-4892
▁생태	-4893
▁콩	-4894
ut	-4895
공무원	-4896
▁43	-4897
▁이놈	-4898
▁캡	-4899
▁좋지	-4900
었지만	-4901
.25	-4902
▁즐길	-4903
▁아르	-4904
▁뜻을	-4905
타임	-4906
▁살려	-4907
▁최소한	-4908
장판	-4909
▁않게	-4910
TA	-4911
▁저질	-4912
▁성과를	-4913
▁맞다	-4914
박이	-4915
▁가즈아	-4916
▁자기가	-4917
▁제주도	-4918
전에서	-4919
▁아프리카	-4920
▁기계	-4921
▁법이	-4922
차별	-4923
▁블록체인	-4924
▁안나	-4925
▁권한	-4926
▁재난	-4927
식에서	-4928
투표	-4929
▁순매수	-4930
▁예측	-4931
▁국산	-4932
▁훈	-4933
▁모두가	-4934
주행	-4935
차로	-4936
호선	-4937
▁PC	-4938
▁비트	-4939
▁문슬람	-4940
▁수정	-4941
학년	-4942
▁전두환	-4943
가라	-4944
▁내리	-4945
▁친환경	-4946
시의	-4947
바닥	-4948
지니	-4949
▁안철수	-4950
니티	-4951
▁자원	-4952
▁유닛	-4953
공간	-4954
▁맞춤	-4955
하셨	-4956
▁하겠다	-4957
▁올린	-4958
▁의혹을	-4959
는건	-4960
▁저는	-4961
지법	-4962
▁획득	-4963
만간	-4964
▁내세	-4965
▁배출	-4966
▁당연한	-4967
▁돈으로	-4968
▁작가	-4969
선동	-4970
▁많은데	-4971
▁실망	-4972
쇼핑	-4973
히고	-4974
▁기가	-4975
▁쑈	-4976
르기	-4977
▁48	-4978
관련	-4979
▁주둥	-4980
외교	-4981
▁정권이	-4982
▁결과가	-4983
하는것	-4984
ain	-4985
▁에이	-4986
▁아닙니다	-4987
독재	-4988
▁강하게	-4989
▁주최	-4990
▁직전	-4991
▁뒤에	-4992
▁분리	-4993
명에	-4994
▁먹을	-4995
▁미국에	-4996
에요	-4997
농단	-4998
정당	-4999
▁노예	-5000
▁매각	-5001
▁st	-5002
▁상황에	-5003
▁근본	-5004
럽게	-5005
▁숫	-5006
쪽으로	-5007
▁변동	-5008
▁생각하고	-5009
▁우리도	-5010
▁54	-5011
버리	-5012
하이	-5013
개로	-5014
사랑	-5015
저런	-5016
▁스타트	-5017
데이	-5018
▁대다	-5019
▁경우도	-5020
길을	-5021
고는	-5022
▁상호	-5023
웨어	-5024
▁빕니다	-5025
▁연방	-5026
계약	-5027
▁운영하는	-5028
▁짜증	-5029
는거야	-5030
▁대회	-5031
이기도	-5032
▁외교부	-5033
▁밟	-5034
▁다녀	-5035
하고자	-5036
▁아쉬	-5037
거면	-5038
▁와서	-5039
▁점에서	-5040
▁지역의	-5041
졌네	-5042
분야	-5043
소로	-5044
▁그만큼	-5045
28	-5046
▁법정	-5047
▁증가했다	-5048
▁지식	-5049
▁2008	-5050
▁정규직	-5051
서관	-5052
▁옛날	-5053
▁향해	-5054
조리	-5055
▁들어서	-5056
짓을	-5057
▁발행	-5058
▁대한민국을	-5059
▁명령	-5060
▁대변인은	-5061
▁없으니	-5062
한건	-5063
▁말했습니다	-5064
자들에게	-5065
된다는	-5066
▁하는지	-5067
▁안타깝	-5068
▁일하는	-5069
35	-5070
▁이라	-5071
▁인력	-5072
센터에서	-5073
▁탑재	-5074
▁주주	-5075
▁상식	-5076
보복	-5077
▁간다	-5078
하더니	-5079
▁디자	-5080
권에	-5081
▁대가리	-5082
▁연구원은	-5083
▁기자가	-5084
그리	-5085
▁문재앙이	-5086
분의	-5087
▁특허	-5088
▁백악	-5089
메이션	-5090
▁마음을	-5091
제의	-5092
▁동료	-5093
em	-5094
▁공공기관	-5095
▁최대한	-5096
▁트럼프가	-5097
▁55	-5098
▁유승	-5099
금은	-5100
스케	-5101
▁후반	-5102
데이터	-5103
사기	-5104
▁윤석	-5105
▁주력	-5106
▁축구	-5107
빨리	-5108
▁빨아	-5109
▁이틀	-5110
▁넘게	-5111
▁저거	-5112
▁링	-5113
▁관련한	-5114
▁거듭	-5115
▁농업	-5116
▁받아야	-5117
▁행사를	-5118
▁보낸	-5119
▁수백	-5120
힌다	-5121
▁추석	-5122
▁지옥	-5123
▁북측	-5124
였는데	-5125
공화	-5126
▁통제	-5127
기기	-5128
그럼	-5129
▁나아	-5130
▁정비	-5131
▁단일	-5132
▁노후	-5133
가야	-5134
▁가동	-5135
▁났	-5136
▁시진핑	-5137
리다	-5138
▁사람의	-5139
바른	-5140
▁매출액	-5141
▁기능을	-5142
▁보이지	-5143
▁민주당은	-5144
▁0.0	-5145
님의	-5146
▁개방	-5147
▁성범죄	-5148
▁개성	-5149
▁노출	-5150
▁말한	-5151
바이	-5152
▁나섰다	-5153
▁세상이	-5154
▁상생	-5155
▁대해서도	-5156
▁아무도	-5157
▁집에서	-5158
사이	-5159
▁나쁘	-5160
▁내는	-5161
종석	-5162
▁동생	-5163
▁분류	-5164
▁하나로	-5165
▁성남	-5166
▁새롭게	-5167
▁보자	-5168
모델	-5169
▁세력	-5170
겠죠	-5171
호가	-5172
▁김성태	-5173
▁가까이	-5174
▁전원	-5175
하지마라	-5176
건강	-5177
▁등과	-5178
▁주관	-5179
싱턴	-5180
▁냄새	-5181
행위	-5182
국으로	-5183
▁올랐다	-5184
▁저항	-5185
▁부진	-5186
▁튀	-5187
▁2009	-5188
▁후에	-5189
▁속도	-5190
의가	-5191
▁폼페	-5192
니가	-5193
▁글을	-5194
▁상처	-5195
▁발매	-5196
▁사이에	-5197
▁값	-5198
▁크리스	-5199
으려	-5200
▁전해졌다	-5201
▁동반	-5202
▁죽음	-5203
▁문제다	-5204
▁개가	-5205
▁찾는	-5206
▁피해가	-5207
이던	-5208
▁표준	-5209
ob	-5210
▁마음이	-5211
미사일	-5212
여자	-5213
▁아니지	-5214
지수	-5215
▁줬	-5216
▁북한을	-5217
▁으	-5218
▁시스템을	-5219
잡아	-5220
▁명칭	-5221
▁시기	-5222
▁리포트	-5223
▁뿐만	-5224
▁여부를	-5225
▁원내대표는	-5226
▁싫다	-5227
시부터	-5228
새끼들	-5229
▁결제	-5230
▁시장에	-5231
▁거다	-5232
▁좁	-5233
▁한국에서	-5234
선수	-5235
▁활용해	-5236
26	-5237
▁지휘	-5238
▁거기에	-5239
▁참석해	-5240
▁김정은이	-5241
금리	-5242
위원장이	-5243
었으면	-5244
▁줘	-5245
▁평가를	-5246
▁할머니	-5247
▁끌고	-5248
▁취약	-5249
▁합격	-5250
시절	-5251
▁진상	-5252
▁챙겨	-5253
사인	-5254
당에서	-5255
▁매장	-5256
▁계획을	-5257
▁자리에서	-5258
▁쓰러	-5259
▁유도	-5260
▁시작한	-5261
스에서	-5262
▁사고가	-5263
조가	-5264
하지않	-5265
오면	-5266
▁아빠	-5267
키는	-5268
▁비례	-5269
래곤	-5270
▁부활	-5271
▁의미가	-5272
▁않을까	-5273
▁존경	-5274
▁대학생	-5275
▁km	-5276
▁힘이	-5277
드립니다	-5278
▁지진	-5279
▁말한다	-5280
일에는	-5281
▁가능성을	-5282
▁증가한	-5283
언을	-5284
▁물고	-5285
까봐	-5286
장비	-5287
▁길을	-5288
▁똑바로	-5289
▁그것	-5290
▁노력을	-5291
나이	-5292
▁닫	-5293
▁환자	-5294
▁성격	-5295
하려면	-5296
▁프로그램을	-5297
▁5000	-5298
▁!!	-5299
▁진행된다	-5300
▁이용할	-5301
▁그래야	-5302
부문	-5303
지나	-5304
-0	-5305
▁엠	-5306
▁기울	-5307
과정	-5308
▁김일	-5309
생산	-5310
적폐	-5311
▁놈이	-5312
▁사립	-5313
▁나라의	-5314
▁리그	-5315
▁이정도	-5316
치면	-5317
인물	-5318
▁김진	-5319
년에는	-5320
▁시장의	-5321
▁파트너	-5322
리그	-5323
▁담은	-5324
▁가맹	-5325
▁개막	-5326
▁시장에서	-5327
▁보여주는	-5328
우가	-5329
팔이	-5330
▁to	-5331
▁출산	-5332
▁전력	-5333
▁당사	-5334
▁맞지	-5335
▁낮아	-5336
해서는	-5337
▁조만간	-5338
철도	-5339
▁실천	-5340
▁옮겨	-5341
지에서	-5342
판을	-5343
▁입학	-5344
▁나오면	-5345
하긴	-5346
EC	-5347
▁대표적인	-5348
▁암호	-5349
▁넥	-5350
없네	-5351
▁나라에서	-5352
스에	-5353
5000	-5354
▁미디어	-5355
▁폭력	-5356
세기	-5357
▁집안	-5358
시켜야	-5359
동의	-5360
▁못한다	-5361
ce	-5362
리즘	-5363
단에	-5364
▁단기	-5365
▁미래를	-5366
▁너도	-5367
▁계기로	-5368
공산	-5369
대고	-5370
▁기득	-5371
▁거론	-5372
▁법인	-5373
▁조기	-5374
▁시장을	-5375
▁때까지	-5376
▁평등	-5377
▁언제까지	-5378
▁그러니까	-5379
▁수준을	-5380
▁폼페이오	-5381
청이	-5382
▁44	-5383
▁저렴	-5384
▁실행	-5385
▁몰려	-5386
국회	-5387
▁눈이	-5388
▁괴롭	-5389
직을	-5390
애들	-5391
▁네트워크	-5392
▁옹호	-5393
▁된다는	-5394
▁모른다	-5395
▁겨우	-5396
▁197	-5397
▁추락	-5398
반대	-5399
▁벨	-5400
버리고	-5401
자연	-5402
▁양국	-5403
보단	-5404
▁합동	-5405
▁뿐이다	-5406
▁질문에	-5407
▁배달	-5408
▁준다	-5409
▁위안부	-5410
▁46	-5411
국민이	-5412
▁통상	-5413
개국	-5414
▁만난	-5415
▁세워	-5416
▁적당히	-5417
▁사건이	-5418
▁헛소리	-5419
는데도	-5420
해를	-5421
량의	-5422
▁놔	-5423
▁빨갱	-5424
▁가게	-5425
▁미안	-5426
▁북핵	-5427
▁시범	-5428
▁모여	-5429
▁국토교통	-5430
빨갱이	-5431
버린	-5432
▁짤	-5433
▁스피	-5434
▁에휴	-5435
▁판문점	-5436
규제	-5437
▁즉시	-5438
▁형성	-5439
▁축소	-5440
▁목소리	-5441
적으로는	-5442
▁연봉	-5443
▁대만	-5444
▁가상화폐	-5445
▁커뮤	-5446
▁우파	-5447
▁호소	-5448
▁공수	-5449
해가	-5450
연구소	-5451
바람	-5452
셔서	-5453
▁버티	-5454
▁대한민국이	-5455
자식	-5456
대화	-5457
▁행위	-5458
▁ᄉᄇ	-5459
▁왠	-5460
대사	-5461
▁아무런	-5462
선의	-5463
치게	-5464
▁가치를	-5465
선에	-5466
▁키우	-5467
▁재건축	-5468
▁식으로	-5469
▁기분	-5470
거리는	-5471
▁얻어	-5472
▁배신	-5473
▁반대로	-5474
속에	-5475
리나	-5476
▁포함해	-5477
▁충격	-5478
있냐	-5479
명과	-5480
▁오염	-5481
▁재개	-5482
▁혹시	-5483
▁민주화	-5484
▁지역에	-5485
▁고급	-5486
▁이승	-5487
당하고	-5488
▁49	-5489
▁속에서	-5490
▁임기	-5491
▁광역	-5492
▁공포	-5493
▁한테	-5494
▁등급	-5495
금이	-5496
▁이스	-5497
▁법적	-5498
▁동참	-5499
▁이런거	-5500
차에	-5501
▁이지	-5502
▁다를	-5503
같은데	-5504
▁세상에	-5505
▁위로	-5506
▁작용	-5507
▁핀	-5508
▁산불	-5509
아닌가	-5510
상승	-5511
입니까	-5512
▁고정	-5513
었다는	-5514
▁태양광	-5515
▁속에	-5516
▁나와서	-5517
▁했고	-5518
▁구체적인	-5519
인들은	-5520
▁유시민	-5521
대문	-5522
의료	-5523
▁무장	-5524
▁두려	-5525
동물	-5526
▁협약	-5527
▁않습니다	-5528
우디	-5529
29	-5530
▁정부와	-5531
▁없지만	-5532
▁감시	-5533
▁생각하면	-5534
▁시가	-5535
▁비싼	-5536
▁다음달	-5537
▁MBC	-5538
▁극우	-5539
▁미쳤	-5540
▁여자가	-5541
▁새끼들	-5542
▁기획재	-5543
향을	-5544
대변	-5545
평등	-5546
▁삽	-5547
질환	-5548
지검	-5549
▁등도	-5550
있게	-5551
했는지	-5552
▁간단	-5553
▁세대	-5554
▁문을	-5555
류를	-5556
할듯	-5557
▁활용한	-5558
실장	-5559
▁줄여	-5560
▁성적	-5561
▁과학기술	-5562
▁애들이	-5563
총장	-5564
▁한남	-5565
▁컴퓨터	-5566
▁워싱턴	-5567
쓰는	-5568
▁관계자	-5569
▁것이고	-5570
니깐	-5571
▁GS	-5572
▁코리아	-5573
▁쫓	-5574
▁치고	-5575
▁뺏	-5576
▁회계	-5577
▁힐	-5578
합의	-5579
한것	-5580
▁대화를	-5581
▁있으나	-5582
▁만들기	-5583
▁비정규직	-5584
루션	-5585
때도	-5586
▁비교해	-5587
▁검은	-5588
▁사유	-5589
▁마찬가지로	-5590
파이	-5591
중인	-5592
있어	-5593
▁이딴	-5594
▁혼란	-5595
바다	-5596
▁구현	-5597
▁유일한	-5598
▁ᄒᄒᄒ	-5599
▁잠시	-5600
▁47	-5601
주에	-5602
청문	-5603
▁저희	-5604
▁근처	-5605
카이	-5606
권은	-5607
▁기대한다	-5608
▁명확	-5609
▁똘	-5610
▁쉽지	-5611
▁마스크	-5612
했지	-5613
▁수록	-5614
1.	-5615
▁음주운전	-5616
여성	-5617
데이트	-5618
▁차이	-5619
▁어른	-5620
▁찍어	-5621
▁600	-5622
▁삭제	-5623
▁폭탄	-5624
▁악화	-5625
ap	-5626
싶은	-5627
미군	-5628
가에	-5629
비로	-5630
▁북한과	-5631
▁착각	-5632
▁서해	-5633
▁답이	-5634
돈으로	-5635
겠어	-5636
실에	-5637
,000	-5638
▁선호	-5639
▁쓰레기들	-5640
미널	-5641
세는	-5642
▁무서운	-5643
▁시장이	-5644
▁시내	-5645
▁묶	-5646
▁원인	-5647
트랙	-5648
▁이용한	-5649
▁사진을	-5650
기들	-5651
▁용산	-5652
▁돈벌	-5653
▁시는	-5654
수에	-5655
었을	-5656
▁이들이	-5657
등학생	-5658
▁세금을	-5659
▁서울중앙	-5660
▁민주당이	-5661
했냐	-5662
▁BU	-5663
▁김태	-5664
전은	-5665
▁이로	-5666
세상	-5667
종합	-5668
▁훌륭	-5669
▁동남아	-5670
▁스타트업	-5671
▁오지	-5672
위원회는	-5673
▁브리핑	-5674
▁NH	-5675
있나	-5676
▁복귀	-5677
▁짝	-5678
▁120	-5679
▁정도의	-5680
▁문제인	-5681
▁모르겠다	-5682
경을	-5683
▁검찰에	-5684
▁부사	-5685
▁대부분의	-5686
부터는	-5687
▁덤	-5688
▁누적	-5689
▁당신이	-5690
▁신임	-5691
▁자치	-5692
법은	-5693
▁석탄	-5694
석은	-5695
원과	-5696
계올림픽	-5697
▁진화	-5698
▁입고	-5699
▁된다고	-5700
▁어울	-5701
▁메인	-5702
▁삶을	-5703
▁이혼	-5704
▁투자를	-5705
▁엔진	-5706
▁무리	-5707
▁축제	-5708
▁교육을	-5709
▁충돌	-5710
▁표시	-5711
▁이탈리아	-5712
▁파워	-5713
▁르	-5714
아도	-5715
▁일본을	-5716
▁초대	-5717
년은	-5718
▁회장이	-5719
답게	-5720
▁폭망	-5721
▁수능	-5722
▁인간들이	-5723
▁멘	-5724
▁도덕	-5725
▁안돼	-5726
▁보입니다	-5727
▁목표로	-5728
무사	-5729
▁날씨	-5730
▁뽑은	-5731
든가	-5732
구먼	-5733
▁과정을	-5734
▁차원에서	-5735
▁이해찬	-5736
▁많고	-5737
그만	-5738
▁59	-5739
▁나오지	-5740
형이	-5741
판매	-5742
트의	-5743
플러스	-5744
um	-5745
보다도	-5746
▁분명히	-5747
▁즉각	-5748
▁반박	-5749
▁얻을	-5750
▁선박	-5751
마자	-5752
때문	-5753
땜에	-5754
▁위기	-5755
▁받게	-5756
▁중요하다	-5757
▁깡	-5758
▁어린이집	-5759
▁말해	-5760
▁지원하는	-5761
▁목표주가	-5762
▁품목	-5763
▁박사	-5764
▁런	-5765
▁늘었다	-5766
천만	-5767
▁라이온	-5768
재생	-5769
▁아니지만	-5770
▁고마	-5771
▁농협	-5772
▁후속	-5773
계의	-5774
▁^^	-5775
▁외에도	-5776
협정	-5777
준비	-5778
투자증권	-5779
나간	-5780
▁불이	-5781
IN	-5782
는데요	-5783
▁고유	-5784
▁St	-5785
▁위원장이	-5786
▁핸	-5787
채널	-5788
▁데려	-5789
스테	-5790
▁허가	-5791
▁말이다	-5792
잘못	-5793
▁점수	-5794
▁and	-5795
▁텔레콤	-5796
▁아닌가요	-5797
▁귀족	-5798
▁이웃	-5799
▁일방	-5800
▁증명	-5801
관의	-5802
▁이모	-5803
▁청산	-5804
가스	-5805
▁적발	-5806
▁00	-5807
▁초과	-5808
▁완벽	-5809
활동을	-5810
권의	-5811
지다	-5812
▁해명	-5813
겠어요	-5814
▁상무	-5815
조국	-5816
삼성	-5817
사업을	-5818
일뿐	-5819
▁너는	-5820
건이	-5821
으므로	-5822
▁앞장	-5823
▁분위기	-5824
▁모른	-5825
▁클래	-5826
▁내에서	-5827
청에	-5828
▁맞고	-5829
▁이래서	-5830
▁향상	-5831
▁신분	-5832
▁진실을	-5833
▁싶어	-5834
▁동영상	-5835
▁미개	-5836
▁학생들이	-5837
▁여론조사	-5838
▁아내	-5839
나와	-5840
▁전주	-5841
됐고	-5842
▁경우는	-5843
▁파견	-5844
▁분기	-5845
▁탑승	-5846
▁저게	-5847
▁출근	-5848
역에서	-5849
▁따뜻	-5850
▁끝난	-5851
법에	-5852
▁열린다	-5853
▁기름	-5854
▁걸어	-5855
▁경제를	-5856
▁국민들의	-5857
▁대책을	-5858
하라는	-5859
▁문제로	-5860
었나	-5861
▁하지마라	-5862
cm	-5863
▁다니는	-5864
▁애니메이션	-5865
▁듀	-5866
▁명절	-5867
▁x	-5868
▁후보자	-5869
▁현장에서	-5870
▁옵	-5871
선은	-5872
▁짱개	-5873
▁상황이다	-5874
ak	-5875
▁필리	-5876
▁왜곡	-5877
예산	-5878
▁2007	-5879
▁포스코	-5880
▁한강	-5881
▁5.18	-5882
▁직무	-5883
48	-5884
대와	-5885
▁대통령님	-5886
▁대로	-5887
▁앉아	-5888
만도	-5889
▁그에	-5890
▁자유당	-5891
se	-5892
떨어	-5893
래도	-5894
▁안희	-5895
▁원을	-5896
▁조선일보	-5897
▁장착	-5898
평양	-5899
▁충전	-5900
▁멍청한	-5901
▁어떠	-5902
▁한심하다	-5903
▁금감	-5904
세에	-5905
▁비중이	-5906
졌고	-5907
▁장학	-5908
임이	-5909
점검	-5910
▁원작	-5911
미를	-5912
▁대변인	-5913
▁테마	-5914
▁발언을	-5915
을듯	-5916
리네	-5917
▁능력이	-5918
▁갱	-5919
▁지금의	-5920
▁ᄌᄅ	-5921
군을	-5922
라우드	-5923
▁수급	-5924
ub	-5925
▁경제는	-5926
▁감사합니다	-5927
▁측면에서	-5928
곳이	-5929
▁구성된	-5930
▁업데이트	-5931
없음	-5932
▁일상	-5933
물에	-5934
▁패션	-5935
사도	-5936
▁패턴	-5937
▁펀드	-5938
▁품질	-5939
무슨	-5940
▁주세요	-5941
▁양성	-5942
▁민주노총	-5943
조치	-5944
▁분석했다	-5945
▁잠재	-5946
▁https	-5947
▁내다	-5948
사람은	-5949
font	-5950
▁종류	-5951
뱅크	-5952
▁맞추	-5953
용을	-5954
▁갖춘	-5955
▁갈수록	-5956
▁디스플레이	-5957
분간	-5958
▁아이폰	-5959
대응	-5960
▁예고	-5961
▁이득	-5962
▁지능	-5963
▁목소리를	-5964
아주	-5965
▁현행	-5966
▁법안	-5967
▁패배	-5968
수한	-5969
▁CEO	-5970
해지	-5971
▁피부	-5972
▁골프	-5973
▁전기차	-5974
▁휴대	-5975
▁체계	-5976
들이나	-5977
▁하나의	-5978
▁ᄏᄏᄏᄏᄏᄏᄏᄏᄏᄏᄏᄏ	-5979
▁몰라	-5980
▁떨어지는	-5981
▁앞둔	-5982
.)	-5983
▁투명	-5984
▁파이	-5985
▁방사능	-5986
▁인기를	-5987
▁셈이다	-5988
▁적폐청산	-5989
▁오브	-5990
주식	-5991
▁출입	-5992
▁일도	-5993
▁바라는	-5994
안하고	-5995
▁데이터를	-5996
▁항의	-5997
억달러	-5998
▁아이돌	-5999
▁공화	-6000
▁공매	-6001
▁햇	-6002
란드	-6003
▁3000	-6004
45	-6005
▁개별	-6006
해왔다	-6007
▁편의점	-6008
보지	-6009
th	-6010
▁99	-6011
야말로	-6012
해온	-6013
▁정식	-6014
▁꿀	-6015
협의	-6016
근데	-6017
관에	-6018
▁때도	-6019
▁이것도	-6020
▁날아	-6021
물질	-6022
▁캐나다	-6023
하에	-6024
▁최우	-6025
▁유승민	-6026
▁고인의	-6027
▁끝에	-6028
사태	-6029
▁들어간	-6030
▁co	-6031
▁범죄자	-6032
▁이른바	-6033
하고는	-6034
▁신체	-6035
리도	-6036
방이	-6037
되서	-6038
▁호구	-6039
다음	-6040
▁올해는	-6041
▁설득	-6042
▁청소	-6043
▁보유한	-6044
▁탈출	-6045
▁미쳐	-6046
▁비즈	-6047
▁올리고	-6048
은행은	-6049
▁보급	-6050
▁저기	-6051
▁시민들이	-6052
▁드론	-6053
▁소프트	-6054
▁때마다	-6055
시기	-6056
▁국정원	-6057
▁고맙	-6058
▁후보는	-6059
▁없나	-6060
▁반대하는	-6061
▁점이	-6062
▁강요	-6063
▁아니야	-6064
▁문대통령	-6065
자본	-6066
▁부패	-6067
▁BUY	-6068
▁시민단체	-6069
대강	-6070
▁곳에	-6071
▁취득	-6072
▁이슬람	-6073
▁수준이다	-6074
르지	-6075
▁에라이	-6076
▁이념	-6077
▁같습니다	-6078
▁반려	-6079
▁첨단	-6080
해양	-6081
▁정권의	-6082
으라고	-6083
폭탄	-6084
네시아	-6085
화는	-6086
▁매도	-6087
▁이것이	-6088
▁75	-6089
▁대한민국은	-6090
▁정부에서	-6091
▁나라에	-6092
▁눈물	-6093
▁이정	-6094
36	-6095
포를	-6096
▁생겨	-6097
▁평화를	-6098
▁좋다고	-6099
▁떨어져	-6100
▁김기	-6101
▁붕괴	-6102
▁구라	-6103
▁폰	-6104
▁훼손	-6105
했나	-6106
▁자리에	-6107
▁가끔	-6108
▁대리	-6109
▁오로지	-6110
▁대단한	-6111
별로는	-6112
위기	-6113
할거	-6114
▁뭐라	-6115
다는게	-6116
연을	-6117
연히	-6118
이라서	-6119
▁BM	-6120
▁블루	-6121
▁자가	-6122
▁상태에서	-6123
▁줄어들	-6124
▁편이다	-6125
▁총리는	-6126
ate	-6127
▁부채	-6128
▁추모	-6129
정부의	-6130
▁위의	-6131
죄로	-6132
▁소리를	-6133
▁씹	-6134
치료	-6135
▁나름	-6136
타기	-6137
위한	-6138
----	-6139
는거냐	-6140
▁국내외	-6141
▁공중	-6142
▁능력을	-6143
많이	-6144
▁호남	-6145
▁ᄍᄍᄍ	-6146
▁느그	-6147
▁외무	-6148
ᅳᅳᅳᅳ	-6149
▁58	-6150
▁숲	-6151
내서	-6152
▁뚜	-6153
동맹	-6154
?)	-6155
나라가	-6156
▁성폭력	-6157
▁발동	-6158
▁보스	-6159
▁힘들다	-6160
▁당한	-6161
▁투쟁	-6162
▁끝나	-6163
▁렌	-6164
조사를	-6165
▁선도	-6166
전거	-6167
▁하는짓	-6168
▁학습	-6169
▁세상을	-6170
▁&	-6171
▁어려워	-6172
센서	-6173
인사	-6174
▁40%	-6175
줌마	-6176
연대	-6177
▁제약	-6178
▁호주	-6179
무시	-6180
물고	-6181
▁스위	-6182
▁끄	-6183
▁내에	-6184
▁소녀	-6185
▁이유를	-6186
석을	-6187
▁단축	-6188
원들이	-6189
▁연말	-6190
해봐라	-6191
▁배제	-6192
금지	-6193
▁철거	-6194
먼트	-6195
▁가자	-6196
아는	-6197
근로	-6198
우면	-6199
▁가로	-6200
에게도	-6201
▁적자	-6202
▁화웨이	-6203
회의를	-6204
▁안다	-6205
▁제조업	-6206
▁유기	-6207
▁상임	-6208
▁부처	-6209
시코	-6210
▁있었는데	-6211
▁죽어	-6212
했기	-6213
▁th	-6214
▁탄생	-6215
이건	-6216
▁남북정상회담	-6217
▁역사를	-6218
▁참조	-6219
하자는	-6220
▁인건	-6221
▁전개	-6222
통상	-6223
▁주체	-6224
▁체육	-6225
▁운운	-6226
▁끝내	-6227
▁사장은	-6228
▁아이디어	-6229
▁높이	-6230
가로	-6231
▁광주시	-6232
▁예약	-6233
미세먼	-6234
res	-6235
▁분열	-6236
▁ᄏᄏᄏᄏᄏᄏᄏ	-6237
▁퇴직	-6238
▁한두	-6239
▁노동자	-6240
▁복합	-6241
좋아	-6242
ᄏᄏᄏᄏᄏᄏ	-6243
▁이상이	-6244
▁쉴	-6245
▁알려진	-6246
▁정치를	-6247
▁당초	-6248
경이	-6249
▁메뉴	-6250
포구	-6251
리라	-6252
▁갖다	-6253
▁임직원	-6254
▁고려해	-6255
▁징계	-6256
사용	-6257
▁현재까지	-6258
▁방지	-6259
▁상품을	-6260
여명이	-6261
행이	-6262
분양	-6263
▁56	-6264
▁196	-6265
▁죽이고	-6266
▁매력	-6267
▁공천	-6268
▁보인	-6269
▁해제	-6270
▁베이징	-6271
▁가구	-6272
▁경쟁력	-6273
▁특혜	-6274
할것	-6275
▁비트코	-6276
종을	-6277
▁국회의	-6278
▁관계를	-6279
천만원	-6280
▁원자	-6281
▁나타냈다	-6282
▁5%	-6283
▁뼈	-6284
▁가격은	-6285
▁밴	-6286
로드	-6287
▁감염	-6288
함에	-6289
▁소식	-6290
▁찾은	-6291
▁총장	-6292
▁쏠	-6293
▁닮	-6294
드라	-6295
▁존중	-6296
테니	-6297
▁해군	-6298
▁청약	-6299
년의	-6300
정으로	-6301
▁자료를	-6302
▁그를	-6303
▁베네	-6304
▁이익을	-6305
▁자국	-6306
▁쪽팔	-6307
▁자한당은	-6308
▁당부했다	-6309
▁의도	-6310
▁맞춤형	-6311
낸다	-6312
▁포장	-6313
▁분들	-6314
▁후손	-6315
37	-6316
예요	-6317
경쟁	-6318
▁생각합니다	-6319
할지	-6320
인들의	-6321
▁The	-6322
▁매달	-6323
▁불리는	-6324
▁가수	-6325
▁어휴	-6326
▁57	-6327
십니다	-6328
▁특별한	-6329
▁씽	-6330
다리	-6331
▁왜이	-6332
학의	-6333
실험	-6334
▁나타나	-6335
▁선진국	-6336
▁난다	-6337
되어야	-6338
▁지역에서	-6339
▁진행하고	-6340
▁공격력	-6341
▁적화	-6342
님은	-6343
우를	-6344
▁위장	-6345
▁부분이	-6346
▁정황	-6347
▁양산	-6348
▁만들어서	-6349
▁어리	-6350
시장에서	-6351
▁압도	-6352
인터	-6353
▁썩은	-6354
▁경우에는	-6355
▁남부	-6356
통이	-6357
호사	-6358
▁극복	-6359
▁등신	-6360
▁차기	-6361
▁섭	-6362
32	-6363
▁윗	-6364
았습니다	-6365
▁유명한	-6366
설을	-6367
▁뚫	-6368
▁춘천	-6369
▁ᅮᅮ	-6370
▁말에	-6371
▁필리핀	-6372
▁샌	-6373
해주고	-6374
마이	-6375
▁불매운동	-6376
▁대미	-6377
▁마친	-6378
.10	-6379
▁서울경제	-6380
▁무려	-6381
▁풀이	-6382
▁영원히	-6383
성애	-6384
▁체력	-6385
▁주가가	-6386
▁도심	-6387
▁추구	-6388
▁결합	-6389
▁김상	-6390
받았다	-6391
▁목포	-6392
▁부대	-6393
낙연	-6394
이미	-6395
▁갔다	-6396
▁그렇다고	-6397
일러	-6398
하겠지	-6399
가며	-6400
문재앙	-6401
▁챔	-6402
신의	-6403
▁맞게	-6404
아니라	-6405
▁올리는	-6406
▁젤	-6407
셔야	-6408
▁공수처	-6409
▁자극	-6410
▁존나	-6411
기록	-6412
기능	-6413
자료	-6414
동에	-6415
화와	-6416
▁다운	-6417
art	-6418
▁기재	-6419
▁지지하는	-6420
▁기록하며	-6421
▁선전	-6422
으론	-6423
▁전직	-6424
앞에	-6425
▁국가의	-6426
▁중국과	-6427
화에서	-6428
▁공격을	-6429
▁이곳	-6430
**	-6431
▁기아	-6432
▁후보가	-6433
플러	-6434
▁방법을	-6435
시면	-6436
놈의	-6437
▁등이다	-6438
▁음성	-6439
▁클럽	-6440
회장	-6441
억원의	-6442
▁넷	-6443
함으로써	-6444
▁들어가는	-6445
▁건조	-6446
▁조현	-6447
▁생각은	-6448
선으로	-6449
▁절대로	-6450
▁순매도	-6451
행사	-6452
자한당	-6453
계에	-6454
라엘	-6455
니터	-6456
▁자율주행	-6457
하시는	-6458
▁고령	-6459
▁전세	-6460
책을	-6461
리면서	-6462
▁손혜	-6463
▁나베	-6464
▁일이다	-6465
▁그것이	-6466
▁수수료	-6467
▁혐오	-6468
▁시점	-6469
▁길이	-6470
▁둘다	-6471
▁IP	-6472
▁막말	-6473
▁Z	-6474
그릇	-6475
았다고	-6476
▁보좌	-6477
▁많았다	-6478
▁가을	-6479
▁찔	-6480
▁삶의	-6481
▁마세요	-6482
위에서	-6483
▁IM	-6484
▁정부에	-6485
▁꼬라지	-6486
od	-6487
때까지	-6488
▁성인	-6489
▁짓을	-6490
▁질병	-6491
▁빼고	-6492
▁패스트	-6493
법으로	-6494
▁ᄊ	-6495
▁활발	-6496
nt	-6497
▁집회	-6498
▁붉	-6499
▁빼앗	-6500
▁기대된다	-6501
▁MB	-6502
팀은	-6503
▁북미정상회담	-6504
oc	-6505
음에도	-6506
▁있어요	-6507
▁기술이	-6508
▁다르다	-6509
어의	-6510
▁만남	-6511
▁교도	-6512
▁경제적	-6513
마리	-6514
위원회의	-6515
▁42	-6516
▁군산	-6517
▁건립	-6518
▁의결	-6519
넘들	-6520
통수	-6521
▁찍은	-6522
수하고	-6523
미는	-6524
발을	-6525
만원으로	-6526
폐기	-6527
▁채택	-6528
길래	-6529
▁제로	-6530
누가	-6531
▁안타까	-6532
▁스토리	-6533
▁평범	-6534
▁이끌어	-6535
진은	-6536
▁인도네시아	-6537
▁상향	-6538
▁방치	-6539
확실	-6540
역이	-6541
▁암호화폐	-6542
▁청와대는	-6543
면을	-6544
▁화가	-6545
▁싼	-6546
로도	-6547
▁교육부	-6548
▁됨	-6549
아님	-6550
▁부상	-6551
▁쾌	-6552
독교	-6553
if	-6554
▁막아	-6555
▁모를	-6556
조직	-6557
유예	-6558
▁중재	-6559
심한	-6560
▁같아	-6561
중공업	-6562
▁다시는	-6563
▁상태다	-6564
▁진행된	-6565
▁살펴보면	-6566
▁버리고	-6567
▁앨범	-6568
▁합시다	-6569
▁집을	-6570
▁철회	-6571
수당	-6572
▁앤	-6573
▁제시한	-6574
▁어려움을	-6575
요금	-6576
▁방탄	-6577
▁참으로	-6578
▁자존	-6579
▁감성	-6580
▁아이들	-6581
▁누굴	-6582
▁기사가	-6583
발이	-6584
▁뭔지	-6585
적은	-6586
키로	-6587
바라	-6588
op	-6589
▁통해서	-6590
있으면	-6591
▁만한	-6592
▁크로	-6593
르신	-6594
▁몰래	-6595
▁댓	-6596
▁아름다운	-6597
▁흘러	-6598
▁의식	-6599
▁교환	-6600
▁씨를	-6601
▁수요가	-6602
아리	-6603
수익	-6604
줘서	-6605
집니다	-6606
살인	-6607
ile	-6608
분께	-6609
▁이자	-6610
인상	-6611
년만에	-6612
통을	-6613
▁현재는	-6614
▁시작된	-6615
▁다루	-6616
="	-6617
▁출동	-6618
▁인지	-6619
▁의견이	-6620
해줄	-6621
놈들은	-6622
▁우린	-6623
▁상태로	-6624
▁의지를	-6625
▁내용의	-6626
졌다고	-6627
▁인류	-6628
▁뭐하냐	-6629
각을	-6630
▁가능성도	-6631
것들은	-6632
▁계약을	-6633
~!!	-6634
▁마스터	-6635
개선	-6636
▁그들의	-6637
해질	-6638
▁정권을	-6639
서야	-6640
▁연휴	-6641
▁가스	-6642
시까지	-6643
▁방향으로	-6644
▁아이가	-6645
▁우수한	-6646
▁기관은	-6647
장난	-6648
▁상용	-6649
▁편집	-6650
▁최신	-6651
▁했다는	-6652
▁엿	-6653
▁집어	-6654
▁돈은	-6655
▁똑똑	-6656
▁했으면	-6657
▁적어도	-6658
▁버전	-6659
▁급격	-6660
▁참여한	-6661
▁승객	-6662
▁1,	-6663
됐던	-6664
▁일어난	-6665
▁이낙연	-6666
▁또라이	-6667
▁등장하는	-6668
▁앙	-6669
▁유해	-6670
▁부족한	-6671
▁짖	-6672
▁다르게	-6673
▁죽이	-6674
▁종전선언	-6675
▁찢	-6676
▁다스	-6677
▁소득주도	-6678
▁굶	-6679
장도	-6680
이너	-6681
▁빡	-6682
그래도	-6683
라의	-6684
▁주재	-6685
▁승인	-6686
▁급여	-6687
전기	-6688
▁데뷔	-6689
▁깊은	-6690
라운드	-6691
▁분야에서	-6692
▁붙어	-6693
고한	-6694
했다가	-6695
▁죄를	-6696
풀이	-6697
▁하다가	-6698
▁고성	-6699
▁의혹이	-6700
심사	-6701
▁이러니	-6702
▁협업	-6703
ort	-6704
아니냐	-6705
▁경유	-6706
▁남자가	-6707
▁외에	-6708
▁공략	-6709
▁당하고	-6710
간담	-6711
치의	-6712
▁경계	-6713
▁64	-6714
▁기생	-6715
▁잘하고	-6716
▁언젠	-6717
▁막을	-6718
▁접촉	-6719
▁소형	-6720
▁유입	-6721
재가	-6722
▁겉	-6723
▁문정권	-6724
▁신세계	-6725
▁뛰어난	-6726
는다고	-6727
▁알지	-6728
▁부실	-6729
저리	-6730
▁매입	-6731
▁휴가	-6732
AS	-6733
계층	-6734
▁적극적인	-6735
▁입은	-6736
▁한국당은	-6737
봉사	-6738
▁고향	-6739
▁사드	-6740
▁조종	-6741
▁커뮤니티	-6742
지자	-6743
▁데리고	-6744
▁현황	-6745
차량	-6746
▁멕	-6747
▁국민들을	-6748
▁화이트	-6749
▁빗	-6750
▁행동을	-6751
▁심리	-6752
▁라이온봇	-6753
▁구속영	-6754
▁일대	-6755
케이	-6756
▁어째	-6757
▁제정신	-6758
목을	-6759
▁뒤로	-6760
겠고	-6761
▁임상	-6762
▁정착	-6763
▁작업을	-6764
▁오리	-6765
▁웨	-6766
▁당일	-6767
31	-6768
국인	-6769
▁70%	-6770
▁맑	-6771
▁택배	-6772
▁일관	-6773
▁불리	-6774
하면서도	-6775
▁초등학교	-6776
▁괜히	-6777
▁한글	-6778
운용	-6779
▁시나	-6780
▁실종	-6781
▁오프	-6782
▁비판했다	-6783
▁예를	-6784
▁부부	-6785
▁회사가	-6786
순환	-6787
참에	-6788
▁트렌	-6789
▁살아라	-6790
협약	-6791
등록	-6792
▁드래곤	-6793
워라	-6794
화학	-6795
▁산림	-6796
▁84	-6797
▁정상적인	-6798
▁유일하게	-6799
▁지속적인	-6800
▁금강	-6801
▁입을	-6802
돼야	-6803
면에	-6804
▁일부러	-6805
생명	-6806
분쯤	-6807
▁ᄍ	-6808
보도	-6809
▁논리	-6810
▁공익	-6811
비에	-6812
택시	-6813
신고	-6814
▁산다	-6815
▁오직	-6816
▁이어질	-6817
▁우습	-6818
iz	-6819
▁소모	-6820
▁서초구	-6821
기념	-6822
▁빨간	-6823
▁점유	-6824
▁장악	-6825
▁다름	-6826
역에	-6827
▁있어도	-6828
▁미국에서	-6829
▁리얼	-6830
▁유족	-6831
▁집계됐다	-6832
현실	-6833
▁목적으로	-6834
▁기원	-6835
▁쫄	-6836
▁★	-6837
▁IC	-6838
▁미니	-6839
▁화장품	-6840
▁봅니다	-6841
▁맞이	-6842
당과	-6843
축제	-6844
▁미국을	-6845
▁보완	-6846
▁맞은	-6847
▁업무를	-6848
▁거야	-6849
▁증권사	-6850
▁안될	-6851
▁버닝	-6852
▁서류	-6853
▁관람객	-6854
▁한진	-6855
레벨	-6856
체험	-6857
▁영장	-6858
놀이	-6859
▁넣어	-6860
▁전교	-6861
▁자기들	-6862
▁수주	-6863
▁성매매	-6864
▁스크	-6865
스런	-6866
▁실수	-6867
▁대답	-6868
▁6·	-6869
아직	-6870
▁쿨	-6871
▁기회가	-6872
심은	-6873
단으로	-6874
타고	-6875
▁보지	-6876
피소	-6877
감정	-6878
▁대해선	-6879
▁800	-6880
▁은퇴	-6881
▁이재용	-6882
빠진	-6883
이네요	-6884
건의	-6885
▁연령	-6886
▁약간	-6887
거임	-6888
사법	-6889
▁목숨을	-6890
아지	-6891
한테는	-6892
놈은	-6893
▁하려고	-6894
▁곳은	-6895
어린	-6896
3000	-6897
▁특파	-6898
▁1%	-6899
동네	-6900
▁입법	-6901
만은	-6902
협상	-6903
▁세부	-6904
화하고	-6905
해놓고	-6906
물로	-6907
▁벼	-6908
▁절차를	-6909
주년을	-6910
▁외치	-6911
거리가	-6912
PG	-6913
▁기존의	-6914
수산	-6915
▁이용하는	-6916
▁최적	-6917
▁협조	-6918
ab	-6919
기획	-6920
▁쓸데	-6921
단과	-6922
움이	-6923
▁오토	-6924
▁80%	-6925
▁덩	-6926
▁상당한	-6927
추진	-6928
▁이주	-6929
것같	-6930
혔다	-6931
▁석유	-6932
폭력	-6933
▁도박	-6934
▁토대로	-6935
▁바뀐	-6936
▁대박	-6937
서도	-6938
▁관여	-6939
▁박살	-6940
ww	-6941
▁하향	-6942
신은	-6943
▁안가	-6944
▁자위	-6945
▁말만	-6946
▁삼성이	-6947
▁53	-6948
로그	-6949
서로	-6950
▁문제에	-6951
▁ᄇᄉ	-6952
사이트	-6953
▁게임을	-6954
미나	-6955
▁받아들이	-6956
공격	-6957
▁없냐	-6958
▁뿌리	-6959
▁본격적인	-6960
IP	-6961
▁웬	-6962
망을	-6963
외로	-6964
▁아이들이	-6965
벌레	-6966
▁작중	-6967
▁표창	-6968
▁병역	-6969
▁재활	-6970
▁무상	-6971
라라	-6972
▁규모가	-6973
▁꼴통	-6974
▁쟁	-6975
▁방위	-6976
▁해상	-6977
▁심의	-6978
관과	-6979
설팅	-6980
망이	-6981
▁풍부	-6982
▁재판부는	-6983
었네	-6984
▁선출	-6985
분석	-6986
out	-6987
드리	-6988
▁복잡	-6989
프를	-6990
▁탱	-6991
▁단순히	-6992
▁이니	-6993
?????	-6994
▁착용	-6995
만달러	-6996
치에	-6997
▁기획재정부	-6998
▁갓	-6999
▁맵	-7000
▁컨센서	-7001
▁달하는	-7002
▁브라질	-7003
▁주변에	-7004
▁안전한	-7005
▁서울시장	-7006
▁공무	-7007
▁뭐하는	-7008
▁문화재	-7009
▁고속도로	-7010
▁과도	-7011
생이	-7012
여야	-7013
▁영향으로	-7014
▁언론이	-7015
▁굿	-7016
▁걸린	-7017
에서만	-7018
▁무게	-7019
ang	-7020
▁사죄	-7021
▁업그	-7022
청원	-7023
▁측정	-7024
!"	-7025
▁사람들을	-7026
아니고	-7027
▁않지만	-7028
▁)	-7029
▁무관	-7030
▁빠진	-7031
▁그렇고	-7032
▁합법	-7033
▁모니터	-7034
▁본격적으로	-7035
▁몰라도	-7036
버려	-7037
▁배상	-7038
▁지연	-7039
▁정확히	-7040
사들이	-7041
저히	-7042
▁BMW	-7043
▁고작	-7044
▁노트	-7045
▁작성한	-7046
▁0.5	-7047
▁견제	-7048
▁미중	-7049
▁지지합니다	-7050
체계	-7051
▁용인	-7052
▁지표	-7053
▁형태로	-7054
임대	-7055
▁이름이	-7056
화의	-7057
렀다	-7058
▁객관	-7059
▁이들의	-7060
▁하라	-7061
만들	-7062
▁만날	-7063
▁해야한다	-7064
▁경상	-7065
▁모조리	-7066
소비	-7067
▁쉐	-7068
▁논문	-7069
▁코인	-7070
▁ᅵ	-7071
업자	-7072
케이션	-7073
문학	-7074
ml	-7075
▁처음부터	-7076
▁수집	-7077
▁탈원전	-7078
▁저도	-7079
▁여부	-7080
맙시다	-7081
▁김종	-7082
▁인간의	-7083
▁고등학교	-7084
세트	-7085
시간에	-7086
피언	-7087
▁66	-7088
▁훔	-7089
▁김해	-7090
▁공시했다	-7091
저기	-7092
▁갚	-7093
▁국민에게	-7094
..?	-7095
▁무사	-7096
▁좌좀	-7097
▁알려져	-7098
▁실내	-7099
▁저리	-7100
▁섞	-7101
▁옆에	-7102
▁쩝쩝	-7103
▁자유민주주의	-7104
▁입증	-7105
아나	-7106
가게	-7107
▁전라	-7108
진의	-7109
▁체제	-7110
▁의원의	-7111
▁!!!	-7112
인에게	-7113
▁위선	-7114
건가요	-7115
심의	-7116
▁인용	-7117
▁이스라엘	-7118
▁부작	-7119
▁의뢰	-7120
▁면접	-7121
내려	-7122
건으로	-7123
▁터키	-7124
▁연습	-7125
▁천안함	-7126
▁끌려	-7127
포럼	-7128
▁이노	-7129
봤자	-7130
▁결과는	-7131
TO	-7132
▁멀쩡	-7133
▁기업은	-7134
시즌	-7135
▁있었고	-7136
▁어이가	-7137
▁원내대표가	-7138
▁살아남	-7139
▁비교적	-7140
▁자국민	-7141
▁활약	-7142
▁이같은	-7143
▁250	-7144
었지	-7145
▁일각	-7146
▁연구개발	-7147
▁기득권	-7148
▁김치	-7149
역사	-7150
주일	-7151
▁오늘도	-7152
부산	-7153
58	-7154
▁깨끗한	-7155
▁한명	-7156
▁셋	-7157
▁말라	-7158
마가	-7159
▁-2	-7160
▁무지	-7161
▁대량	-7162
▁면허	-7163
모를	-7164
어디	-7165
▁요구하는	-7166
▁정권은	-7167
피아	-7168
깨문	-7169
nd	-7170
▁털어	-7171
▁이제와서	-7172
타령	-7173
관계를	-7174
▁일시	-7175
하지도	-7176
ri	-7177
민이	-7178
▁본인의	-7179
▁줄어든	-7180
▁국개의원	-7181
▁치킨	-7182
▁간편	-7183
▁전수	-7184
▁2022	-7185
▁아시	-7186
▁이벤트를	-7187
▁조절	-7188
▁끈	-7189
▁날이	-7190
▁걸려	-7191
선에서	-7192
▁주한미군	-7193
탄핵	-7194
▁강남구	-7195
▁안에서	-7196
▁육군	-7197
).	-7198
▁수업	-7199
▁기각	-7200
www	-7201
▁섹	-7202
▁눈을	-7203
▁경험을	-7204
▁멀리	-7205
이와	-7206
▁사업에	-7207
친구	-7208
ist	-7209
▁안하는	-7210
▁윤석열	-7211
▁느낄	-7212
▁방북	-7213
▁당신은	-7214
공정	-7215
▁서서	-7216
▁518	-7217
▁하노	-7218
IC	-7219
전환	-7220
▁운전자	-7221
▁끔	-7222
▁작전	-7223
부장	-7224
▁더해	-7225
세포	-7226
▁채권	-7227
▁뭐라고	-7228
▁담긴	-7229
▁권리	-7230
액을	-7231
▁민주평화	-7232
▁여담	-7233
99	-7234
▁참석했다	-7235
▁모색	-7236
년째	-7237
▁나설	-7238
▁개소	-7239
▁패키	-7240
시켰다	-7241
버렸	-7242
▁기업을	-7243
김정은	-7244
▁죄가	-7245
OU	-7246
▁후회	-7247
▁테스트	-7248
▁조사하고	-7249
▁여성이	-7250
마나	-7251
서의	-7252
▁뒤를	-7253
▁SU	-7254
▁질환	-7255
TE	-7256
▁낫다	-7257
일과	-7258
▁개인의	-7259
▁법무부장관	-7260
▁워낙	-7261
▁타입	-7262
후에	-7263
▁민정	-7264
▁신입	-7265
▁급증	-7266
▁가시	-7267
보증	-7268
▁0.1	-7269
▁전무	-7270
내야	-7271
▁그려	-7272
교사	-7273
출신	-7274
럽고	-7275
프가	-7276
▁한다면	-7277
▁아니라는	-7278
론을	-7279
리는데	-7280
▁발의	-7281
▁2006	-7282
▁아닌지	-7283
가와	-7284
▁한때	-7285
번에	-7286
▁바람에	-7287
▁무역전쟁	-7288
▁이름으로	-7289
비율	-7290
모리	-7291
력에	-7292
▁쟤	-7293
▁41	-7294
▁뜯어	-7295
▁둘이	-7296
만들어	-7297
▁다수	-7298
▁1.5	-7299
▁청주	-7300
ov	-7301
▁경비	-7302
▁군인	-7303
▁말할	-7304
▁해주세요	-7305
▁문정부	-7306
▁1.	-7307
▁무한	-7308
기나	-7309
▁미래에	-7310
▁청와대가	-7311
이용	-7312
▁무식한	-7313
▁간의	-7314
러워	-7315
하기는	-7316
▁힘내세요	-7317
제약	-7318
▁저지른	-7319
▁많아서	-7320
소방	-7321
▁그간	-7322
▁쉬운	-7323
▁맘대로	-7324
기면	-7325
네들	-7326
되냐	-7327
감사	-7328
▁공통	-7329
교수	-7330
▁비즈니스	-7331
▁ᄂ	-7332
▁에어컨	-7333
▁했을	-7334
시와	-7335
액이	-7336
▁보증	-7337
▁부담을	-7338
▁가계	-7339
▁되기	-7340
▁씌	-7341
지며	-7342
▁후쿠	-7343
오지	-7344
▁자전거	-7345
▁달라고	-7346
이들이	-7347
재를	-7348
충들	-7349
▁해운	-7350
▁결정을	-7351
TV	-7352
사카	-7353
▁주지	-7354
34	-7355
▁야구	-7356
▁의존	-7357
▁지원한다	-7358
꺼다	-7359
▁의미를	-7360
▁경쟁력을	-7361
패스	-7362
▁하락했다	-7363
▁좋을	-7364
▁우리나라가	-7365
▁어느정도	-7366
그래서	-7367
▁vs	-7368
▁침해	-7369
▁용서	-7370
▁프레임	-7371
▁범행	-7372
▁감싸	-7373
▁낚	-7374
▁빅데이터	-7375
▁기사입니다	-7376
알바	-7377
면적	-7378
▁대상이	-7379
▁나아가	-7380
▁동종목	-7381
신청	-7382
▁항소	-7383
▁철강	-7384
기온	-7385
ia	-7386
▁가치가	-7387
주인	-7388
▁적을	-7389
▁사우디	-7390
월드	-7391
경북	-7392
▁이번에는	-7393
▁씨의	-7394
자다	-7395
kg	-7396
▁레드	-7397
▁그렇다	-7398
▁정답	-7399
▁웃기	-7400
인민	-7401
줬다	-7402
▁협력을	-7403
▁서버	-7404
▁노사	-7405
주차	-7406
▁롤	-7407
박근혜	-7408
일자리	-7409
▁에피소	-7410
▁때가	-7411
▁발전을	-7412
AR	-7413
거는	-7414
당하게	-7415
▁번역	-7416
▁발생하는	-7417
▁윈	-7418
ore	-7419
▁Re	-7420
▁하라고	-7421
좌빨	-7422
▁해당하는	-7423
▁SBS	-7424
▁아이를	-7425
▁컸	-7426
▁절차	-7427
거리를	-7428
▁중에서	-7429
▁자회사	-7430
▁VR	-7431
all	-7432
해준	-7433
▁진행할	-7434
▁아우	-7435
가자	-7436
▁어르신	-7437
▁피해자가	-7438
크를	-7439
▁아니냐는	-7440
번호	-7441
스탄	-7442
▁마누	-7443
내기	-7444
월에는	-7445
▁있었지만	-7446
말은	-7447
으로만	-7448
▁변화를	-7449
되자	-7450
▁언론에	-7451
▁매체	-7452
쪽에	-7453
▁독도	-7454
부에서	-7455
NG	-7456
짓거리	-7457
청에서	-7458
▁공짜	-7459
os	-7460
▁상상	-7461
▁진심으로	-7462
▁짓거리	-7463
▁함부로	-7464
▁보면서	-7465
▁한국과	-7466
았네	-7467
▁죽일	-7468
▁클라우드	-7469
▁개그	-7470
출산	-7471
▁인터뷰에서	-7472
▁김부	-7473
▁규모로	-7474
▁머물	-7475
▁이마트	-7476
▁분들이	-7477
▁신기	-7478
▁헝	-7479
ong	-7480
▁멕시코	-7481
트롤	-7482
유럽	-7483
▁수색	-7484
▁식민	-7485
▁아까	-7486
▁엮	-7487
▁짐승	-7488
▁적합	-7489
▁근접	-7490
학규	-7491
▁폭등	-7492
▁못하면	-7493
▁확률	-7494
▁자한당이	-7495
(...).	-7496
▁영양	-7497
▁어떻게든	-7498
▁마치고	-7499
시요	-7500
▁영등	-7501
▁많네	-7502
▁정유	-7503
38	-7504
태를	-7505
▁막기	-7506
아냐	-7507
▁면제	-7508
▁들었다	-7509
▁거기서	-7510
▁떠오	-7511
나갈	-7512
▁태어나	-7513
▁응급	-7514
▁중국에서	-7515
▁내내	-7516
순위	-7517
▁미술	-7518
안타	-7519
▁파리	-7520
▁사람들의	-7521
원도	-7522
▁갈아	-7523
있지	-7524
▁퇴출	-7525
▁이전에	-7526
▁김포	-7527
▁사업은	-7528
IA	-7529
▁운영하고	-7530
2000	-7531
가량	-7532
▁그지	-7533
병을	-7534
▁2.	-7535
▁중국을	-7536
ᄒᄒᄒ	-7537
▁6.25	-7538
▁사진제공	-7539
에너지	-7540
▁찬양	-7541
화하는	-7542
수엘	-7543
▁감방	-7544
되나	-7545
▁피고	-7546
▁만세	-7547
▁마시고	-7548
에겐	-7549
▁메르	-7550
▁평가했다	-7551
▁신제품	-7552
▁뜬	-7553
▁참여하는	-7554
▁태국	-7555
회계	-7556
고기	-7557
▁물타기	-7558
▁같아요	-7559
날이	-7560
상담	-7561
가다	-7562
▁배당	-7563
▁원장	-7564
▁치료를	-7565
지컬	-7566
>>	-7567
ass	-7568
보건	-7569
길이	-7570
▁700	-7571
▁느낀	-7572
전의	-7573
장기	-7574
레인	-7575
하루	-7576
▁전망했다	-7577
▁양승	-7578
▁소상공인	-7579
▁이상을	-7580
▁특파원	-7581
▁대단하다	-7582
대도	-7583
▁보관	-7584
▁것인지	-7585
▁것인가	-7586
▁송파	-7587
▁자빠졌네	-7588
▁밸	-7589
▁인사를	-7590
▁달고	-7591
ff	-7592
▁주장하는	-7593
▁방법이	-7594
하지는	-7595
▁나가는	-7596
▁무시하고	-7597
보유	-7598
▁제공하고	-7599
례를	-7600
▁명백	-7601
협의회	-7602
백화점	-7603
우리나라	-7604
▁파티	-7605
해지고	-7606
▁패널	-7607
수있는	-7608
▁일본과	-7609
▁들은	-7610
▁버닝썬	-7611
증이	-7612
정도로	-7613
▁90%	-7614
▁관객	-7615
▁연관	-7616
방향	-7617
▁재배	-7618
▁안정적인	-7619
▁물을	-7620
▁기업들이	-7621
▁임원	-7622
생을	-7623
있음	-7624
▁신호	-7625
▁쓰지	-7626
▁주소	-7627
▁걸로	-7628
▁성장을	-7629
▁김용	-7630
▁핑계	-7631
▁성우	-7632
였지만	-7633
▁해봐라	-7634
▁큰일	-7635
참여	-7636
도안	-7637
▁출전	-7638
▁녀	-7639
▁극단	-7640
공을	-7641
▁대외	-7642
석희	-7643
즈를	-7644
▁대장	-7645
▁미만	-7646
▁킹	-7647
▁더블	-7648
▁치열	-7649
느니	-7650
▁발휘	-7651
▁유공자	-7652
모두	-7653
▁배터리	-7654
▁플래	-7655
▁흠	-7656
▁배려	-7657
▁이성	-7658
▁중고	-7659
서트	-7660
▁회피	-7661
그렇게	-7662
▁부적	-7663
▁오피스	-7664
▁시간에	-7665
▁화물	-7666
▁박영	-7667
▁부모가	-7668
▁잘하는	-7669
▁안달	-7670
▁수익률	-7671
▁사법부	-7672
(?)	-7673
▁협상을	-7674
▁유력	-7675
▁산하	-7676
해지는	-7677
라스틱	-7678
▁부추	-7679
▁현재의	-7680
▁제공할	-7681
▁권고	-7682
▁양측	-7683
▁만들었다	-7684
되게	-7685
버리는	-7686
▁국민세금	-7687
▁진행했다	-7688
▁재판에	-7689
정권이	-7690
희롱	-7691
▁손에	-7692
▁서민들	-7693
▁국토부	-7694
공급	-7695
▁주행	-7696
▁힘들게	-7697
시간이	-7698
300	-7699
싸움	-7700
▁당첨	-7701
▁스티	-7702
▁조폭	-7703
소의	-7704
▁미치	-7705
▁곳에서	-7706
▁그들이	-7707
▁전작	-7708
▁가난	-7709
▁하긴	-7710
39	-7711
▁대충	-7712
▁중도	-7713
▁무엇보다	-7714
▁없게	-7715
▁미래가	-7716
연한	-7717
자체가	-7718
아웃	-7719
▁의문	-7720
▁수구	-7721
▁히로	-7722
▁궤	-7723
▁신도시	-7724
용품	-7725
▁데모	-7726
때마다	-7727
▁점차	-7728
▁마크	-7729
▁청탁	-7730
▁유전	-7731
감은	-7732
▁상업	-7733
▁국내에서	-7734
▁김일성	-7735
▁MS	-7736
▁로드	-7737
님을	-7738
▁두번	-7739
▁발급	-7740
▁시사	-7741
▁추적	-7742
식의	-7743
등을	-7744
▁입만	-7745
▁보유하고	-7746
▁개설	-7747
줄이	-7748
유치원	-7749
▁잘한다	-7750
▁칭찬	-7751
▁인명	-7752
▁산업통상	-7753
수와	-7754
ers	-7755
구속	-7756
▁테이	-7757
스티벌	-7758
알고	-7759
역으로	-7760
▁폭로	-7761
▁이번엔	-7762
▁답했다	-7763
겠는데	-7764
▁지지를	-7765
▁통보	-7766
▁비례대표	-7767
▁시대에	-7768
까지도	-7769
▁가족이	-7770
는구나	-7771
▁면담	-7772
▁손가락	-7773
▁방영	-7774
▁DB	-7775
스포츠	-7776
실히	-7777
▁최강	-7778
▁정책이	-7779
▁돌입	-7780
▁하수	-7781
▁붉은	-7782
집에	-7783
▁두번째	-7784
▁국적	-7785
▁죄송	-7786
▁아줌마	-7787
▁집행유예	-7788
사람들이	-7789
결을	-7790
▁시리아	-7791
▁권력을	-7792
▁77	-7793
▁짧은	-7794
▁검찰개혁	-7795
▁석방	-7796
▁유발	-7797
▁부총	-7798
▁기도	-7799
▁양반	-7800
▁챔피언	-7801
▁전형적인	-7802
▁늘고	-7803
▁화성	-7804
▁토지	-7805
타워	-7806
▁재밌	-7807
처분	-7808
▁의사를	-7809
▁AR	-7810
해진다	-7811
쳐먹	-7812
공연	-7813
▁것이란	-7814
▁날려	-7815
▁▷	-7816
▁사이버	-7817
▁76	-7818
og	-7819
▁낭비	-7820
▁근로자	-7821
▁되냐	-7822
이거	-7823
▁상승했다	-7824
▁봤다	-7825
▁주제에	-7826
일의	-7827
▁걸고	-7828
▁25%	-7829
학을	-7830
▁영혼	-7831
▁68	-7832
청사에서	-7833
▁사용한	-7834
▁발표된	-7835
안정	-7836
▁진영	-7837
▁돌아가는	-7838
쓴다	-7839
▁충성	-7840
거든요	-7841
▁죽인	-7842
감한	-7843
▁위험한	-7844
▁기념촬영	-7845
령을	-7846
▁헬조선	-7847
▁설명이다	-7848
DP	-7849
인당	-7850
모로	-7851
미아	-7852
▁높게	-7853
▁Ch	-7854
▁당대표	-7855
▁발악	-7856
드러	-7857
▁들어갈	-7858
▁되어야	-7859
▁총괄	-7860
▁전사	-7861
▁냈	-7862
▁잡을	-7863
료가	-7864
▁늙은	-7865
▁올바른	-7866
▁벤처	-7867
▁2005	-7868
▁칸	-7869
NA	-7870
았으면	-7871
고용	-7872
▁환경을	-7873
▁문씨	-7874
십시오	-7875
▁마땅	-7876
로의	-7877
▁편성	-7878
▁지내	-7879
▁해보	-7880
트럼프	-7881
▁점수는	-7882
가도	-7883
▁사고를	-7884
▁산업통상자원	-7885
▁무력	-7886
▁있는거	-7887
▁재수	-7888
▁반응을	-7889
▁ICT	-7890
모든	-7891
▁국가를	-7892
실로	-7893
▁국무위원	-7894
▁되는거	-7895
▁몸을	-7896
▁결코	-7897
▁감소했다	-7898
▁계좌	-7899
▁문자	-7900
▁타격	-7901
▁사고로	-7902
소송	-7903
▁결의	-7904
▁51	-7905
아들	-7906
작업	-7907
끼들	-7908
▁시나리오	-7909
▁대깨문	-7910
▁자체를	-7911
▁속도를	-7912
▁하야	-7913
벤처기업	-7914
부처	-7915
지난	-7916
▁5·	-7917
▁틈	-7918
▁유가족	-7919
▁행사는	-7920
▁몇몇	-7921
하시고	-7922
▁외국인이	-7923
▁인사청문	-7924
▁뭐야	-7925
▁믿는	-7926
▁나은	-7927
▁놀고	-7928
▁상승한	-7929
▁발생했다	-7930
▁가능성	-7931
▁촉구했다	-7932
▁내수	-7933
▁이산	-7934
다니는	-7935
으러	-7936
▁요리	-7937
▁추진하고	-7938
▁폭락	-7939
▁뻥	-7940
달라는	-7941
▁거래일	-7942
▁안팎	-7943
▁지어	-7944
▁뒤집어	-7945
▁공정한	-7946
▁거래를	-7947
▁이명박근혜	-7948
▁개통	-7949
▁무릎	-7950
▁관계가	-7951
와라	-7952
에다	-7953
산이	-7954
▁금호	-7955
▁있는게	-7956
렉시	-7957
▁경향	-7958
ue	-7959
▁쫌	-7960
▁여론조작	-7961
▁어지	-7962
▁편리	-7963
직한	-7964
타운	-7965
▁오를	-7966
▁쏴	-7967
▁건너	-7968
▁긴장	-7969
▁사냥	-7970
▁씨부	-7971
토리	-7972
▁85	-7973
▁말자	-7974
유를	-7975
▁줄이고	-7976
▁회의를	-7977
▁언제나	-7978
▁분이	-7979
▁수리	-7980
▁점은	-7981
구석	-7982
▁국익	-7983
▁추방	-7984
▁한데	-7985
ard	-7986
부동산	-7987
▁교수가	-7988
▁탓에	-7989
것만	-7990
▁국민들에게	-7991
▁원숭이	-7992
▁휴대폰	-7993
▁정상회담을	-7994
▁없애고	-7995
▁건데	-7996
비중	-7997
▁저장	-7998
▁마이크	-7999
▁중심의	-8000
▁담아	-8001
▁이참에	-8002
▁개나	-8003
IS	-8004
▁후진	-8005
▁벌레	-8006
▁노벨	-8007
▁임신	-8008
▁부담이	-8009
▁마음에	-8010
▁강제로	-8011
▁부장판	-8012
▁행정안전	-8013
▁ᄆ	-8014
▁아쉽	-8015
▁하드	-8016
▁사실은	-8017
▁정신을	-8018
화한	-8019
▁스튜	-8020
▁웅	-8021
▁독립운동	-8022
▁하더니	-8023
랐다	-8024
잡이	-8025
▁가려	-8026
▁졸라	-8027
고등학교	-8028
▁씽크	-8029
▁특징이다	-8030
▁하나가	-8031
bs	-8032
▁아닐까	-8033
매국	-8034
▁목소리가	-8035
확인	-8036
▁일자리를	-8037
▁mm	-8038
▁불륜	-8039
집을	-8040
장치	-8041
CTV	-8042
▁땡	-8043
거라고	-8044
위원회가	-8045
군사	-8046
▁내렸다	-8047
▁《	-8048
부지	-8049
전으로	-8050
▁월드컵	-8051
레이션	-8052
▁입장에서	-8053
ight	-8054
부품	-8055
▁금융감독	-8056
▁아들이	-8057
▁충청	-8058
광역시	-8059
▁멜	-8060
▁쓰면	-8061
.(	-8062
드에	-8063
▁처벌을	-8064
네가	-8065
▁착한	-8066
▁영업이익은	-8067
분은	-8068
▁가속	-8069
했다면	-8070
테인	-8071
▁손학규	-8072
▁선보인다	-8073
▁()	-8074
팀이	-8075
▁IS	-8076
재는	-8077
▁페미니	-8078
박물	-8079
런스	-8080
▁배틀	-8081
▁장소	-8082
▁기업에	-8083
▁통일부	-8084
▁조명	-8085
하는구나	-8086
▁??	-8087
▁시끄	-8088
▁완전한	-8089
으신	-8090
▁백악관	-8091
▁춤	-8092
경은	-8093
▁안되고	-8094
▁사건은	-8095
▁듯한	-8096
▁알아야	-8097
▁일본에서	-8098
▁되나	-8099
▁건드	-8100
▁삼성바이오	-8101
▁평화의	-8102
쳐라	-8103
▁안희정	-8104
시급	-8105
▁뒤에서	-8106
▁ᄅ	-8107
▁주기	-8108
▁개성공단	-8109
스키	-8110
▁수시	-8111
▁유포	-8112
이러	-8113
곳을	-8114
대구	-8115
▁깎	-8116
▁확인됐다	-8117
▁모습이다	-8118
▁사건의	-8119
▁펴	-8120
르크	-8121
▁든다	-8122
▁고스	-8123
▁명단	-8124
나네	-8125
중동	-8126
란히	-8127
▁평범한	-8128
▁구미	-8129
▁역량을	-8130
점과	-8131
▁수영	-8132
▁기준을	-8133
▁CBS	-8134
▁국가안보	-8135
▁하더라도	-8136
▁공작	-8137
보로	-8138
▁불확실	-8139
▁물류	-8140
▁랭	-8141
카페	-8142
▁잉	-8143
bc	-8144
▁피의자	-8145
▁적정	-8146
▁이처럼	-8147
였다고	-8148
▁챙기	-8149
자치단체	-8150
놨다	-8151
트라	-8152
▁최초의	-8153
http	-8154
▁나면	-8155
▁살아야	-8156
▁시상	-8157
▁방향을	-8158
세의	-8159
▁표기	-8160
▁김병	-8161
▁종사	-8162
▁뷰	-8163
▁커지고	-8164
▁기어	-8165
받지	-8166
▁퀘	-8167
회찬	-8168
▁올렸다	-8169
▁기본적으로	-8170
▁FC	-8171
▁솔루션	-8172
▁최후	-8173
▁너무나	-8174
▁베네수엘	-8175
들인	-8176
▁치명	-8177
▁CN	-8178
▁점도	-8179
▁현실을	-8180
▁얻은	-8181
▁좋은데	-8182
enter	-8183
▁준공	-8184
세이	-8185
물은	-8186
▁늘려	-8187
▁아깝다	-8188
자들과	-8189
▁PB	-8190
▁아가리	-8191
렸습니다	-8192
마켓	-8193
담당	-8194
▁도발	-8195
했으니	-8196
▁좋고	-8197
▁곰	-8198
모가	-8199
▁각성	-8200
▁납치	-8201
▁보내고	-8202
▁리스크	-8203
▁심한	-8204
▁67	-8205
행동	-8206
▁회장의	-8207
▁IB	-8208
▁잘살	-8209
▁*	-8210
▁교활	-8211
▁수천	-8212
▁수여	-8213
▁외면	-8214
타를	-8215
▁정신나간	-8216
가면서	-8217
▁지껄	-8218
고속도로	-8219
▁이후에	-8220
▁180	-8221
▁엘리	-8222
▁지역을	-8223
판사	-8224
▁비율	-8225
▁운항	-8226
것처럼	-8227
미세먼지	-8228
▁몰카	-8229
군에	-8230
여론	-8231
일리	-8232
들에게는	-8233
▁팽	-8234
▁소리가	-8235
최고	-8236
▁지적이	-8237
▁나의	-8238
▁줄었다	-8239
▁제도를	-8240
장인	-8241
▁CCTV	-8242
체제	-8243
공화국	-8244
니들	-8245
청정	-8246
go	-8247
▁체감	-8248
천시	-8249
▁기독교	-8250
▁모으	-8251
▁이어지고	-8252
▁개장	-8253
▁하락한	-8254
버그	-8255
▁그만해라	-8256
▁겹	-8257
▁무료로	-8258
▁대학교	-8259
이코	-8260
▁드디어	-8261
▁횡령	-8262
▁쇠	-8263
소나	-8264
배우	-8265
미디어	-8266
▁고위급	-8267
질의	-8268
▁사찰	-8269
래기	-8270
법상	-8271
▁층	-8272
▁증언	-8273
해졌다	-8274
ions	-8275
▁무엇을	-8276
▁안산	-8277
▁계속해서	-8278
▁또다시	-8279
▁진행되는	-8280
▁전문가들은	-8281
▁달아	-8282
▁융합	-8283
▁위원장의	-8284
▁에스	-8285
▁국정농단	-8286
▁죽는	-8287
▁균형	-8288
▁u	-8289
▁동양	-8290
▁확충	-8291
세다	-8292
됐으며	-8293
▁대대	-8294
▁공기업	-8295
52	-8296
▁두산	-8297
▁접속	-8298
OR	-8299
?"	-8300
▁하셨	-8301
▁분쟁	-8302
▁저소득	-8303
▁아카	-8304
▁전과	-8305
살이	-8306
▁유의	-8307
OC	-8308
▁증정	-8309
지네	-8310
배가	-8311
▁회사는	-8312
▁제정	-8313
파가	-8314
▁간부	-8315
html	-8316
판이	-8317
▁동일한	-8318
력도	-8319
▁거절	-8320
▁계기가	-8321
기금	-8322
▁Lv	-8323
▁남을	-8324
토록	-8325
▁차관	-8326
간첩	-8327
▁수익성	-8328
▁사안	-8329
▁라이브	-8330
▁재생	-8331
TS	-8332
▁검찰의	-8333
▁무인	-8334
▁여자들	-8335
▁결과에	-8336
리냐	-8337
구멍	-8338
▁산업혁명	-8339
▁성희롱	-8340
디아	-8341
▁남해	-8342
▁환율	-8343
▁주어	-8344
obile	-8345
▁핸드	-8346
▁수령	-8347
▁상세	-8348
편의	-8349
▁시키고	-8350
일도	-8351
▁식당	-8352
▁사용자가	-8353
▁특이	-8354
▁모드	-8355
▁중립	-8356
▁큐	-8357
을까요	-8358
▁격려	-8359
하자고	-8360
러리	-8361
페이	-8362
▁들어갔	-8363
▁와이	-8364
해봐야	-8365
▁119	-8366
▁교회	-8367
▁차세대	-8368
▁아시아나	-8369
▁패스트트랙	-8370
▁나섰	-8371
▁로스	-8372
었냐	-8373
▁고교	-8374
▁대거	-8375
▁정부를	-8376
▁놈들은	-8377
인한	-8378
았을	-8379
▁하니까	-8380
▁부산시	-8381
시간을	-8382
▁끝났	-8383
▁스트레스	-8384
▁”	-8385
▁일산	-8386
▁연동	-8387
▁착수	-8388
▁고대	-8389
▁선동질	-8390
▁차를	-8391
▁랜	-8392
새키	-8393
교육청	-8394
▁정치권	-8395
▁소년	-8396
▁둘째	-8397
▁인건비	-8398
배를	-8399
▁자문	-8400
호는	-8401
▁2021	-8402
우지	-8403
▁흡수	-8404
pan	-8405
▁보고서	-8406
▁개돼지들	-8407
정보통신	-8408
▁댓글조작	-8409
▁창의	-8410
구청	-8411
▁가지가	-8412
▁안심	-8413
성으로	-8414
▁핵을	-8415
▁대안	-8416
▁오르고	-8417
▁죽이는	-8418
▁오버	-8419
름이	-8420
▁시가총	-8421
시지	-8422
55	-8423
ik	-8424
▁좀비	-8425
▁???	-8426
▁맡은	-8427
▁국가에서	-8428
▁연설	-8429
▁부분은	-8430
▁IMF	-8431
▁조국은	-8432
았지만	-8433
업무	-8434
pl	-8435
집회	-8436
▁학원	-8437
오늘	-8438
▁당국	-8439
소한	-8440
▁수렴	-8441
ack	-8442
▁일환	-8443
▁만만	-8444
받는다	-8445
▁유동	-8446
▁작동	-8447
▁추측	-8448
▁일정을	-8449
▁대체로	-8450
▁넘어서	-8451
▁양보	-8452
ind	-8453
통합	-8454
▁손혜원	-8455
됐다는	-8456
▁타령	-8457
▁당분간	-8458
▁잠깐	-8459
▁법조	-8460
▁놀라	-8461
▁침몰	-8462
▁스탠	-8463
▁둘러싼	-8464
둥이	-8465
▁없기	-8466
심에서	-8467
▁삼성전자는	-8468
▁인기가	-8469
▁60%	-8470
▁자신들의	-8471
교류	-8472
▁평창올림픽	-8473
연맹	-8474
씨와	-8475
▁만들어진	-8476
▁거품	-8477
▁그야말로	-8478
오염	-8479
▁지원할	-8480
▁가량	-8481
▁세계에서	-8482
허가	-8483
▁지역은	-8484
호의	-8485
▁줘야	-8486
▁출처	-8487
▁우울	-8488
내용	-8489
▁한참	-8490
▁r	-8491
▁동성애	-8492
▁전략을	-8493
▁펀	-8494
아니면	-8495
▁you	-8496
▁겪고	-8497
▁전쟁을	-8498
▁전공	-8499
46	-8500
▁어떠한	-8501
▁여성의	-8502
투기	-8503
위원회를	-8504
중이다	-8505
▁보여준다	-8506
▁포럼	-8507
▁승용	-8508
▁황금	-8509
~~~~~	-8510
앞으로	-8511
해왔	-8512
대기	-8513
▁아마존	-8514
쯧쯧	-8515
▁싱글	-8516
▁의장	-8517
나온다	-8518
▁트럼프는	-8519
▁분야의	-8520
고로	-8521
▁매출이	-8522
▁문재앙은	-8523
▁해산	-8524
▁급등	-8525
져도	-8526
OS	-8527
▁진료	-8528
전한	-8529
인데요	-8530
마음	-8531
▁영구	-8532
▁지지율이	-8533
▁엄격	-8534
▁여기저기	-8535
퇴근	-8536
▁경기가	-8537
▁대북제재	-8538
▁정지	-8539
▁점령	-8540
하더라도	-8541
▁데이	-8542
▁확실한	-8543
▁말까지	-8544
▁할까	-8545
▁정도가	-8546
▁한마디로	-8547
▁적절	-8548
▁끔찍	-8549
▁열었다	-8550
▁보건복지	-8551
▁단어	-8552
▁머리를	-8553
부담	-8554
메달	-8555
▁만화	-8556
▁미치는	-8557
▁한번도	-8558
▁잡는	-8559
▁공개했다	-8560
▁얘기를	-8561
▁국세	-8562
▁한가	-8563
트리온	-8564
▁실질적인	-8565
▁그것을	-8566
서민	-8567
일자	-8568
▁어마	-8569
박스	-8570
▁그런거	-8571
▁개의	-8572
꼴통	-8573
oT	-8574
▁0.2	-8575
조는	-8576
수기	-8577
천원	-8578
▁전부터	-8579
▁정경	-8580
▁※	-8581
정지	-8582
배상	-8583
▁정밀	-8584
▁중부	-8585
▁장병	-8586
▁입국	-8587
▁무섭다	-8588
▁마인	-8589
▁자료사진	-8590
▁조달	-8591
▁교통사고	-8592
▁대부분이	-8593
▁정도는	-8594
▁핫	-8595
▁머리가	-8596
▁범위	-8597
▁부분을	-8598
무장	-8599
▁조국을	-8600
체의	-8601
▁판결을	-8602
양이	-8603
▁무단	-8604
됐지만	-8605
▁애들은	-8606
▁맞서	-8607
▁훌륭한	-8608
▁망가	-8609
▁것만	-8610
▁자영업자	-8611
▁겨냥	-8612
집행	-8613
미디	-8614
▁예외	-8615
▁카풀	-8616
▁불가피	-8617
▁중동	-8618
남도	-8619
▁종족	-8620
▁가중	-8621
▁자발	-8622
▁차지했다	-8623
▁현장에	-8624
▁되길	-8625
▁조사됐다	-8626
▁타이틀	-8627
▁공군	-8628
▁탈락	-8629
▁드러났다	-8630
ᄒᄒᄒᄒ	-8631
▁더한	-8632
유공자	-8633
보장	-8634
▁그들은	-8635
겠습니까	-8636
▁세트	-8637
▁SUV	-8638
걸이	-8639
▁사이에서	-8640
▁활성화를	-8641
▁이어지는	-8642
옵니다	-8643
▁MA	-8644
▁잠수	-8645
▁카운	-8646
2019	-8647
▁라디오	-8648
터를	-8649
▁양도	-8650
▁높여	-8651
PC	-8652
▁명품	-8653
지인	-8654
▁방문한	-8655
...?	-8656
▁자제	-8657
▁굽	-8658
▁매번	-8659
▁기록한	-8660
▁빌려	-8661
▁신중	-8662
MA	-8663
고에	-8664
▁보일	-8665
▁없어요	-8666
지션	-8667
▁생길	-8668
평을	-8669
▁일러	-8670
▁반미	-8671
▁가이드	-8672
CC	-8673
쪽은	-8674
거부	-8675
▁한계	-8676
▁결국은	-8677
▁도내	-8678
▁목격	-8679
▁해놓고	-8680
▁브렉시	-8681
▁숨겨	-8682
▁떳	-8683
;;;	-8684
▁방면	-8685
▁올릴	-8686
▁re	-8687
으세요	-8688
▁알파	-8689
ᄍᄍᄍ	-8690
현재	-8691
▁증거가	-8692
주와	-8693
▁노릇	-8694
▁이길	-8695
▁신선	-8696
▁나를	-8697
▁연예인	-8698
시장이	-8699
▁츠	-8700
▁사회에	-8701
점수	-8702
▁면세	-8703
▁88	-8704
▁트리	-8705
59	-8706
국민들	-8707
수저	-8708
되었고	-8709
▁뭔데	-8710
라시	-8711
▁화려	-8712
▁세무	-8713
▁했으나	-8714
▁기대하고	-8715
▁입원	-8716
지대	-8717
▁고문	-8718
▁발생할	-8719
포기	-8720
▁입에	-8721
▁구멍	-8722
▁내지	-8723
업종	-8724
당시	-8725
▁재료	-8726
▁남겨	-8727
▁당기	-8728
특히	-8729
▁주면	-8730
프로그램	-8731
워야	-8732
▁경기를	-8733
▁끌어내	-8734
▁사모	-8735
▁좋아요	-8736
▁말하고	-8737
▁카드를	-8738
겠니	-8739
타는	-8740
▁탈북	-8741
▁개인이	-8742
▁하지말	-8743
▁사례가	-8744
▁강행	-8745
▁나간	-8746
돈이	-8747
할려고	-8748
▁픽	-8749
값이	-8750
▁낙태	-8751
하실	-8752
하였고	-8753
▁시정	-8754
▁다리	-8755
▁목록	-8756
▁여자는	-8757
▁부끄러운	-8758
▁기자간담	-8759
닉스	-8760
▁그러다	-8761
▁없었던	-8762
▁냈다	-8763
▁자격이	-8764
겠는가	-8765
실은	-8766
물의	-8767
▁이겨	-8768
▁기자입니다	-8769
▁고도	-8770
아무	-8771
▁고집	-8772
▁영입	-8773
▁인정하고	-8774
▁학살	-8775
▁행복한	-8776
▁어려울	-8777
▁사업이	-8778
▁콤	-8779
▁분위기를	-8780
▁안하면	-8781
테고	-8782
▁친중	-8783
▁죽고	-8784
있다고	-8785
거같	-8786
▁대표이사	-8787
▁2004	-8788
하나요	-8789
아시아	-8790
버렸다	-8791
형으로	-8792
▁거래되고	-8793
▁보존	-8794
▁동작	-8795
지는데	-8796
▁추종	-8797
▁눌	-8798
어떻	-8799
▁쪽으로	-8800
인력	-8801
49	-8802
▁내달	-8803
▁데다	-8804
▁합류	-8805
ᄏᄏᄏᄏᄏᄏᄏ	-8806
▁속이	-8807
▁비용을	-8808
▁요새	-8809
경찰청	-8810
하지마	-8811
▁컨설팅	-8812
▁일찍	-8813
▁참여해	-8814
▁주장을	-8815
▁지명	-8816
▁변화가	-8817
▁강연	-8818
마드	-8819
동생	-8820
▁전담	-8821
ID	-8822
▁본사	-8823
47	-8824
▁불쌍한	-8825
▁개발을	-8826
▁적절한	-8827
LED	-8828
화할	-8829
수출	-8830
안과	-8831
▁드는	-8832
▁옳은	-8833
편이	-8834
▁클리어	-8835
▁처음이다	-8836
▁메시지를	-8837
민의	-8838
주자	-8839
마를	-8840
▁장례	-8841
▁마주	-8842
▁경력	-8843
▁편하게	-8844
근무	-8845
▁꺼내	-8846
▁썩어	-8847
▁유죄	-8848
PA	-8849
▁고속	-8850
▁기관이	-8851
브리	-8852
▁국회에	-8853
▁문의	-8854
▁건지	-8855
pe	-8856
소시	-8857
▁공정거래	-8858
▁방법으로	-8859
아베	-8860
인증	-8861
▁할아버	-8862
▁단식	-8863
▁않아도	-8864
▁임종석	-8865
▁물량	-8866
▁강의	-8867
▁도중	-8868
만원의	-8869
▁텐	-8870
보이	-8871
때가	-8872
▁개선을	-8873
▁결승	-8874
▁짜고	-8875
따위	-8876
▁스웨	-8877
겠군	-8878
정책을	-8879
▁합의를	-8880
▁전설	-8881
▁세계적인	-8882
▁링크	-8883
▁어디로	-8884
▁않냐	-8885
▁농촌	-8886
▁한나라	-8887
▁차가	-8888
신도	-8889
▁63	-8890
▁곽	-8891
▁건강한	-8892
▁지출	-8893
▁감당	-8894
술을	-8895
▁나서서	-8896
여개	-8897
▁여가	-8898
▁떨어질	-8899
▁않는다는	-8900
▁직원들이	-8901
상과	-8902
▁5·18	-8903
교육을	-8904
▁얼굴을	-8905
▁댄	-8906
▁에너	-8907
▁개정은	-8908
▁보다는	-8909
그렇	-8910
▁추진할	-8911
▁노조가	-8912
추어	-8913
▁서명	-8914
▁싫은	-8915
▁민원	-8916
▁깡패	-8917
▁노력하겠다	-8918
▁참여할	-8919
▁하는구나	-8920
사무소	-8921
▁침략	-8922
▁몰고	-8923
났습니다	-8924
하든	-8925
한지	-8926
▁문가	-8927
▁받으면	-8928
소속	-8929
▁나누고	-8930
▁HP	-8931
▁내야	-8932
▁비행기	-8933
소재	-8934
▁ᄃᄃ	-8935
▁수습	-8936
▁박탈	-8937
▁모임	-8938
우기	-8939
하시길	-8940
시장은	-8941
▁내릴	-8942
▁린	-8943
▁사람들도	-8944
▁이쯤	-8945
▁웃기는	-8946
▁가해자	-8947
포토	-8948
▁욕을	-8949
▁강화를	-8950
▁창작	-8951
▁처분	-8952
▁수호	-8953
▁is	-8954
▁도출	-8955
▁숨진	-8956
▁만든다	-8957
port	-8958
십니까	-8959
센터를	-8960
▁손님	-8961
▁들어오	-8962
▁시킨	-8963
꼰대	-8964
▁거냐	-8965
▁소수	-8966
▁종이	-8967
▁예산을	-8968
▁확인하고	-8969
▁구역	-8970
▁총리가	-8971
▁드라이	-8972
소프트	-8973
으려는	-8974
▁이순	-8975
▁곧바로	-8976
방에서	-8977
▁박수	-8978
▁마련된	-8979
친일	-8980
▁스페인	-8981
▁그만하고	-8982
▁들을	-8983
▁먹은	-8984
▁입맛	-8985
▁특유의	-8986
시작	-8987
수입	-8988
▁잡은	-8989
▁대표와	-8990
▁건의	-8991
▁소셜	-8992
ity	-8993
▁노회찬	-8994
▁--	-8995
▁막고	-8996
nav	-8997
하우스	-8998
아니다	-8999
나보네	-9000
신도시	-9001
때부터	-9002
▁이야기가	-9003
▁2002	-9004
함과	-9005
▁원인을	-9006
▁놀아	-9007
라를	-9008
졌다는	-9009
▁부모님	-9010
▁높이고	-9011
국에서	-9012
▁미칠	-9013
감도	-9014
▁조금씩	-9015
▁셀트리온	-9016
ill	-9017
▁스펙	-9018
▁i	-9019
▁합병	-9020
▁Mobile	-9021
▁수학	-9022
▁앞장서	-9023
명에게	-9024
▁진행한	-9025
▁한거	-9026
▁사면	-9027
▁한국당이	-9028
▁땐	-9029
▁이사장	-9030
▁서구	-9031
Ad	-9032
로우	-9033
▁없도록	-9034
▁상한	-9035
▁측이	-9036
▁나라꼴	-9037
▁청와대에서	-9038
▁이런데	-9039
승을	-9040
배로	-9041
▁69	-9042
▁활용할	-9043
▁조언	-9044
돈을	-9045
▁등장한다	-9046
▁양승태	-9047
▁타임	-9048
현대	-9049
급여	-9050
▁겁나	-9051
욕을	-9052
▁이후로	-9053
▁콘텐츠를	-9054
정권은	-9055
▁제시했다	-9056
▁고용노동	-9057
▁대통	-9058
마는	-9059
▁남탓	-9060
▁찾을	-9061
없으면	-9062
▁맡고	-9063
▁조롱	-9064
▁떠올	-9065
▁환경부	-9066
▁정해	-9067
▁인스타	-9068
▁역량	-9069
리니	-9070
▁변신	-9071
▁사람에게	-9072
시설을	-9073
세종	-9074
▁노동당	-9075
.12	-9076
점의	-9077
금으로	-9078
▁지목	-9079
▁좆	-9080
▁존재한다	-9081
▁당신의	-9082
▁나선다	-9083
-1	-9084
▁일본으로	-9085
▁발달	-9086
▁차량을	-9087
메인에	-9088
▁때부터	-9089
▁찰	-9090
▁잘못을	-9091
▁휩	-9092
▁남측	-9093
▁이상으로	-9094
▁암살	-9095
억원에	-9096
▁규탄	-9097
????????	-9098
혀서	-9099
▁몸에	-9100
러가	-9101
▁2030	-9102
차이즈	-9103
▁치는	-9104
▁안전을	-9105
▁정말로	-9106
▁모멘	-9107
▁틀린	-9108
어준	-9109
▁정부서울	-9110
복합	-9111
일베	-9112
▁성별	-9113
▁진행하는	-9114
!!!!!!	-9115
모습	-9116
▁따뜻한	-9117
▁비대	-9118
▁끝이	-9119
▁파기	-9120
▁진행됐다	-9121
▁조장	-9122
▁사용자	-9123
▁법무장관	-9124
전과	-9125
ive	-9126
▁조속	-9127
▁안좋	-9128
자격	-9129
▁약한	-9130
33	-9131
▁중기	-9132
하죠	-9133
▁여객	-9134
▁하도	-9135
▁말하면	-9136
▁재발	-9137
▁인간은	-9138
▁마련했다	-9139
▁자본주의	-9140
▁멋진	-9141
실한	-9142
▁회사의	-9143
▁기념촬영을	-9144
▁시기에	-9145
▁위대한	-9146
▁철저한	-9147
▁침묵	-9148
▁김지	-9149
▁휴대전	-9150
공헌	-9151
그게	-9152
▁없던	-9153
되는거	-9154
▁가격을	-9155
▁벌이고	-9156
▁매출액은	-9157
▁남성이	-9158
▁체크	-9159
▁대국민	-9160
값을	-9161
▁돈도	-9162
▁탈퇴	-9163
▁크고	-9164
▁패러	-9165
▁on	-9166
▁좋게	-9167
▁사건에	-9168
▁사전에	-9169
대교	-9170
▁좌우	-9171
▁입사	-9172
▁미션	-9173
▁사회가	-9174
▁이것은	-9175
▁차지하는	-9176
▁이들을	-9177
▁앞세	-9178
▁순위	-9179
▁어깨	-9180
여러	-9181
▁란	-9182
▁바쁘	-9183
▁시대가	-9184
고생	-9185
▁세금이	-9186
▁상가	-9187
▁망할	-9188
▁정신이	-9189
▁안됩니다	-9190
▁선정된	-9191
▁한방	-9192
▁지원하고	-9193
▁곳으로	-9194
▁기업으로	-9195
저씨	-9196
▁긍정적인	-9197
법원	-9198
하의	-9199
▁긴밀	-9200
PS	-9201
▁엔딩	-9202
▁사내	-9203
▁넘어가	-9204
▁IoT	-9205
▁변명	-9206
▁이뤄질	-9207
▁동부	-9208
람회	-9209
▁경상도	-9210
▁설정하기	-9211
▁망해	-9212
▁소멸	-9213
▁각오	-9214
▁숙박	-9215
▁서울의	-9216
▁동향	-9217
▁미성	-9218
▁이시	-9219
▁오면	-9220
층이	-9221
▁물려	-9222
▁플라스틱	-9223
▁대통령에게	-9224
ver	-9225
▁하지마	-9226
▁밥그릇	-9227
건에	-9228
▁엉망	-9229
폭이	-9230
하겠네	-9231
▁네이버메인에	-9232
방해	-9233
폭행	-9234
▁김진태	-9235
탄을	-9236
결국	-9237
▁이뤄진	-9238
▁정치적으로	-9239
▁작곡	-9240
▁보게	-9241
▁직원이	-9242
▁공연을	-9243
▁서부	-9244
▁시작한다	-9245
▁전파	-9246
회관에서	-9247
▁부서	-9248
의로	-9249
망신	-9250
▁스케	-9251
▁셰	-9252
있을	-9253
▁먹여	-9254
지수는	-9255
다는거	-9256
투쟁	-9257
▁누리	-9258
▁동북	-9259
▁삐	-9260
▁자진	-9261
더냐	-9262
▁주제	-9263
모르	-9264
까지만	-9265
▁편안	-9266
보세요	-9267
▁비하면	-9268
▁이나	-9269
▁제품은	-9270
▁엑스	-9271
▁인물이	-9272
터미널	-9273
▁유지하고	-9274
체는	-9275
▁일으키	-9276
했어	-9277
▁나눔	-9278
▁3.	-9279
▁여수	-9280
력발전	-9281
터테인	-9282
▁지겹다	-9283
New	-9284
아프	-9285
▁북에	-9286
▁공인	-9287
인터넷	-9288
하다니	-9289
▁유권	-9290
▁퀘스트	-9291
영표	-9292
▁민주평화당	-9293
그런데	-9294
운동을	-9295
▁프로모	-9296
▁마구	-9297
▁받기	-9298
당국은	-9299
▁충분한	-9300
▁서울시는	-9301
▁하나는	-9302
▁얻고	-9303
▁없애라	-9304
▁거대한	-9305
▁육아	-9306
▁center	-9307
와도	-9308
▁하여간	-9309
▁JT	-9310
▁개봉	-9311
▁쭉	-9312
되니	-9313
na	-9314
▁사진은	-9315
벌이	-9316
▁110	-9317
청사	-9318
▁속도가	-9319
▁불구속	-9320
▁왜구	-9321
하기에	-9322
쳐야	-9323
센트	-9324
▁컨트롤	-9325
세월	-9326
▁경제부	-9327
▁교과	-9328
▁호흡	-9329
▁배운	-9330
▁박그네	-9331
▁한겨	-9332
등이	-9333
▁상속	-9334
▁요구했다	-9335
호텔에서	-9336
▁인성	-9337
▁방한	-9338
▁해킹	-9339
▁정책에	-9340
▁꿈을	-9341
통제	-9342
▁쌩	-9343
위원장은	-9344
▁이렇	-9345
▁끝날	-9346
시킨다	-9347
▁선보인	-9348
▁마지막으로	-9349
▁미세먼지가	-9350
▁좋겠습니다	-9351
▁건강보험	-9352
▁조금만	-9353
▁밝히고	-9354
▁거두	-9355
▁선포	-9356
▁가졌다	-9357
클럽	-9358
▁전후	-9359
종이	-9360
▁안한다	-9361
▁남양	-9362
▁강도	-9363
▁수사에	-9364
▁창피	-9365
▁입시	-9366
▁수비	-9367
만하고	-9368
이었고	-9369
▁아끼	-9370
봅시다	-9371
57	-9372
뿐이다	-9373
▁보니까	-9374
질은	-9375
▁강화하고	-9376
▁덱	-9377
▁과제	-9378
▁몇년	-9379
▁안철	-9380
▁포르	-9381
조의	-9382
▁붙잡	-9383
▁원인이	-9384
▁비율이	-9385
▁떠들	-9386
▁잣	-9387
▁그리스	-9388
▁갖춰	-9389
▁규모는	-9390
▁모멘텀	-9391
▁LH	-9392
▁횟	-9393
권력	-9394
박한	-9395
층에	-9396
▁「	-9397
당하는	-9398
▁출생	-9399
▁헝가리	-9400
▁마녀	-9401
▁~~~	-9402
▁소방관	-9403
▁하위	-9404
▁냅	-9405
▁가전	-9406
▁추억	-9407
렸다고	-9408
▁설문	-9409
▁연극	-9410
▁지소	-9411
데로	-9412
청와대	-9413
만여	-9414
▁왕따	-9415
걸고	-9416
▁뻘	-9417
▁하늘을	-9418
▁부각	-9419
질로	-9420
어떻게	-9421
▁부자	-9422
▁이르	-9423
▁금속	-9424
▁포켓	-9425
▁넘쳐	-9426
▁지닌	-9427
살기	-9428
결제	-9429
성한	-9430
▁워크	-9431
▁유용	-9432
병이	-9433
▁130	-9434
▁행위를	-9435
비서	-9436
창업	-9437
▁악의	-9438
▁해안	-9439
방안	-9440
▁있나요	-9441
▁속성	-9442
▁노하	-9443
류가	-9444
▁김씨	-9445
인데도	-9446
▁확대해	-9447
▁적용해	-9448
달아	-9449
▁공매도	-9450
▁아이고	-9451
▁중반	-9452
▁노조는	-9453
▁3%	-9454
▁전월	-9455
▁역겹다	-9456
▁설마	-9457
▁안타깝다	-9458
▁마리	-9459
▁가볍	-9460
분들이	-9461
▁김재	-9462
▁공동으로	-9463
▁어디까지	-9464
▁위에서	-9465
▁기후	-9466
56	-9467
▁며칠	-9468
▁관계자들이	-9469
▁금강산	-9470
▁현상	-9471
▁소프트웨어	-9472
▁새누리	-9473
▁운동권	-9474
계는	-9475
나가는	-9476
AdNew	-9477
▁MobileAdNew	-9478
▁일에	-9479
일반	-9480
▁다하겠다	-9481
마스	-9482
▁당기순	-9483
▁역겨	-9484
▁죽창	-9485
▁회수	-9486
ie	-9487
국민을	-9488
▁(20	-9489
기업이	-9490
▁충족	-9491
▁개뿔	-9492
▁정규	-9493
▁해고	-9494
했음	-9495
▁소요	-9496
▁도는	-9497
▁삭발	-9498
▁대다수	-9499
▁시달	-9500
▁팝	-9501
▁향한	-9502
▁이번이	-9503
▁교섭	-9504
▁규제를	-9505
▁비공개	-9506
할게	-9507
즈의	-9508
▁안됨	-9509
▁놓은	-9510
▁알리	-9511
▁사장이	-9512
▁부하	-9513
구리	-9514
▁등장인물	-9515
▁초딩	-9516
EA	-9517
둬라	-9518
▁만들어야	-9519
랑이	-9520
▁혈세	-9521
▁커녕	-9522
▁발효	-9523
중에도	-9524
▁멀티	-9525
▁배송	-9526
개월간	-9527
▁있음을	-9528
▁AF	-9529
▁0.3	-9530
▁정무	-9531
▁국무총	-9532
▁시대를	-9533
RA	-9534
▁장자연	-9535
▁부끄럽	-9536
이었는데	-9537
▁내다봤다	-9538
▁선생님	-9539
▁유아	-9540
▁자유롭게	-9541
이면서	-9542
▁평화가	-9543
▁생각도	-9544
▁풀이된다	-9545
주주	-9546
▁다해	-9547
시키기	-9548
마의	-9549
▁신뢰를	-9550
▁어쩔수	-9551
화해	-9552
▁사람들에게	-9553
▁친북	-9554
▁고기	-9555
▁소련	-9556
44	-9557
목으로	-9558
▁손잡고	-9559
▁세탁	-9560
▁키우는	-9561
▁버려	-9562
▁알았다	-9563
속도	-9564
▁신년	-9565
타이어	-9566
요즘	-9567
▁지사	-9568
통화	-9569
▁현직	-9570
은행이	-9571
남자	-9572
▁욕하는	-9573
집에서	-9574
▁추진하는	-9575
▁보육	-9576
▁소폭	-9577
▁TF	-9578
▁금방	-9579
▁복구	-9580
졌는데	-9581
언제	-9582
교회	-9583
수요	-9584
▁좀더	-9585
▁하였다	-9586
▁대표하는	-9587
▁아베가	-9588
▁골드	-9589
▁옵션	-9590
▁장르	-9591
갑니다	-9592
▁설비	-9593
▁바퀴	-9594
▁플레이어	-9595
▁다섯	-9596
▁정신병자	-9597
▁이영	-9598
▁필요하다고	-9599
▁보여주고	-9600
센터는	-9601
▁78	-9602
▁박근혜가	-9603
▁함께하는	-9604
▁않기	-9605
▁원활	-9606
▁캠페인	-9607
마크	-9608
폭을	-9609
▁이윤	-9610
▁유형	-9611
▁비트코인	-9612
▁명시	-9613
▁무기징	-9614
▁현장을	-9615
▁구청	-9616
▁고객이	-9617
▁재개발	-9618
▁다수의	-9619
▁요즘은	-9620
▁웃긴	-9621
보며	-9622
▁하려	-9623
▁그럼에도	-9624
▁62	-9625
▁생겼다	-9626
▁무산	-9627
▁진작	-9628
▁수면	-9629
사람들은	-9630
인멸	-9631
▁부지	-9632
▁살게	-9633
▁대피	-9634
중이	-9635
자리에	-9636
▁일하고	-9637
▁안해	-9638
얼굴	-9639
▁불을	-9640
덩어리	-9641
▁예전에	-9642
▁말아야	-9643
▁전방	-9644
▁많을	-9645
▁복수	-9646
▁게이	-9647
▁맥주	-9648
미친	-9649
▁예보	-9650
청년	-9651
건은	-9652
▁업그레이드	-9653
미술	-9654
색이	-9655
닫고	-9656
렉스	-9657
▁매출은	-9658
?...	-9659
프는	-9660
▁하는것	-9661
▁세운	-9662
었어	-9663
유지	-9664
▁래	-9665
▁퓨	-9666
관으로	-9667
전형	-9668
▁돈만	-9669
▁아키	-9670
▁스테이지	-9671
▁대한민국에	-9672
▁지불	-9673
▁시전	-9674
▁입장에서는	-9675
▁공범	-9676
▁어떨	-9677
추는	-9678
▁자사고	-9679
▁대통령도	-9680
▁테크	-9681
▁구체적으로	-9682
▁승진	-9683
연이	-9684
하하	-9685
▁떳떳	-9686
▁매주	-9687
았다는	-9688
▁이름은	-9689
▁캡처	-9690
est	-9691
▁예정입니다	-9692
있던	-9693
▁없어져야	-9694
▁대결	-9695
▁15%	-9696
▁실적을	-9697
▁주민들이	-9698
스카	-9699
▁보냈	-9700
▁밑에	-9701
경찰서	-9702
▁밖으로	-9703
▁개인정보	-9704
▁논의를	-9705
▁저작	-9706
기업의	-9707
▁시키는	-9708
시청	-9709
▁크루	-9710
▁파면	-9711
이래	-9712
▁파는	-9713
▁시세	-9714
▁2003	-9715
어마	-9716
▁방법은	-9717
▁가질	-9718
▁동시	-9719
▁스웨덴	-9720
▁실력	-9721
해야할	-9722
미로	-9723
▁열렸다	-9724
폐지	-9725
▁쉴드	-9726
기본	-9727
▁오바	-9728
올라	-9729
▁용의	-9730
▁지키는	-9731
▁킬	-9732
▁되면서	-9733
▁망하게	-9734
▁준비를	-9735
▁장제	-9736
▁온다	-9737
하구	-9738
▁늘어날	-9739
▁것들은	-9740
▁저딴	-9741
조에	-9742
▁마이너스	-9743
완전	-9744
▁무선	-9745
▁하노이	-9746
▁괜찮은	-9747
▁돋	-9748
관계가	-9749
▁직권	-9750
주간	-9751
▁무효	-9752
▁납품	-9753
▁하는건	-9754
▁주범	-9755
▁포함된	-9756
▁일러스트	-9757
락을	-9758
▁천벌	-9759
늦게	-9760
▁부당	-9761
▁구제	-9762
로만	-9763
▁방식을	-9764
▁신경쓰	-9765
못하는	-9766
▁이적	-9767
▁지는	-9768
▁붙여	-9769
▁DM	-9770
▁대표이	-9771
▁고통을	-9772
줄알	-9773
▁목표가	-9774
선생	-9775
▁되도록	-9776
▁부르는	-9777
면허	-9778
있으니	-9779
▁순으로	-9780
부족	-9781
▁위탁	-9782
▁최고위원	-9783
▁태어난	-9784
">	-9785
▁이사회	-9786
▁가리	-9787
▁61	-9788
였으면	-9789
정과	-9790
베이	-9791
▁입찰	-9792
▁보여준	-9793
독립	-9794
▁찍고	-9795
수지	-9796
▁드러나	-9797
임에도	-9798
▁대륙	-9799
▁베스트	-9800
이유	-9801
것다	-9802
▁공평	-9803
▁높이는	-9804
▁어렵게	-9805
로로	-9806
▁우리나라에	-9807
위와	-9808
▁엄청나게	-9809
▁제압	-9810
즈는	-9811
▁뮤지컬	-9812
▁헤어	-9813
양반	-9814
▁죽어나	-9815
▁개발에	-9816
▁소름	-9817
▁잃은	-9818
▁기온이	-9819
▁ー	-9820
▁면역	-9821
▁르노	-9822
순간	-9823
드와	-9824
▁흰	-9825
▁별도로	-9826
▁받아서	-9827
▁모니터링	-9828
▁조례	-9829
지주	-9830
▁이런게	-9831
구니	-9832
▁잘라	-9833
마냥	-9834
▁못살	-9835
체로	-9836
▁트레이	-9837
▁공기청정	-9838
▁적지	-9839
▁올라가	-9840
▁사회공헌	-9841
▁있는가	-9842
공식	-9843
▁출국	-9844
타가	-9845
이라면서	-9846
▁메갈	-9847
만원에	-9848
▁기무사	-9849
▁확대를	-9850
프리	-9851
▁2%	-9852
회로	-9853
맞고	-9854
▁대중교통	-9855
▁않았지만	-9856
▁한층	-9857
만하면	-9858
▁젠	-9859
yle	-9860
▁런던	-9861
▁미개한	-9862
▁위치했다	-9863
기전에	-9864
토론	-9865
▁푸틴	-9866
▁천연	-9867
디언	-9868
▁경남도	-9869
▁투기꾼	-9870
▁일으킨	-9871
층의	-9872
▁확실하게	-9873
▁있다가	-9874
▁감소한	-9875
▁외환	-9876
ON	-9877
▁위하여	-9878
전용	-9879
▁해외로	-9880
가치	-9881
▁대립	-9882
▁US	-9883
바뀌	-9884
▁위기에	-9885
ip	-9886
취급	-9887
▁임대료	-9888
▁선배	-9889
▁문제의	-9890
▁마사	-9891
▁아기	-9892
▁밀려	-9893
.11	-9894
▁지역구	-9895
▁오피스텔	-9896
취업	-9897
▁질의	-9898
▁비핵화를	-9899
상한	-9900
음악	-9901
▁느낌이	-9902
▁해수	-9903
▁기소된	-9904
▁몫	-9905
▁중독	-9906
▁회의에서	-9907
최저	-9908
일이다	-9909
▁UN	-9910
▁안나오	-9911
▁살다	-9912
▁해주는	-9913
1000	-9914
▁있다며	-9915
▁사용해	-9916
▁구경	-9917
▁종목의	-9918
▁않았고	-9919
▁한경	-9920
중심	-9921
▁언어	-9922
▁이었다	-9923
▁먼지	-9924
DI	-9925
권도	-9926
▁우습게	-9927
중소	-9928
▁숭	-9929
▁보며	-9930
▁불어	-9931
▁노란	-9932
▁삼가	-9933
▁오리지	-9934
히지	-9935
▁협의를	-9936
▁세이	-9937
▁분당	-9938
표가	-9939
▁제휴	-9940
▁귀국	-9941
▁나빠	-9942
▁중국산	-9943
▁분위기가	-9944
▁신청을	-9945
▁민정수석	-9946
▁거래소	-9947
▁대표의	-9948
▁1500	-9949
▁깊이	-9950
▁별도	-9951
췄다	-9952
▁집값이	-9953
▁점포	-9954
▁나불	-9955
▁영향이	-9956
▁인턴	-9957
보안	-9958
▁다음은	-9959
강간	-9960
▁마시	-9961
▁72	-9962
▁의지	-9963
▁적대	-9964
사령	-9965
▁본인은	-9966
▁입건	-9967
▁내리는	-9968
▁바꿀	-9969
▁주장이	-9970
▁딸이	-9971
▁엄벌	-9972
▁입장이	-9973
▁파탄	-9974
▁윌	-9975
끄는	-9976
▁받아들여	-9977
▁친박	-9978
처를	-9979
▁2.5	-9980
▁빨갱이들	-9981
▁공개한	-9982
▁잦	-9983
징용	-9984
▁우리나라의	-9985
▁개미	-9986
▁뭐니	-9987
▁제재를	-9988
비의	-9989
▁방탄소년	-9990
▁장을	-9991
▁남자들	-9992
▁아사	-9993
▁최근에는	-9994
항을	-9995
패를	-9996
▁투자증권	-9997
개는	-9998
▁목사	-9999
▁하네요	-10000
▁어쨌	-10001
▁끝나고	-10002
▁진행되고	-10003
TN	-10004
나의	-10005
▁영역	-10006
들면	-10007
▁늦게	-10008
▁영하	-10009
▁욕심	-10010
▁어디에	-10011
못해	-10012
십시요	-10013
▁아가	-10014
▁코너	-10015
▁쳐먹	-10016
▁살짝	-10017
감과	-10018
▁교황	-10019
내라	-10020
인척	-10021
못하고	-10022
▁명을	-10023
▁설명했습니다	-10024
시켜서	-10025
기계	-10026
▁오랫	-10027
경찰서는	-10028
▁소송을	-10029
▁원장은	-10030
▁치러	-10031
안되는	-10032
▁이하의	-10033
▁궁금하다	-10034
버린다	-10035
▁본래	-10036
▁내리고	-10037
▁발령	-10038
▁종종	-10039
▁명분	-10040
▁전망된다	-10041
▁더듬	-10042
▁유가	-10043
▁전까지	-10044
없는데	-10045
▁기상청	-10046
▁당하는	-10047
▁총기	-10048
판에서	-10049
렸고	-10050
▁가벼	-10051
▁상관없이	-10052
▁무더	-10053
8000	-10054
▁북부	-10055
빌리티	-10056
news	-10057
▁오죽	-10058
▁찾기	-10059
권과	-10060
▁이은	-10061
▁일반적인	-10062
▁사령	-10063
▁놀러	-10064
▁영토	-10065
▁문재인의	-10066
줘도	-10067
▁넣고	-10068
▁1999	-10069
▁전경	-10070
6000	-10071
▁연애	-10072
▁ᄉᄁ	-10073
▁결정했다	-10074
명도	-10075
포먼	-10076
▁넓은	-10077
▁등장한	-10078
▁끌어올	-10079
4000	-10080
▁이인	-10081
▁하나금융	-10082
▁경호	-10083
▁섭취	-10084
기반	-10085
▁바람이	-10086
▁베네수엘라	-10087
▁총선에서	-10088
시위	-10089
이렇게	-10090
▁일어날	-10091
▁망한다	-10092
▁한해	-10093
파로	-10094
▁시켜라	-10095
▁던져	-10096
▁김학의	-10097
▁특화	-10098
▁야외	-10099
체에	-10100
▁책을	-10101
▁RO	-10102
조로	-10103
▁해방	-10104
북도	-10105
▁87	-10106
▁깜빵	-10107
방지	-10108
장한	-10109
▁끊임	-10110
~!!!	-10111
▁휠	-10112
▁경제에	-10113
되길	-10114
▁감동	-10115
▁눈길을	-10116
보드	-10117
▁시작해	-10118
▁핵무기	-10119
▁국제사회	-10120
마니	-10121
시장에	-10122
▁잠정	-10123
디션	-10124
▁홀로	-10125
▁경찰의	-10126
▁행태	-10127
▁묘사	-10128
▁신형	-10129
▁생기는	-10130
▁아군	-10131
▁연루	-10132
▁말라고	-10133
트에	-10134
장애인	-10135
▁마련됐다	-10136
▁코미디	-10137
▁폐업	-10138
감에	-10139
▁뇌가	-10140
▁유행	-10141
청소년	-10142
부부	-10143
▁보내는	-10144
▁문화를	-10145
▁하겠다는	-10146
천억	-10147
▁싶으면	-10148
▁곳곳에	-10149
동계올림픽	-10150
▁감축	-10151
▁기업들	-10152
회관	-10153
코스	-10154
식과	-10155
▁형제	-10156
▁거대	-10157
▁수준에	-10158
치다	-10159
▁MOU	-10160
쳐먹고	-10161
구려	-10162
▁높였다	-10163
▁증시	-10164
▁복원	-10165
▁판단했다	-10166
▁수익률은	-10167
▁인가	-10168
0%	-10169
하기를	-10170
▁턴	-10171
걱정	-10172
등등	-10173
▁떨어졌다	-10174
랜차이즈	-10175
먼저	-10176
강화	-10177
렸는데	-10178
▁정시	-10179
▁악질	-10180
▁내놓은	-10181
▁작품을	-10182
▁광복	-10183
▁일종의	-10184
▁신고를	-10185
▁형태의	-10186
하더라	-10187
▁미국도	-10188
▁받아들	-10189
▁샀	-10190
▁많지	-10191
ail	-10192
▁흙	-10193
▁정치인들	-10194
▁캘	-10195
수원	-10196
▁핵실험	-10197
되기도	-10198
▁사랑을	-10199
▁부분에	-10200
▁투자자	-10201
살을	-10202
▁정의로운	-10203
▁여유	-10204
▁연료	-10205
것같다	-10206
end	-10207
▁경매	-10208
▁읽어	-10209
ast	-10210
▁나오는데	-10211
공학	-10212
이죠	-10213
▁후쿠시마	-10214
정권의	-10215
▁은폐	-10216
▁소화	-10217
▁JTBC	-10218
▁그날	-10219
장관이	-10220
▁ᄃ	-10221
▁블랙리스트	-10222
▁퇴근	-10223
▁고양이	-10224
▁마음대로	-10225
▁아픈	-10226
▁동결	-10227
▁발목	-10228
무능	-10229
▁특성상	-10230
▁기록하고	-10231
원이다	-10232
▁다크	-10233
▁신흥	-10234
▁자동으로	-10235
▁900	-10236
▁에피소드	-10237
졌지만	-10238
▁의회	-10239
편을	-10240
내지	-10241
회의에	-10242
▁억지로	-10243
카와	-10244
곳은	-10245
재로	-10246
pet	-10247
▁선제	-10248
▁하나인	-10249
▁열릴	-10250
비와	-10251
▁철저하게	-10252
▁임무	-10253
▁기동	-10254
▁진행될	-10255
해결	-10256
▁일당	-10257
지랄	-10258
▁사서	-10259
▁저축	-10260
▁안되면	-10261
▁낯	-10262
▁강서	-10263
합니까	-10264
▁자사	-10265
가루	-10266
막을	-10267
▁술을	-10268
▁분양가	-10269
어링	-10270
ction	-10271
에게서	-10272
▁시공	-10273
년과	-10274
▁기다리고	-10275
하진	-10276
▁징징	-10277
▁포착	-10278
▁일자리가	-10279
▁전범	-10280
▁흐름을	-10281
진과	-10282
▁존재하는	-10283
풍이	-10284
받아야	-10285
▁다음에	-10286
▁연주	-10287
▁역대급	-10288
▁점수를	-10289
▁국민청원	-10290
▁박지원	-10291
연합회	-10292
▁미성년	-10293
파는	-10294
▁바꾼	-10295
▁로이터	-10296
▁맘에	-10297
▁별도의	-10298
▁중대	-10299
▁가공	-10300
▁도시재생	-10301
54	-10302
▁기사에	-10303
▁네가	-10304
▁AS	-10305
▁자유를	-10306
▁홍영표	-10307
▁위축	-10308
▁중학교	-10309
▁엎	-10310
98	-10311
▁저건	-10312
▁젖	-10313
조한	-10314
▁급락	-10315
문의	-10316
▁역사적	-10317
싫다	-10318
라이트	-10319
▁아무래도	-10320
든다	-10321
▁달한다	-10322
▁문재인과	-10323
▁무대	-10324
▁있었다고	-10325
▁여담으로	-10326
ine	-10327
▁느끼는	-10328
▁오사카	-10329
해봐	-10330
▁왜냐	-10331
▁분석한	-10332
숙한	-10333
▁도저히	-10334
▁론	-10335
▁모두발	-10336
타로	-10337
▁합리적인	-10338
▁공개된	-10339
▁인간들은	-10340
▁정상화	-10341
▁다주택	-10342
없다고	-10343
▁단위	-10344
▁죽어라	-10345
남북	-10346
못한	-10347
▁모욕	-10348
▁이론	-10349
▁액션	-10350
좀해라	-10351
3.	-10352
▁지나가는	-10353
림을	-10354
▁발표하고	-10355
▁꿈꾸	-10356
▁불만	-10357
▁가지가지	-10358
▁내정	-10359
▁문재인을	-10360
이후	-10361
64	-10362
▁초등학생	-10363
색을	-10364
▁방송을	-10365
▁이언	-10366
▁자체는	-10367
▁보낼	-10368
▁주가는	-10369
▁문제지	-10370
원장	-10371
▁손석희	-10372
ust	-10373
야마	-10374
▁승차	-10375
으려면	-10376
▁지역경제	-10377
▁전교조	-10378
르트	-10379
래프트	-10380
▁이미지를	-10381
▁납부	-10382
▁컬러	-10383
▁감히	-10384
▁마쳤다	-10385
▁아직까지	-10386
▁오르는	-10387
ex	-10388
▁김영철	-10389
▁이외에도	-10390
▁너의	-10391
▁스타일	-10392
초등학교	-10393
▁No	-10394
▁꺼져라	-10395
▁써야	-10396
▁정도면	-10397
▁홍어	-10398
국민의	-10399
▁시민의	-10400
전시	-10401
▁북으로	-10402
▁생성	-10403
▁색깔	-10404
즈가	-10405
구라	-10406
▁문화체육	-10407
▁행사에	-10408
▁더더	-10409
▁언론은	-10410
▁세뇌	-10411
동기	-10412
▁보수가	-10413
▁써라	-10414
▁텐데	-10415
▁상대방	-10416
▁하겠지	-10417
통은	-10418
▁귀족노조	-10419
▁본부	-10420
▁나라다	-10421
변화	-10422
▁뜨거운	-10423
▁켜	-10424
이여	-10425
아트	-10426
▁위법	-10427
▁널리	-10428
서와	-10429
시장의	-10430
▁스코	-10431
▁상태가	-10432
▁배가	-10433
ell	-10434
▁지원해	-10435
▁자연스럽게	-10436
▁오늘은	-10437
비도	-10438
~^^	-10439
▁수사가	-10440
▁정신차려라	-10441
돌이	-10442
하고도	-10443
였으며	-10444
▁못된	-10445
▁뭣	-10446
▁몇십	-10447
▁남자는	-10448
▁브레이	-10449
▁채워	-10450
ment	-10451
▁저렴한	-10452
국회의원	-10453
ith	-10454
▁전술	-10455
사퇴	-10456
▁대접	-10457
▁느꼈	-10458
▁독점	-10459
▁유리한	-10460
에이	-10461
▁심상	-10462
▁쌍용	-10463
▁여러가지	-10464
▁되겠네	-10465
▁제국	-10466
직자	-10467
▁김정숙	-10468
▁제외하면	-10469
▁책임이	-10470
▁케이스	-10471
▁조리	-10472
▁독재자	-10473
▁외국인은	-10474
억원이	-10475
▁#!	-10476
▁라이트	-10477
▁하나같이	-10478
▁꼬리	-10479
절을	-10480
▁재판을	-10481
▁퍼주	-10482
▁갇	-10483
▁이대로	-10484
▁말레이	-10485
▁끝나면	-10486
▁4000	-10487
▁안쓰	-10488
▁다음날	-10489
애들이	-10490
age	-10491
▁잇따라	-10492
리포	-10493
▁파일	-10494
그라	-10495
▁사랑하는	-10496
53	-10497
미애	-10498
▁신축	-10499
이었지만	-10500
▁꽂	-10501
▁증거인멸	-10502
▁거기다	-10503
누구	-10504
▁화염	-10505
▁골목	-10506
하지말	-10507
▁소외	-10508
▁감옥에	-10509
▁스튜디오	-10510
▁기업과	-10511
었는지	-10512
▁과학기술정보통신	-10513
▁수고	-10514
▁지사는	-10515
▁견찰	-10516
드려	-10517
▁장하	-10518
▁98	-10519
블릿	-10520
▁림	-10521
▁넘들	-10522
정보를	-10523
▁기생충	-10524
그룹은	-10525
▁와중에	-10526
고객	-10527
▁건가	-10528
▁재능	-10529
▁먹어	-10530
▁유전자	-10531
▁중국인	-10532
된다면	-10533
▁휘둘	-10534
▁퍼포먼	-10535
lass	-10536
▁페스티벌	-10537
터가	-10538
▁계엄	-10539
▁경험이	-10540
▁있긴	-10541
▁높고	-10542
시장을	-10543
▁In	-10544
▁추첨	-10545
▁즐기는	-10546
9000	-10547
▁거라고	-10548
ae	-10549
▁학술	-10550
▁각자	-10551
▁릴	-10552
▁여태	-10553
▁야간	-10554
▁적응	-10555
▁수익을	-10556
대우	-10557
▁했는지	-10558
▁쓴다	-10559
하는거지	-10560
▁서울에서	-10561
연의	-10562
▁번호	-10563
지키	-10564
소리를	-10565
살아	-10566
들과의	-10567
▁떠나서	-10568
이었습니다	-10569
증가	-10570
계속	-10571
▁읍	-10572
▁설치된	-10573
청구	-10574
▁71	-10575
▁스카	-10576
▁조회	-10577
▁참여를	-10578
했어요	-10579
▁2.0	-10580
▁포털	-10581
안의	-10582
난민	-10583
▁일주일	-10584
▁강력하게	-10585
▁꺼져	-10586
▁덴	-10587
퍼스	-10588
7000	-10589
사들	-10590
▁기본적인	-10591
행은	-10592
▁맞을	-10593
▁백화점	-10594
▁한쪽	-10595
▁순수	-10596
▁내외	-10597
▁볼턴	-10598
▁같네요	-10599
군과	-10600
~?	-10601
▁배후	-10602
▁■	-10603
▁깔끔	-10604
▁엇	-10605
▁잇는	-10606
▁이종	-10607
▁보아	-10608
▁대하여	-10609
▁이정도면	-10610
▁ᅢ	-10611
▁말아먹	-10612
바지	-10613
▁사회의	-10614
▁북한으로	-10615
▁예수	-10616
▁가능성은	-10617
었음	-10618
▁PBR	-10619
부채	-10620
▁GDP	-10621
▁서울에	-10622
▁것이며	-10623
▁열차	-10624
▁해결을	-10625
▁하거나	-10626
▁허리	-10627
▁국회가	-10628
▁경찰청	-10629
▁뚜렷	-10630
▁지키고	-10631
▁요청했다	-10632
▁전망이	-10633
▁무서워	-10634
▁국가대표	-10635
▁불거	-10636
▁하여튼	-10637
였으나	-10638
▁가맹점	-10639
▁닿	-10640
미의	-10641
▁김동연	-10642
petit	-10643
명이다	-10644
▁위주로	-10645
▁추정된다	-10646
▁인원	-10647
▁부회장	-10648
▁재앙아	-10649
▁범죄를	-10650
▁제어	-10651
▁여겨	-10652
▁듣는	-10653
▁연대	-10654
▁공간을	-10655
광주	-10656
▁캔	-10657
▁평택	-10658
▁필요하다는	-10659
▁지역사회	-10660
국민들이	-10661
크라	-10662
▁트랙	-10663
▁하청	-10664
▁창립	-10665
▁여기는	-10666
기술을	-10667
갈등	-10668
▁SC	-10669
▁식량	-10670
▁이끄는	-10671
▁사정	-10672
naver	-10673
어져	-10674
리는게	-10675
▁협약을	-10676
▁목표를	-10677
불가	-10678
▁무고	-10679
▁FTA	-10680
축산	-10681
▁백두	-10682
▁분산	-10683
▁개같은	-10684
▁번영	-10685
▁법은	-10686
▁누구를	-10687
▁고사	-10688
으셨	-10689
무라	-10690
▁운영을	-10691
▁듯하다	-10692
▁쇼핑몰	-10693
▁0.4	-10694
▁이르는	-10695
▁경우에	-10696
▁우리를	-10697
▁관세를	-10698
▁주식을	-10699
▁거짓말을	-10700
▁요소	-10701
▁정보통신	-10702
▁국민과	-10703
▁조사한	-10704
치한	-10705
▁최저시급	-10706
▁한게	-10707
▁날짜	-10708
우리는	-10709
▁어릴	-10710
하노	-10711
▁꼰대	-10712
▁당기순이익	-10713
▁기준이	-10714
▁않다는	-10715
68	-10716
▁곱	-10717
▁잡혀	-10718
견을	-10719
겠구나	-10720
▁신의	-10721
학습	-10722
현장	-10723
ps	-10724
▁호응	-10725
▁시골	-10726
▁편입	-10727
▁사격	-10728
하자면	-10729
▁소개했다	-10730
▁컨셉	-10731
▁79	-10732
주의자	-10733
▁너희들	-10734
▁후보로	-10735
▁차원의	-10736
▁빼돌	-10737
복무	-10738
▁대마	-10739
▁갈라	-10740
▁현상이	-10741
▁삼성증권	-10742
▁어둠	-10743
▁근육	-10744
▁싫어하는	-10745
▁뭐하나	-10746
두로	-10747
▁성공한	-10748
▁지방자치단체	-10749
양을	-10750
IST	-10751
기소	-10752
ᄉᄁ	-10753
믹스	-10754
▁탄압	-10755
내에	-10756
협약을	-10757
개인	-10758
라는게	-10759
▁3·	-10760
준영	-10761
77	-10762
▁판단을	-10763
▁1990	-10764
하느라	-10765
▁국내에	-10766
▁가격에	-10767
▁단순한	-10768
▁6·13	-10769
유통	-10770
▁떨어뜨	-10771
▁도지사	-10772
▁것이라	-10773
쳐도	-10774
▁생명을	-10775
▁유로	-10776
중대	-10777
▁소위	-10778
▁가능하며	-10779
▁해외여행	-10780
▁말인가	-10781
▁포켓몬	-10782
▁측근	-10783
▁장갑	-10784
앞에서	-10785
▁욕먹	-10786
동구	-10787
페미	-10788
▁입장이다	-10789
▁새해	-10790
▁벤츠	-10791
▁거리가	-10792
▁농림	-10793
▁고시	-10794
▁선보였다	-10795
▁‘2018	-10796
얼마나	-10797
▁조중동	-10798
▁모습으로	-10799
ant	-10800
▁회담을	-10801
▁for	-10802
▁줄일	-10803
▁오고	-10804
당신	-10805
인아	-10806
▁대표를	-10807
▁샘	-10808
▁깜짝	-10809
났다고	-10810
▁동구	-10811
하던데	-10812
▁원자력	-10813
▁제고	-10814
거짓	-10815
▁어마어마	-10816
▁ww	-10817
▁평가가	-10818
ly	-10819
▁문재인대통령	-10820
▁있을지	-10821
▁조선족	-10822
분쟁	-10823
▁어쩌고	-10824
▁준비하고	-10825
▁플라	-10826
▁삥	-10827
▁장관과	-10828
▁공원	-10829
▁은근	-10830
▁정당한	-10831
▁아는데	-10832
▁분야에	-10833
▁안하냐	-10834
▁속초	-10835
▁조지	-10836
준다고	-10837
▁주석	-10838
HA	-10839
았나	-10840
▁자택	-10841
▁묻고	-10842
남용	-10843
▁허구	-10844
▁거장	-10845
▁이용해서	-10846
▁맙시다	-10847
.,	-10848
▁주둥이	-10849
ECD	-10850
▁브렉시트	-10851
▁땀	-10852
▁턱	-10853
위원회에서	-10854
▁저평가	-10855
▁평화와	-10856
동원	-10857
▁상당의	-10858
▁길거리	-10859
천여	-10860
위험	-10861
▁제품에	-10862
▁그래픽	-10863
▁도달	-10864
▁비중은	-10865
▁군은	-10866
▁지수는	-10867
속에서	-10868
▁밀양	-10869
▁들어온	-10870
▁웃음	-10871
모토	-10872
시키면	-10873
▁떠들어	-10874
▁국경	-10875
▁전체적으로	-10876
유산	-10877
받게	-10878
▁살아있는	-10879
▁분석이	-10880
▁항공기	-10881
▁약속을	-10882
):	-10883
▁생물	-10884
▁보이콧	-10885
▁할지	-10886
▁사업의	-10887
가능한	-10888
▁마련해	-10889
▁트럭	-10890
로직	-10891
per	-10892
▁운송	-10893
▁누군가	-10894
말도	-10895
▁켄	-10896
금액	-10897
▁마누라	-10898
거네	-10899
▁프랜차이즈	-10900
▁한반도의	-10901
개사	-10902
▁의혹에	-10903
▁선사	-10904
▁두려워	-10905
▁정확하게	-10906
▁과태	-10907
▁비정상	-10908
▁멸망	-10909
▁간담회	-10910
▁서대문	-10911
▁중간에	-10912
▁적게	-10913
▁지은	-10914
보상	-10915
▁이래도	-10916
렸던	-10917
▁대한민국에서	-10918
▁찾고	-10919
▁염병	-10920
만명이	-10921
▁반등	-10922
▁중계	-10923
제와	-10924
▁사례를	-10925
▁운영한다	-10926
▁청렴	-10927
▁재활용	-10928
오스	-10929
▁싸게	-10930
한을	-10931
차도	-10932
▁해결할	-10933
거래소	-10934
▁몸이	-10935
▁앞뒤	-10936
처는	-10937
▁커버	-10938
▁스트레	-10939
다이	-10940
▁한전	-10941
환자	-10942
본부는	-10943
▁www	-10944
사회의	-10945
▁초고	-10946
▁자유한국당은	-10947
▁style	-10948
FA	-10949
▁후배	-10950
▁낙하	-10951
공사는	-10952
▁팔고	-10953
▁인천공항	-10954
▁촉진	-10955
린다고	-10956
▁신라	-10957
▁아세	-10958
▁자존심	-10959
▁그랜드	-10960
과도	-10961
▁검토하고	-10962
petitions	-10963
▁문죄앙	-10964
▁소식을	-10965
받침	-10966
▁꺾	-10967
▁이동통신	-10968
▁아마도	-10969
OM	-10970
시각	-10971
되도록	-10972
▁지니	-10973
▁기자님	-10974
▁대비해	-10975
치며	-10976
개념	-10977
▁관리를	-10978
▁20180	-10979
▁이후에도	-10980
▁선을	-10981
▁착공	-10982
▁김수	-10983
였다는	-10984
▁ᄒᄒᄒᄒ	-10985
▁다행히	-10986
있습니다	-10987
질에	-10988
▁장면이	-10989
▁모르나	-10990
▁난이	-10991
▁이번에도	-10992
▁말이야	-10993
▁영등포구	-10994
지들	-10995
▁부장	-10996
▁Sh	-10997
▁09	-10998
졌던	-10999
▁모범	-11000
▁자금을	-11001
▁오리지널	-11002
▁ᅮ	-11003
면으로	-11004
봐요	-11005
▁윤리	-11006
계획을	-11007
▁강경화	-11008
▁걸릴	-11009
도에서	-11010
▁일환으로	-11011
▁내비	-11012
▁따져	-11013
▁핵무	-11014
슬림	-11015
▁갖추고	-11016
▁PER	-11017
▁인테	-11018
▁일본인	-11019
인치	-11020
▁걷어	-11021
▁86	-11022
▁기록을	-11023
▁박상	-11024
▁인지도	-11025
▁KA	-11026
▁애매	-11027
▁세계적으로	-11028
▁비중을	-11029
▁밝혀라	-11030
ry	-11031
▁개돼지로	-11032
▁의외로	-11033
▁상대가	-11034
▁그렇다면	-11035
지라	-11036
▁나가서	-11037
▁영광	-11038
ss	-11039
▁발언하고	-11040
▁골든	-11041
▁마이크로	-11042
ark	-11043
맞는	-11044
▁극대화	-11045
주사파	-11046
▁팍	-11047
▁캠프	-11048
▁국군	-11049
▁여론이	-11050
▁진압	-11051
▁할줄	-11052
▁생산하는	-11053
일세	-11054
천군	-11055
▁펑	-11056
▁중순	-11057
▁보세요	-11058
▁인데	-11059
▁과도한	-11060
유총	-11061
▁움직임	-11062
▁190	-11063
▁언급한	-11064
위반	-11065
▁변호사는	-11066
▁출판	-11067
▁뭐하러	-11068
▁부디	-11069
▁언급했다	-11070
▁비용이	-11071
▁콘서트	-11072
?..	-11073
▁조카	-11074
▁장중	-11075
▁학생들	-11076
국내	-11077
▁생활을	-11078
▁오랫동안	-11079
▁절감	-11080
▁기능이	-11081
▁●	-11082
▁일삼	-11083
적이지	-11084
세한	-11085
▁아티	-11086
▁묻는	-11087
▁유독	-11088
▁가깝다	-11089
▁깃	-11090
▁험	-11091
▁떨어지고	-11092
국당	-11093
▁이수	-11094
▁디젤	-11095
DA	-11096
▁간신	-11097
▁너거	-11098
적한	-11099
▁콜라	-11100
▁무덤	-11101
▁추진한다	-11102
▁성공적으로	-11103
혜택	-11104
▁라이프	-11105
▁증거를	-11106
인구	-11107
국방	-11108
ee	-11109
~~~~~~~~	-11110
▁역사상	-11111
▁국가에	-11112
전문가	-11113
▁마감했다	-11114
▁전체를	-11115
▁애를	-11116
▁장점	-11117
▁병원으로	-11118
▁원유	-11119
▁머리에	-11120
▁160	-11121
▁적립	-11122
▁점이다	-11123
▁헌법재판	-11124
▁실태	-11125
▁한은	-11126
▁비하	-11127
▁차량이	-11128
▁씻	-11129
열을	-11130
▁세계의	-11131
시죠	-11132
▁최소화	-11133
▁주둔	-11134
.........	-11135
키가	-11136
▁얼굴이	-11137
▁것인데	-11138
pres	-11139
▁장학금	-11140
선과	-11141
▁들어갔다	-11142
▁도와주	-11143
px	-11144
▁사이비	-11145
진영	-11146
▁신혼	-11147
▁적어	-11148
작전	-11149
▁정상이	-11150
▁인구가	-11151
▁전체의	-11152
▁못하면서	-11153
▁나서고	-11154
▁오해	-11155
▁우려를	-11156
개정	-11157
▁손해배상	-11158
▁문화체육관광	-11159
▁아오	-11160
보인다	-11161
▁강제징용	-11162
▁흡연	-11163
▁기대를	-11164
▁틀어	-11165
▁난이도	-11166
▁분석을	-11167
▁초래	-11168
▁제출한	-11169
▁혁명	-11170
▁없다면	-11171
▁위험이	-11172
▁정치에	-11173
▁전당	-11174
데미	-11175
▁OECD	-11176
▁짚	-11177
▁모든게	-11178
▁안되지	-11179
▁되찾	-11180
▁사회를	-11181
▁반납	-11182
▁댓글이	-11183
엑스	-11184
▁고등	-11185
▁할때	-11186
▁띠	-11187
SI	-11188
▁빽	-11189
노트	-11190
멘트	-11191
▁조치가	-11192
해달라고	-11193
▁미래에셋	-11194
▁높았다	-11195
▁법으로	-11196
▁텍	-11197
▁궁극	-11198
▁현안	-11199
목이	-11200
너희	-11201
▁97	-11202
사업에	-11203
▁같음	-11204
▁뛰어나	-11205
리케이션	-11206
▁쓰레	-11207
OL	-11208
▁힘입	-11209
▁마침	-11210
▁될까	-11211
공립	-11212
서비스를	-11213
▁해임	-11214
▁서서히	-11215
방안을	-11216
▁지소미아	-11217
▁정권에	-11218
▁준표	-11219
-2	-11220
▁최상	-11221
▁청와대에	-11222
널리스트	-11223
▁아이스	-11224
디스	-11225
▁손실	-11226
▁국토교통부	-11227
인건	-11228
▁발광	-11229
▁한국어	-11230
▁식사	-11231
▁의약품	-11232
▁악용	-11233
▁덕에	-11234
our	-11235
▁지킬	-11236
▁아이들을	-11237
▁비교하면	-11238
▁흔히	-11239
▁민간인	-11240
판결	-11241
▁않았다고	-11242
(19	-11243
▁보소	-11244
▁자는	-11245
▁기자들과	-11246
▁합작	-11247
속으로	-11248
▁140	-11249
▁원천	-11250
▁쫓아	-11251
▁계열사	-11252
▁시켰	-11253
팔아	-11254
▁믿어	-11255
▁떨어지	-11256
▁끼리	-11257
니들이	-11258
▁얼굴에	-11259
않고	-11260
▁미국으로	-11261
▁간호	-11262
▁망신	-11263
뉴얼	-11264
▁재단	-11265
▁맛을	-11266
▁리스트	-11267
학원	-11268
벤션	-11269
▁먹으면	-11270
차의	-11271
▁간접	-11272
넣고	-11273
▁카이	-11274
▁차트	-11275
▁없어도	-11276
▁유효	-11277
▁불쌍하다	-11278
▁예정된	-11279
어죽	-11280
잔아	-11281
▁아닙니까	-11282
https	-11283
잡을	-11284
▁버튼	-11285
▁아메	-11286
▁지나면	-11287
▁사후	-11288
▁우호	-11289
▁시발	-11290
▁내년에	-11291
▁포트	-11292
▁시민들의	-11293
▁즈	-11294
▁나쁨	-11295
없애	-11296
홀에서	-11297
▁나이가	-11298
수있다	-11299
▁목표주	-11300
▁확률이	-11301
▁4·	-11302
▁그녀의	-11303
▁지금이라도	-11304
▁델	-11305
▁SS	-11306
티즌	-11307
함은	-11308
▁유망	-11309
▁태어	-11310
▁된다면	-11311
▁가능할	-11312
▁예정인	-11313
장관은	-11314
▁연구를	-11315
걸까	-11316
▁않아서	-11317
가나	-11318
▁파란	-11319
▁기업인	-11320
▁PD	-11321
▁댓글을	-11322
▁매크로	-11323
크가	-11324
▁희망을	-11325
▁시민이	-11326
▁시중	-11327
▁부정적인	-11328
▁몇번	-11329
▁사용한다	-11330
▁학생들의	-11331
▁세포	-11332
종일	-11333
▁말레이시아	-11334
▁외신	-11335
하늘	-11336
▁현대중공업	-11337
▁당황	-11338
길에	-11339
▁세계를	-11340
▁비전	-11341
광고	-11342
시쯤	-11343
▁지네	-11344
▁지나치게	-11345
▁매니	-11346
▁YTN	-11347
▁니들도	-11348
릅니다	-11349
▁해병	-11350
▁이상은	-11351
비행	-11352
치면서	-11353
▁음료	-11354
인정	-11355
▁싹다	-11356
▁소용	-11357
▁왈	-11358
▁행정부	-11359
▁해줄	-11360
▁항공사	-11361
▁스파	-11362
▁.....	-11363
▁창조	-11364
▁공영	-11365
▁감안하면	-11366
▁언제부터	-11367
절대	-11368
▁것이지	-11369
면이	-11370
▁상황은	-11371
값은	-11372
▁전국에	-11373
▁성사	-11374
▁엉뚱	-11375
▁경찰과	-11376
진보	-11377
▁기존에	-11378
▁웃고	-11379
▁있구나	-11380
▁보라	-11381
들이네	-11382
▁지들끼리	-11383
▁우대	-11384
▁중소벤처기업	-11385
▁우리나라도	-11386
▁코드	-11387
▁도민	-11388
▁동계올림픽	-11389
▁모델을	-11390
▁안타까운	-11391
▁쳐다	-11392
▁용기	-11393
',	-11394
▁히어로	-11395
▁버린	-11396
▁실적이	-11397
▁피해는	-11398
▁유관	-11399
▁이어졌다	-11400
▁한미동맹	-11401
▁현역	-11402
▁요구를	-11403
▁음식을	-11404
▁주간	-11405
하겠냐	-11406
▁외모	-11407
▁민중	-11408
▁때문입니다	-11409
▁가깝	-11410
차산업	-11411
집이	-11412
▁kg	-11413
▁수송	-11414
▁삼성은	-11415
▁듀얼	-11416
▁질질	-11417
발정	-11418
▁개시	-11419
▁안할	-11420
팀을	-11421
▁적화통일	-11422
,,,,,	-11423
▁별다른	-11424
▁세우	-11425
▁차고	-11426
▁하나씩	-11427
▁ᄏᄏᄏᄏᄏᄏᄏᄏᄏ	-11428
동향	-11429
▁조금이라도	-11430
소와	-11431
67	-11432
는것	-11433
▁얼음	-11434
▁심장	-11435
▁다짐	-11436
▁출퇴근	-11437
▁잊지	-11438
방법	-11439
▁쌓아	-11440
새기	-11441
▁좌익	-11442
▁스페셜	-11443
▁과거에	-11444
▁2,	-11445
▁매물	-11446
아의	-11447
▁안전하게	-11448
▁지도자	-11449
사항을	-11450
▁사태가	-11451
▁둥	-11452
▁학대	-11453
▁인적	-11454
▁전략적	-11455
베이션	-11456
▁하태	-11457
▁엘지	-11458
조트	-11459
자마자	-11460
▁대상은	-11461
▁곳이다	-11462
▁공무원이	-11463
▁저출산	-11464
▁선거에	-11465
남부	-11466
▁못차	-11467
야당	-11468
하기가	-11469
▁측에	-11470
▁증가하고	-11471
▁풍부한	-11472
▁마다	-11473
없지	-11474
▁최소한의	-11475
▁개척	-11476
▁보이며	-11477
▁퀄	-11478
▁생각하지	-11479
▁무엇이	-11480
의약품	-11481
▁진지	-11482
▁조각	-11483
겨서	-11484
답다	-11485
▁국가와	-11486
령이	-11487
▁오프라인	-11488
▁줄이	-11489
놈들아	-11490
하는거냐	-11491
▁먼저다	-11492
▁개를	-11493
AE	-11494
▁장군	-11495
▁곁	-11496
▁지경	-11497
▁포토	-11498
▁하나를	-11499
몰이	-11500
▁운동을	-11501
▁딱히	-11502
▁회사를	-11503
▁옷을	-11504
▁관할	-11505
▁역임	-11506
▁보유세	-11507
▁어케	-11508
놔라	-11509
이젠	-11510
▁뻔뻔한	-11511
▁다문화	-11512
목적	-11513
▁논의가	-11514
▁장관의	-11515
fo	-11516
▁높일	-11517
답니다	-11518
▁어서	-11519
라면서	-11520
ident	-11521
만원이	-11522
▁자신에게	-11523
▁슬프	-11524
▁승리를	-11525
▁벌어진	-11526
금속	-11527
▁그러냐	-11528
▁의지가	-11529
성태	-11530
▁죠	-11531
▁물러나	-11532
부도	-11533
발표	-11534
▁움직이는	-11535
▁메가	-11536
▁당국은	-11537
▁소식이	-11538
▁없으며	-11539
시나	-11540
▁좋아서	-11541
버려라	-11542
까진	-11543
▁나대	-11544
▁문화예술	-11545
▁타이밍	-11546
하는가	-11547
▁불과하다	-11548
▁소규모	-11549
▁놀랍	-11550
기온은	-11551
▁상태를	-11552
▁구형	-11553
▁나랏	-11554
▁되돌	-11555
▁맛이	-11556
▁바르	-11557
▁감지	-11558
치도	-11559
▁참사	-11560
lor	-11561
▁아트	-11562
▁자세히	-11563
머스	-11564
▁판매한다	-11565
▁일방적으로	-11566
▁안양	-11567
▁협상이	-11568
▁2001	-11569
IT	-11570
▁뒷받침	-11571
▁간에	-11572
▁불참	-11573
▁뭐지	-11574
▁않았던	-11575
▁비판을	-11576
▁아버지가	-11577
▁순식	-11578
방문	-11579
▁인스타그램	-11580
▁정부도	-11581
▁1980	-11582
▁실시한	-11583
▁찌질	-11584
졌으면	-11585
▁전체가	-11586
겠지요	-11587
▁록	-11588
▁않았습니다	-11589
시피	-11590
▁89	-11591
▁역사의	-11592
해준다	-11593
▁선정됐다	-11594
▁페이지	-11595
▁놀이	-11596
▁배포	-11597
▁긍정적	-11598
▁평창동계올림픽	-11599
겟다	-11600
▁안드로	-11601
▁넥슨	-11602
▁고객의	-11603
▁교육감	-11604
▁보네	-11605
롭고	-11606
▁안녕	-11607
▁왼쪽부터	-11608
▁내륙	-11609
▁아닌듯	-11610
경우	-11611
채용	-11612
▁누릴	-11613
▁남북관계	-11614
자료를	-11615
소녀	-11616
인식	-11617
▁올리면	-11618
▁신한금융	-11619
▁HD	-11620
▁식민지	-11621
혼자	-11622
▁수시로	-11623
▁단행	-11624
▁중에서도	-11625
중독	-11626
▁im	-11627
또한	-11628
▁누구도	-11629
▁손으로	-11630
▁상식적으로	-11631
▁참나	-11632
▁알고리즘	-11633
통에	-11634
▁휘두	-11635
▁정책은	-11636
▁숨어	-11637
▁잡아서	-11638
▁식약	-11639
▁뭐든	-11640
▁직원들	-11641
▁할것	-11642
▁룰	-11643
▁벌인	-11644
▁갈등을	-11645
급으로	-11646
▁이어진	-11647
▁거래비중	-11648
LS	-11649
산의	-11650
▁침체	-11651
▁기자회견에서	-11652
공작	-11653
▁한걸	-11654
▁농민	-11655
▁단단	-11656
인이다	-11657
ter	-11658
▁95	-11659
▁부근	-11660
▁막는	-11661
▁코스프레	-11662
▁연세대	-11663
회복	-11664
잡는	-11665
▁배정	-11666
▁처먹	-11667
▁부드	-11668
▁참여했다	-11669
지오	-11670
더스	-11671
▁탄력	-11672
▁만나서	-11673
거품	-11674
▁악플	-11675
화될	-11676
어린이	-11677
▁죽어도	-11678
▁추산	-11679
▁누진	-11680
▁기여할	-11681
만큼은	-11682
공감	-11683
▁로켓	-11684
▁후보자는	-11685
▁측의	-11686
쪽에서	-11687
시네	-11688
은행의	-11689
▁못해서	-11690
▁반응이	-11691
▁쯧쯧	-11692
▁주머니	-11693
▁납득	-11694
▁나타내는	-11695
▁막대한	-11696
그러니	-11697
▁조율	-11698
▁기자야	-11699
대원	-11700
▁입력	-11701
▁날뛰	-11702
▁신약	-11703
수밖에	-11704
▁시간은	-11705
인생	-11706
▁자식들	-11707
▁근로시간	-11708
88	-11709
이니까	-11710
▁LED	-11711
▁튼	-11712
▁영화를	-11713
▁하나만	-11714
▁한겨레	-11715
금의	-11716
위안	-11717
▁컵	-11718
▁했지	-11719
▁아니라면	-11720
▁생각보다	-11721
▁화웨	-11722
▁그러고	-11723
▁많습니다	-11724
자로서	-11725
▁꼽힌다	-11726
년으로	-11727
▁줄줄이	-11728
ᆢᆢ	-11729
~3	-11730
▁눌러	-11731
▁너나	-11732
▁세금은	-11733
▁페미니즘	-11734
위원회에	-11735
▁힘입어	-11736
▁힘으로	-11737
사냥	-11738
▁지향	-11739
기정	-11740
▁과정에	-11741
▁신상	-11742
차고	-11743
▁당원	-11744
▁점심	-11745
오롱	-11746
▁꼼수	-11747
▁바미	-11748
권에서	-11749
형은	-11750
▁롱	-11751
▁외치고	-11752
▁소장	-11753
▁죽는다	-11754
▁96	-11755
내에서	-11756
▁참모	-11757
당해	-11758
▁시점에서	-11759
▁애기	-11760
:0	-11761
▁특활	-11762
▁게재	-11763
▁받으며	-11764
▁한계가	-11765
사상	-11766
▁핸드폰	-11767
로에	-11768
료는	-11769
▁시대의	-11770
▁접목	-11771
▁몰락	-11772
▁당신들	-11773
되지만	-11774
▁상승세를	-11775
노인	-11776
▁양자	-11777
한테도	-11778
▁화장실	-11779
레일	-11780
▁일부를	-11781
▁보석	-11782
시도	-11783
▁마나	-11784
▁KTX	-11785
▁이산가족	-11786
▁용역	-11787
라디	-11788
▁포용	-11789
▁녹색	-11790
어버린	-11791
▁서울중앙지검	-11792
▁후보자가	-11793
▁근거로	-11794
▁확대할	-11795
▁사회복지	-11796
▁차별화된	-11797
▁냉장	-11798
▁이새끼	-11799
력의	-11800
▁이석	-11801
▁의원을	-11802
▁사과를	-11803
▁않음	-11804
▁제네	-11805
▁개최했다	-11806
올려	-11807
▁공주	-11808
대변인	-11809
국제공항	-11810
행위를	-11811
왔는데	-11812
줘야지	-11813
▁EX	-11814
쉽게	-11815
▁들어가서	-11816
▁뱀	-11817
▁마음으로	-11818
▁놈은	-11819
▁거래가	-11820
▁수거	-11821
▁일베충	-11822
씨에게	-11823
지않은	-11824
▁치우	-11825
▁합쳐	-11826
▁최근에	-11827
▁(19	-11828
처먹	-11829
▁접어	-11830
▁세미나	-11831
▁않는다고	-11832
▁슬로	-11833
한심	-11834
▁오만	-11835
▁뒈	-11836
▁수사권	-11837
▁목을	-11838
▁전문기업	-11839
▁확대하고	-11840
▁부딪	-11841
시브	-11842
▁한사람	-11843
▁사항은	-11844
▁집으로	-11845
▁확인했다	-11846
▁뷰티	-11847
▁연다	-11848
▁천재	-11849
▁후보를	-11850
▁나가겠다	-11851
구에서	-11852
▁1.0	-11853
▁독특	-11854
51	-11855
시하는	-11856
▁이런식으로	-11857
▁사무실	-11858
▁조사에	-11859
▁성능을	-11860
▁82	-11861
▁높이기	-11862
▁돌아오	-11863
▁하루빨리	-11864
▁꼬라	-11865
▁퀴	-11866
▁논란을	-11867
▁자신은	-11868
▁뜻이다	-11869
▁야생	-11870
기레기	-11871
터테인먼트	-11872
▁신발	-11873
보여	-11874
▁기조	-11875
▁휘발	-11876
▁안된	-11877
▁권리를	-11878
▁성공했다	-11879
재난	-11880
▁웰	-11881
계열	-11882
▁심하게	-11883
▁그레이	-11884
▁선거에서	-11885
▁고객에게	-11886
▁인사말을	-11887
▁위기를	-11888
▁맞는말	-11889
▁1.2	-11890
▁일회	-11891
▁닦	-11892
▁하던데	-11893
▁파주	-11894
설명	-11895
▁현정부	-11896
세훈	-11897
▁LA	-11898
써라	-11899
▁제품의	-11900
▁법대로	-11901
▁83	-11902
................	-11903
지않고	-11904
키들	-11905
▁되어서	-11906
무가	-11907
▁괴물	-11908
▁덥	-11909
▁부탁드립니다	-11910
▁늘리	-11911
해야함	-11912
▁우리에게	-11913
▁시그	-11914
학회	-11915
학적	-11916
▁주유	-11917
스럽고	-11918
▁의원들이	-11919
▁만났	-11920
보이는	-11921
국과	-11922
▁갈등이	-11923
▁없네요	-11924
▁검거	-11925
▁허락	-11926
일랜드	-11927
▁대응을	-11928
▁일명	-11929
해야합니다	-11930
▁위조	-11931
▁공을	-11932
말아	-11933
▁지수	-11934
▁식물	-11935
▁설명을	-11936
특위	-11937
▁SM	-11938
▁보행	-11939
▁아니며	-11940
▁화해	-11941
접한	-11942
▁남이	-11943
내면	-11944
▁써서	-11945
▁인간을	-11946
▁모은	-11947
전지	-11948
▁김명	-11949
▁영세	-11950
▁강성	-11951
치네	-11952
▁다닌	-11953
포로	-11954
▁공지	-11955
43	-11956
담배	-11957
▁버리는	-11958
나라도	-11959
ns	-11960
▁한유총	-11961
했었다	-11962
.(...)	-11963
▁같네	-11964
▁연일	-11965
ld	-11966
▁레이저	-11967
▁건담	-11968
▁부합	-11969
▁소나	-11970
페이스	-11971
하듯	-11972
▁마냥	-11973
▁구상	-11974
공산당	-11975
▁지리	-11976
ess	-11977
오프	-11978
▁나라도	-11979
ey	-11980
▁회동	-11981
로봇	-11982
▁모습은	-11983
▁Th	-11984
예방	-11985
▁전했습니다	-11986
▁되었고	-11987
메이	-11988
▁돕는	-11989
▁북구	-11990
▁시체	-11991
신한	-11992
▁얻는	-11993
▁저격	-11994
▁73	-11995
▁○	-11996
량한	-11997
▁전락	-11998
▁만찬	-11999
▁인종	-12000
▁첫번째	-12001
▁3.1	-12002
▁도약	-12003
였네	-12004
앞으로도	-12005
▁강조했습니다	-12006
도대체	-12007
▁지주	-12008
▁열리고	-12009
특검	-12010
대통령이	-12011
지길	-12012
▁아니었다	-12013
▁냄새가	-12014
▁포지션	-12015
석탄	-12016
스케어	-12017
▁현대자동차	-12018
2.	-12019
버트	-12020
▁화폐	-12021
▁이후에는	-12022
▁검출	-12023
▁잃고	-12024
▁시설을	-12025
생활을	-12026
ial	-12027
우리가	-12028
당할	-12029
▁재직	-12030
ll	-12031
면에서	-12032
▁기다려	-12033
▁혀	-12034
▁앉아서	-12035
▁중견	-12036
▁양극	-12037
▁이용자	-12038
▁판매하는	-12039
기상	-12040
부들	-12041
▁김씨는	-12042
▁났다	-12043
▁바뀌면	-12044
▁늘리고	-12045
▁공무원들	-12046
적도	-12047
▁의하면	-12048
▁김모	-12049
니어	-12050
▁지금이	-12051
종북	-12052
▁앓	-12053
▁이어가고	-12054
▁환자가	-12055
▁뚝	-12056
▁슬슬	-12057
▁중형	-12058
▁사용하고	-12059
한이	-12060
▁좌빨들	-12061
▁여성을	-12062
▁만들어라	-12063
▁503	-12064
▁기반의	-12065
여름	-12066
▁스킨	-12067
▁역사에	-12068
▁법제	-12069
▁수혜	-12070
▁로마	-12071
▁도서	-12072
▁실리	-12073
▁대책이	-12074
국장	-12075
이므로	-12076
▁높아지고	-12077
▁늘어나고	-12078
고의	-12079
낭비	-12080
뒀다	-12081
▁구걸	-12082
▁기회에	-12083
▁거죠	-12084
▁알리는	-12085
▁학교에서	-12086
▁연내	-12087
▁하루에	-12088
▁국채	-12089
▁즐거	-12090
▁당해	-12091
</	-12092
▁블로그	-12093
▁그것은	-12094
▁강북	-12095
▁웹툰	-12096
▁택시기사	-12097
▁간섭	-12098
▁셔	-12099
▁물이	-12100
호한	-12101
▁일반인	-12102
▁되며	-12103
▁현실이	-12104
▁데미지	-12105
에어	-12106
엄마	-12107
▁주먹	-12108
▁남조선	-12109
▁억제	-12110
▁08	-12111
꾸로	-12112
▁프로세	-12113
지역에	-12114
▁찍소리	-12115
▁통영	-12116
▁또다른	-12117
▁수작	-12118
▁신장	-12119
더블	-12120
▁북한에서	-12121
▁스크린	-12122
▁불꽃	-12123
파업	-12124
티나	-12125
▁질문을	-12126
경제가	-12127
변호사	-12128
▁뒤늦게	-12129
원인	-12130
▁들어간다	-12131
▁억지	-12132
층을	-12133
티비	-12134
▁사로	-12135
재해	-12136
▁사흘	-12137
▁줄이는	-12138
▁무서워서	-12139
▁잭	-12140
▁정치보복	-12141
▁CP	-12142
▁쫒	-12143
▁의류	-12144
▁타카	-12145
두면	-12146
▁의견은	-12147
▁메모리	-12148
▁패키지	-12149
▁추정되는	-12150
▁공존	-12151
▁WTO	-12152
지리	-12153
▁비닐	-12154
▁초등	-12155
디자인	-12156
▁심사를	-12157
▁상습	-12158
산업의	-12159
▁모인	-12160
▁업체가	-12161
▁자칭	-12162
진한	-12163
▁이르면	-12164
▁앞으로는	-12165
▁만나는	-12166
없어서	-12167
▁예능	-12168
▁정례	-12169
▁부를	-12170
▁도주	-12171
▁사회에서	-12172
▁가슴이	-12173
▁든든	-12174
▁연준	-12175
LL	-12176
▁랩	-12177
브랜드	-12178
지표	-12179
▁공론	-12180
▁기지	-12181
▁원의	-12182
▁보이는데	-12183
▁문닫	-12184
▁싶어서	-12185
▁소각	-12186
졌을	-12187
▁있는데요	-12188
▁떨어진다	-12189
▁살면	-12190
▁진짜로	-12191
사나	-12192
▁성명	-12193
▁장비를	-12194
▁갖추	-12195
가정	-12196
▁수차례	-12197
아직도	-12198
혐의	-12199
▁썼다	-12200
net	-12201
하는거야	-12202
▁여자들이	-12203
▁요양	-12204
르다	-12205
▁경주	-12206
▁지난주	-12207
▁선보이고	-12208
▁잇따	-12209
▁가기	-12210
!?	-12211
견이	-12212
▁좌파들	-12213
▁우리나라에서	-12214
▁어려움	-12215
▁비록	-12216
▁기억이	-12217
▁경제성장	-12218
▁첫날	-12219
▁선보일	-12220
▁아부	-12221
▁수를	-12222
▁이런걸	-12223
▁상실	-12224
▁있겠지만	-12225
▁당할	-12226
▁한달간	-12227
▁그런지	-12228
▁꽁	-12229
▁스카이	-12230
방어	-12231
▁GB	-12232
▁부총리	-12233
▁숫자	-12234
▁거장들의	-12235
▁바꾸고	-12236
▁맡아	-12237
▁안고	-12238
스러워	-12239
0000	-12240
▁늘어나는	-12241
다는건	-12242
제대로	-12243
과학기술	-12244
기아	-12245
▁혈액	-12246
도미사일	-12247
▁제외하고	-12248
▁유럽연합	-12249
이에요	-12250
▁마트	-12251
▁속해	-12252
▁에게	-12253
▁국무총리	-12254
▁알려졌습니다	-12255
만원씩	-12256
름을	-12257
함께	-12258
▁않겠다	-12259
제시	-12260
듭니다	-12261
▁온통	-12262
▁만들면	-12263
질러	-12264
경영자	-12265
▁똑같다	-12266
공공	-12267
▁연평	-12268
듯한	-12269
▁급격히	-12270
▁이런건	-12271
▁역전	-12272
해주면	-12273
GM	-12274
▁남경	-12275
▁재현	-12276
비한	-12277
▁tv	-12278
▁느끼고	-12279
▁조센	-12280
▁불가능한	-12281
었으니	-12282
▁적도	-12283
기까지	-12284
▁학생이	-12285
▁소비자가	-12286
두에	-12287
▁군대가	-12288
▁그딴	-12289
▁파헤	-12290
됨에	-12291
▁행사가	-12292
▁학교에	-12293
▁동행	-12294
▁분식	-12295
▁신념	-12296
▁세계에	-12297
▁김문	-12298
▁즐기	-12299
▁문재인정부	-12300
농업	-12301
▁간담회를	-12302
▁싫으면	-12303
▁사건으로	-12304
▁제대로된	-12305
▁생태계	-12306
창출	-12307
지사가	-12308
▁기상청은	-12309
전선	-12310
▁CNN	-12311
▁투입해	-12312
▁김관	-12313
▁CC	-12314
겠구만	-12315
▁조합원	-12316
▁말장난	-12317
▁해먹	-12318
취소	-12319
▁시비	-12320
대학원	-12321
▁기념해	-12322
▁경제정책	-12323
▁하나하나	-12324
조금	-12325
!)	-12326
▁낮춰	-12327
처가	-12328
치와	-12329
간히	-12330
▁유학	-12331
▁주민들의	-12332
▁삶은	-12333
아래	-12334
▁병행	-12335
해달라	-12336
세끼	-12337
▁OLED	-12338
▁살인마	-12339
인천	-12340
▁소신	-12341
▁중에는	-12342
태평양	-12343
인지는	-12344
도우	-12345
동강	-12346
▁캄	-12347
▁스프	-12348
야구	-12349
▁작작	-12350
▁기레기들	-12351
죄를	-12352
▁조사에서	-12353
▁만원	-12354
▁단말	-12355
▁이나라는	-12356
EB	-12357
버는	-12358
▁쇄	-12359
하므로	-12360
란을	-12361
나라를	-12362
▁ᄋᄋ	-12363
▁명심	-12364
▁얘기가	-12365
모양	-12366
제조	-12367
▁350	-12368
▁학생들은	-12369
색히	-12370
▁안된다고	-12371
66	-12372
사장	-12373
▁이완	-12374
실업	-12375
▁이해할	-12376
이재	-12377
▁더럽게	-12378
▁장관을	-12379
▁경제의	-12380
▁능력도	-12381
▁퉤	-12382
▁바뀔	-12383
▁만들지	-12384
▁멀쩡한	-12385
▁외치는	-12386
▁무작	-12387
▁처음에는	-12388
▁상하이	-12389
▁코오롱	-12390
바꾸	-12391
eat	-12392
▁분담	-12393
▁비서실	-12394
▁씽크풀	-12395
▁기온은	-12396
▁기업들의	-12397
▁유사한	-12398
▁하겠다고	-12399
▁지원이	-12400
▁건국	-12401
▁요구하고	-12402
▁신도	-12403
▁들려	-12404
▁법의	-12405
▁혁신을	-12406
왔던	-12407
▁수험	-12408
▁케이블	-12409
▁예의	-12410
▁타격을	-12411
▁헤드	-12412
▁한반	-12413
▁아픔	-12414
▁나타난	-12415
▁구속영장을	-12416
▁무소속	-12417
게이트	-12418
▁바쁜	-12419
▁체결했다고	-12420
▁판매를	-12421
▁체결했다	-12422
▁일할	-12423
▁테이블	-12424
진단	-12425
▁잔인	-12426
▁구청장	-12427
▁정도다	-12428
▁좋겠네요	-12429
한민국	-12430
▁나타내고	-12431
▁명예훼손	-12432
▁살리	-12433
판은	-12434
립을	-12435
▁소중	-12436
▁위성	-12437
▁인격	-12438
▁시티	-12439
▁싶지	-12440
▁에서는	-12441
네는	-12442
불어	-12443
▁대상을	-12444
▁아리	-12445
렸을	-12446
▁처단	-12447
▁관심도	-12448
▁전화를	-12449
▁야당이	-12450
꺼야	-12451
▁같고	-12452
▁물에	-12453
글로벌	-12454
편에	-12455
▁체류	-12456
톨릭	-12457
▁모험	-12458
아동	-12459
▁전달했다	-12460
▁사물	-12461
재료	-12462
▁개최한다	-12463
여명의	-12464
▁보조금	-12465
▁최우수	-12466
두는	-12467
▁시켜야	-12468
▁의사가	-12469
▁것보다	-12470
▁티켓	-12471
밀리	-12472
워드	-12473
400	-12474
더라고	-12475
데스	-12476
론이	-12477
빌딩	-12478
▁출장	-12479
▁농산물	-12480
▁국회를	-12481
▁어딜	-12482
환이	-12483
▁있었다는	-12484
▁돌아다니	-12485
▁곳을	-12486
키스탄	-12487
▁감수	-12488
▁바꾸는	-12489
거래일	-12490
▁남쪽	-12491
가는데	-12492
▁아랍	-12493
▁첩	-12494
▁골라	-12495
백을	-12496
tbc	-12497
▁귀찮	-12498
▁고객을	-12499
▁정은이가	-12500
▁보편	-12501
이구나	-12502
▁국고	-12503
▁선착	-12504
가입	-12505
퍼런스	-12506
▁지키기	-12507
것으로	-12508
납니다	-12509
▁겪는	-12510
▁유착	-12511
곳으로	-12512
▁클라스	-12513
▁DMZ	-12514
침을	-12515
인게	-12516
었으며	-12517
▁똥꼬	-12518
▁산업통상자원부	-12519
대국	-12520
유출	-12521
▁쓸데없는	-12522
음에	-12523
▁그나	-12524
법과	-12525
블록	-12526
문서	-12527
▁주사	-12528
사업자	-12529
▁지들은	-12530
▁연수	-12531
은혜	-12532
▁오너	-12533
▁김무	-12534
▁확신	-12535
벨트	-12536
▁깍	-12537
▁고의	-12538
▁나고	-12539
▁가족을	-12540
어떤	-12541
▁한창	-12542
매물	-12543
층은	-12544
문제는	-12545
과거	-12546
▁말로만	-12547
▁실효	-12548
리얼	-12549
▁전쟁이	-12550
▁네티즌	-12551
▁조사해라	-12552
▁잘해	-12553
보소	-12554
빠리	-12555
▁합성	-12556
▁치솟	-12557
▁기기	-12558
▁네이	-12559
▁법관	-12560
수급	-12561
▁예상했다	-12562
▁규칙	-12563
▁파라	-12564
만대	-12565
회전	-12566
일인	-12567
▁관통	-12568
▁부장판사	-12569
▁발전에	-12570
교를	-12571
▁정부서울청사에서	-12572
▁홈페이지를	-12573
▁법적으로	-12574
▁득표	-12575
▁힘들고	-12576
▁영남	-12577
▁당했다	-12578
자문	-12579
▁페이	-12580
메디	-12581
97	-12582
▁타는	-12583
ec	-12584
▁문어	-12585
터는	-12586
▁길게	-12587
▁엄중	-12588
▁조건을	-12589
▁this	-12590
▁기간을	-12591
▁경기에서	-12592
▁나서는	-12593
▁무엇인지	-12594
▁위해선	-12595
▁뮤직	-12596
▁자라	-12597
▁스캔	-12598
▁전에는	-12599
▁할일	-12600
▁뛰어넘	-12601
▁삼성바이오로직	-12602
▁민폐	-12603
▁훈련을	-12604
화되고	-12605
▁농가	-12606
▁위생	-12607
새끼가	-12608
▁기반을	-12609
▁박물	-12610
▁멈추	-12611
▁워마드	-12612
기관이	-12613
▁니네가	-12614
▁티비	-12615
▁더더욱	-12616
▁하려는	-12617
학년도	-12618
ood	-12619
▁신생	-12620
나쁜	-12621
▁국무위원장이	-12622
로스	-12623
구간	-12624
타이	-12625
omain	-12626
계좌	-12627
▁북조선	-12628
▁0.7	-12629
▁월세	-12630
정도면	-12631
▁크레	-12632
▁폭격	-12633
드린다	-12634
으라	-12635
4.	-12636
▁나중	-12637
▁투자가	-12638
어지고	-12639
xx	-12640
신용	-12641
▁스위스	-12642
▁자리가	-12643
▁ᄁ	-12644
▁뱃	-12645
▁도모	-12646
▁내구	-12647
▁마르	-12648
▁들여다	-12649
▁초반에	-12650
▁잡으면	-12651
▁결정할	-12652
▁리얼미터	-12653
회의실에서	-12654
곳의	-12655
▁포괄	-12656
베스트	-12657
▁정의를	-12658
▁억울한	-12659
현이	-12660
당으로	-12661
▁분석이다	-12662
▁제천	-12663
겁게	-12664
링크	-12665
▁부정적	-12666
약한	-12667
▁원가	-12668
▁폭스	-12669
▁대치	-12670
▁생각할	-12671
▁쿠폰	-12672
▁살면서	-12673
▁닛	-12674
▁푸른	-12675
▁업무협약	-12676
▁물건을	-12677
드만	-12678
음식	-12679
▁땅을	-12680
▁안먹	-12681
았냐	-12682
▁거세	-12683
▁당연한거	-12684
(20	-12685
올해	-12686
.13	-12687
▁달린	-12688
었으나	-12689
▁내놓고	-12690
▁시리즈의	-12691
▁유료	-12692
▁검사를	-12693
▁패거리	-12694
▁부칸	-12695
▁리콜	-12696
▁원정	-12697
▁언론사	-12698
것이고	-12699
▁관찰	-12700
▁이례	-12701
전남	-12702
▁사이의	-12703
▁계절	-12704
▁민주당의	-12705
▁알았는데	-12706
▁족속	-12707
▁팀이	-12708
남기	-12709
파를	-12710
▁흑자	-12711
▁나이트	-12712
▁불량	-12713
째로	-12714
▁네덜	-12715
선다	-12716
억이	-12717
▁인천시	-12718
지진	-12719
나니	-12720
▁모르겠지만	-12721
▁일반적으로	-12722
▁이러다	-12723
보좌	-12724
▁조선시대	-12725
▁내보	-12726
▁싸이코	-12727
▁논의할	-12728
▁문건	-12729
▁무뇌	-12730
중학교	-12731
▁담겨	-12732
분들은	-12733
라이더	-12734
▁정치인이	-12735
닷컴	-12736
만해도	-12737
▁하려면	-12738
시적	-12739
▁완공	-12740
▁국회의원이	-12741
마저도	-12742
▁이사장은	-12743
▁있겠다	-12744
act	-12745
▁펜스	-12746
▁김현미	-12747
▁업계에	-12748
▁판결이	-12749
문제가	-12750
▁아스	-12751
▁파악하고	-12752
▁아시아나항공	-12753
▁동영	-12754
짜피	-12755
▁ᄌᄂ	-12756
▁싸우는	-12757
▁아저씨	-12758
▁무기징역	-12759
▁찾아가	-12760
▁말아라	-12761
▁서울중앙지법	-12762
▁나라로	-12763
넘이	-12764
▁막상	-12765
대신	-12766
▁전인	-12767
▁닌	-12768
나온	-12769
비트	-12770
▁문제도	-12771
▁현실은	-12772
▁거친	-12773
사한	-12774
▁후에는	-12775
받아서	-12776
▁추진해	-12777
▁설명하고	-12778
바이트	-12779
▁기레기야	-12780
브라	-12781
▁기쁨	-12782
▁이뤄졌다	-12783
▁했냐	-12784
측은	-12785
▁사라진	-12786
▁서양	-12787
▁라면	-12788
▁새끼들이	-12789
▁호텔에서	-12790
▁고가	-12791
사단	-12792
의사	-12793
여도	-12794
▁의도가	-12795
▁다닐	-12796
▁끊임없이	-12797
왕의	-12798
▁합리적	-12799
▁미루	-12800
▁무언	-12801
오를	-12802
▁내면	-12803
▁망하는	-12804
리포니아	-12805
▁상처를	-12806
▁0.6	-12807
▁부천	-12808
▁녹음	-12809
▁펼치고	-12810
웠던	-12811
▁문학	-12812
▁회사에	-12813
▁이룬	-12814
어찌	-12815
▁노력이	-12816
▁AFP	-12817
▁영업이익이	-12818
▁태평양	-12819
▁이메	-12820
▁인상을	-12821
▁의정부	-12822
러니	-12823
▁역시나	-12824
거니	-12825
▁메리	-12826
▁있었습니다	-12827
▁역사가	-12828
▁물품	-12829
▁맡겨	-12830
▁행사에서	-12831
42	-12832
월말	-12833
▁담고	-12834
났네	-12835
노예	-12836
▁민심	-12837
레드	-12838
▁폭동	-12839
▁아파	-12840
정비	-12841
년들	-12842
▁07	-12843
▁부착	-12844
카가	-12845
거리고	-12846
▁광명	-12847
스트라	-12848
해져	-12849
▁자매	-12850
▁로또	-12851
▁꽉	-12852
▁받았다고	-12853
uby	-12854
▁잠실	-12855
▁알아라	-12856
▁수장	-12857
축구	-12858
▁사태를	-12859
▁보도에	-12860
▁시스템이	-12861
어주	-12862
▁GP	-12863
최근	-12864
▁금감원	-12865
장사	-12866
▁해요	-12867
ure	-12868
▁프레스	-12869
▁순이익	-12870
강도	-12871
할텐데	-12872
▁DNA	-12873
▁하나다	-12874
버릴	-12875
▁순식간에	-12876
이긴	-12877
▁인식이	-12878
았지	-12879
다는걸	-12880
▁너희들이	-12881
하겠지만	-12882
▁도서관	-12883
▁대법관	-12884
▁받아라	-12885
▁후보자의	-12886
▁김여	-12887
▁자식이	-12888
41	-12889
▁강화해	-12890
▁불만을	-12891
▁죽음을	-12892
▁특성을	-12893
▁위험을	-12894
▁뽀	-12895
▁사람으로	-12896
화장	-12897
인간들	-12898
▁남편이	-12899
▁확보한	-12900
대해	-12901
ize	-12902
중계	-12903
▁큰소리	-12904
▁병원에	-12905
▁개관	-12906
▁근절	-12907
배는	-12908
▁정동	-12909
▁재해	-12910
▁삼아	-12911
▁유성	-12912
▁참가한	-12913
전력	-12914
▁여행을	-12915
▁진주	-12916
마블	-12917
▁예상되는	-12918
▁언론의	-12919
▁책임은	-12920
루스	-12921
산은	-12922
▁안좋은	-12923
기관의	-12924
▁이로써	-12925
되거나	-12926
▁필요없다	-12927
설이	-12928
▁일치	-12929
▁외식	-12930
▁맡았다	-12931
▁영동	-12932
▁몽골	-12933
이었으나	-12934
▁추미애	-12935
오리	-12936
▁무기를	-12937
▁강력히	-12938
▁장성	-12939
▁카톡	-12940
▁행동이	-12941
공유	-12942
얘기	-12943
yout	-12944
월한	-12945
▁안락	-12946
ra	-12947
▁준수	-12948
▁선택을	-12949
▁쓰이는	-12950
▁인생을	-12951
문은	-12952
▁어두	-12953
▁폭파	-12954
▁노답	-12955
▁부른다	-12956
▁0.8	-12957
▁나갔	-12958
▁시위를	-12959
▁부들	-12960
▁싸울	-12961
▁구매할	-12962
▁인근에	-12963
보면서	-12964
▁규모를	-12965
▁하늘이	-12966
▁혼자서	-12967
▁귀여	-12968
▁권한을	-12969
▁박영선	-12970
▁상영	-12971
~20	-12972
▁보여주기	-12973
▁목적이	-12974
▁당당하게	-12975
우주	-12976
▁감상	-12977
▁어쨌든	-12978
)]	-12979
▁과장	-12980
룸에서	-12981
▁재인이	-12982
▁승강	-12983
콘텐츠	-12984
▁어처	-12985
▁모양새	-12986
▁고쳐	-12987
▁반영해	-12988
▁명백한	-12989
▁정직	-12990
▁1998	-12991
▁진상규	-12992
▁어떡	-12993
불법	-12994
▁추구하는	-12995
▁욕하고	-12996
▁변태	-12997
~~!!	-12998
▁읽고	-12999
▁표명	-13000
▁그쳤다	-13001
▁점수가	-13002
개돼지	-13003
니는	-13004
▁완벽한	-13005
▁조사해	-13006
▁나노	-13007
▁지지자	-13008
인재	-13009
▁상환	-13010
▁경찰관	-13011
운다	-13012
▁폭으로	-13013
▁할말	-13014
대행	-13015
pt	-13016
운이	-13017
▁밀고	-13018
▁대항	-13019
▁기술로	-13020
▁들어가면	-13021
▁돌아간다	-13022
▁선택할	-13023
화재	-13024
기인	-13025
▁벗어	-13026
역과	-13027
증거	-13028
▁넘은	-13029
▁돌아온	-13030
▁있어라	-13031
▁늘리는	-13032
▁근본적인	-13033
▁바둑	-13034
▁중점	-13035
▁조양	-13036
▁비디오	-13037
▁제품이	-13038
노무현	-13039
▁다같이	-13040
▁황교활	-13041
▁입으로	-13042
클로	-13043
▁총수	-13044
▁게이트	-13045
종은	-13046
층에서	-13047
▁이것을	-13048
▁뉘	-13049
▁인제	-13050
▁불이익	-13051
▁의원과	-13052
▁핵폐기	-13053
언이	-13054
자녀	-13055
▁선수가	-13056
게도	-13057
▁공고	-13058
▁복무	-13059
▁조사가	-13060
되었으며	-13061
▁박용	-13062
으라는	-13063
▁끓	-13064
▁가관	-13065
▁지혜	-13066
가는게	-13067
▁과거의	-13068
됐는데	-13069
려도	-13070
문제를	-13071
▁개혁을	-13072
▁장제원	-13073
레나	-13074
▁출시한	-13075
그러면	-13076
▁그런가	-13077
겁니까	-13078
▁사모펀드	-13079
▁황제	-13080
감으로	-13081
언스	-13082
TX	-13083
▁기간에	-13084
▁산책	-13085
▁같냐	-13086
▁벙	-13087
▁신조	-13088
▁웃긴다	-13089
▁태도를	-13090
96	-13091
▁넉	-13092
▁스피커	-13093
가네	-13094
지방선거	-13095
체계를	-13096
▁국빈	-13097
하게도	-13098
▁되니	-13099
▁저걸	-13100
케어	-13101
▁해주고	-13102
president	-13103
▁당신들이	-13104
▁전격	-13105
are	-13106
▁영국의	-13107
고있네	-13108
▁삼척	-13109
▁당이	-13110
▁조항	-13111
▁역적	-13112
▁그와	-13113
▁동조	-13114
충이	-13115
고발	-13116
▁물론이고	-13117
▁주류	-13118
▁비극	-13119
▁내각	-13120
OP	-13121
검토	-13122
박물관	-13123
과장은	-13124
▁행정안전부	-13125
홀딩	-13126
대인	-13127
경남	-13128
성향	-13129
푸드	-13130
▁이유다	-13131
부인	-13132
리안	-13133
▁레이더	-13134
▁송파구	-13135
▁상대를	-13136
▁물질	-13137
▁증인	-13138
▁다음으로	-13139
▁발견된	-13140
▁LTE	-13141
▁개조	-13142
▁중장기	-13143
▁선택한	-13144
▁타이어	-13145
▁연재	-13146
▁매월	-13147
▁모래	-13148
♡♡	-13149
▁합의가	-13150
▁나만	-13151
▁사람과	-13152
듣고	-13153
▁정책으로	-13154
▁유류	-13155
▁중지	-13156
노릇	-13157
일으	-13158
▁수익률을	-13159
로워	-13160
▁조상	-13161
▁김민	-13162
막이	-13163
▁서비스가	-13164
▁불행	-13165
▁타워	-13166
들끼리	-13167
▁게임이	-13168
▁CG	-13169
▁보험료	-13170
▁협력해	-13171
▁대입	-13172
드니	-13173
▁LNG	-13174
▁안동	-13175
▁세우고	-13176
물론	-13177
▁본회의	-13178
▁비율은	-13179
▁크지	-13180
객이	-13181
▁불가능하다	-13182
▁순천	-13183
▁신동	-13184
▁급식	-13185
▁유래	-13186
▁양심이	-13187
▁히트	-13188
주변	-13189
히면	-13190
▁사는게	-13191
▁화려한	-13192
▁정통	-13193
▁바닷	-13194
▁땅에	-13195
▁에이스	-13196
ha	-13197
▁프린	-13198
▁빨라	-13199
▁이송	-13200
틀딱	-13201
산에	-13202
▁예정이라고	-13203
VE	-13204
▁계승	-13205
▁재앙이다	-13206
▁차지하고	-13207
▁사라질	-13208
도둑	-13209
학대	-13210
▁나옵니다	-13211
의식	-13212
들이랑	-13213
▁사망한	-13214
▁기업이다	-13215
▁다녔	-13216
▁순환	-13217
▁분할	-13218
▁추잡	-13219
▁늑	-13220
방식	-13221
▁지낸	-13222
▁그러지	-13223
차게	-13224
▁입점	-13225
균형	-13226
▁그릇	-13227
눈물	-13228
▁이고	-13229
▁하기도	-13230
▁얼른	-13231
▁들어와	-13232
▁기간이	-13233
▁안전성	-13234
▁적의	-13235
▁봤는데	-13236
싸고	-13237
아무리	-13238
▁←	-13239
ide	-13240
▁양육	-13241
▁피를	-13242
▁솜	-13243
▁살지	-13244
▁쥬	-13245
▁분들은	-13246
▁구조를	-13247
▁국무부	-13248
▁할려고	-13249
되어서	-13250
▁모자라	-13251
▁오래된	-13252
▁깨달	-13253
다녀	-13254
▁집착	-13255
빼고	-13256
▁애가	-13257
▁이병	-13258
▁계획이	-13259
▁그중	-13260
▁너가	-13261
▁시점에	-13262
더러	-13263
▁왜이리	-13264
단속	-13265
진에	-13266
▁알리고	-13267
▁정치가	-13268
▁죄인이	-13269
▁강화하는	-13270
세월호	-13271
▁농림축산	-13272
▁컨센서스	-13273
▁4%	-13274
▁4.	-13275
▁세습	-13276
▁한국도	-13277
▁유지하는	-13278
▁세력이	-13279
▁젓	-13280
주시길	-13281
▁더러	-13282
▁까다	-13283
▁선행	-13284
사업은	-13285
▁용산구	-13286
▁좁은	-13287
▁중공	-13288
▁돌봄	-13289
▁전국의	-13290
▁분석해	-13291
▁파렴	-13292
▁어렵다는	-13293
민당	-13294
▁증여	-13295
트와	-13296
▁관해	-13297
▁정부세종	-13298
▁중산	-13299
▁했으니	-13300
▁지고	-13301
▁오빠	-13302
▁유연	-13303
▁이쯤되면	-13304
AC	-13305
▁펄	-13306
▁그놈의	-13307
▁6000	-13308
▁대공	-13309
▁발표를	-13310
▁대우조선	-13311
▁유지할	-13312
했는	-13313
▁드러난	-13314
▁발간	-13315
▁부총리는	-13316
▁있으므로	-13317
▁개정안	-13318
▁조사해서	-13319
▁먹거리	-13320
▁기쁘	-13321
▁때의	-13322
▁차려라	-13323
뒤에	-13324
▁견인	-13325
▁휴게	-13326
작을	-13327
▁거리를	-13328
▁전반에	-13329
▁그네	-13330
▁바뀌었다	-13331
▁걸레	-13332
네트워크	-13333
교육청은	-13334
▁믿지	-13335
여대	-13336
죄가	-13337
일듯	-13338
▁경제부총리	-13339
주시는	-13340
▁SP	-13341
▁동대문	-13342
▁전동	-13343
▁씁	-13344
▁SW	-13345
▁II	-13346
▁간주	-13347
▁만기	-13348
▁간절	-13349
유기	-13350
▁콘셉	-13351
▁승무원	-13352
▁클릭	-13353
▁뒤통수	-13354
▁잘못한	-13355
익을	-13356
▁부러	-13357
▁프로듀	-13358
▁노래를	-13359
▁사용하지	-13360
▁지켜야	-13361
▁아티스트	-13362
▁메디	-13363
회와	-13364
▁강아지	-13365
▁대통령으로	-13366
▁정보가	-13367
▁업종별로는	-13368
▁진실이	-13369
들어서	-13370
프의	-13371
▁일으켜	-13372
▁넘치는	-13373
파괴	-13374
▁확인한	-13375
▁거래량은	-13376
▁이해를	-13377
▁캘리포니아	-13378
▁전장	-13379
▁희망이	-13380
문화재	-13381
지마세요	-13382
▁부회장은	-13383
대장	-13384
어지는	-13385
▁필요합니다	-13386
▁죽으면	-13387
▁삼성전자가	-13388
▁관측이	-13389
▁170	-13390
▁상시	-13391
▁손바닥	-13392
▁한방에	-13393
기관과	-13394
▁않았다는	-13395
▁퍼주기	-13396
▁유감	-13397
▁씨와	-13398
▁실시한다	-13399
▁저래	-13400
▁고양시	-13401
▁오찬	-13402
▁집이	-13403
her	-13404
▁지나가	-13405
▁취약계층	-13406
▁애플리케이션	-13407
않는	-13408
▁작가의	-13409
▁대통령에	-13410
집은	-13411
▁김제	-13412
한가	-13413
간이	-13414
▁구성해	-13415
▁일본도	-13416
▁걱정이	-13417
SC	-13418
▁출시된	-13419
▁화재가	-13420
형의	-13421
▁비준	-13422
▁한국은행	-13423
▁인민재판	-13424
▁성명을	-13425
전사	-13426
▁외출	-13427
▁걸러	-13428
ᄋᄋ	-13429
▁욱	-13430
▁개무시	-13431
▁팀을	-13432
▁타당	-13433
▁일만	-13434
▁판사가	-13435
도서관	-13436
▁모델로	-13437
▁희귀	-13438
▁플랫폼을	-13439
겠음	-13440
▁님	-13441
▁업무협약을	-13442
▁바꿨	-13443
▁중개	-13444
▁버그	-13445
▁지분을	-13446
▁충격을	-13447
▁공시가	-13448
▁자기들이	-13449
였어	-13450
87	-13451
릭스	-13452
민은	-13453
▁서경	-13454
발의	-13455
본부장	-13456
▁소주	-13457
▁인정하는	-13458
자만	-13459
국민은	-13460
▁실명	-13461
▁신용카드	-13462
여기	-13463
▁위원장과	-13464
▁관행	-13465
년만	-13466
▁방안도	-13467
결정	-13468
▁환수	-13469
▁한양	-13470
▁썰	-13471
▁경쟁이	-13472
입고	-13473
▁맺고	-13474
▁기술과	-13475
▁스키	-13476
양심	-13477
▁쑤	-13478
▁애비	-13479
리는거	-13480
▁강원랜드	-13481
▁초점을	-13482
▁남용	-13483
▁밀어붙	-13484
▁정세	-13485
▁서브	-13486
▁핀테크	-13487
▁않았을	-13488
▁‘2019	-13489
▁병원에서	-13490
효율	-13491
▁산업의	-13492
▁흥행	-13493
▁구성됐다	-13494
▁비건	-13495
티드	-13496
시키지	-13497
▁비겁	-13498
▁사건과	-13499
▁홈페이지에서	-13500
▁투수	-13501
내자	-13502
집값	-13503
투어	-13504
▁카르	-13505
▁시작하는	-13506
랍시고	-13507
▁생기면	-13508
스마트	-13509
▁->	-13510
▁맞다고	-13511
▁게임의	-13512
-3	-13513
▁형평	-13514
▁톱	-13515
▁살자	-13516
▁자이	-13517
▁책정	-13518
병으로	-13519
시리즈	-13520
▁후퇴	-13521
▁있었으나	-13522
영이	-13523
▁탈탈	-13524
▁녀석	-13525
포스	-13526
▁명문	-13527
위원은	-13528
▁살아가는	-13529
▁떠난	-13530
▁모두발언을	-13531
▁성장성	-13532
▁전자는	-13533
입장	-13534
▁고수	-13535
▁지뢰	-13536
스레	-13537
▁되는지	-13538
부터가	-13539
▁기술은	-13540
▁무슬림	-13541
▁방송에서	-13542
▁゚	-13543
▁있네요	-13544
▁결론은	-13545
▁꼼꼼	-13546
▁새끼가	-13547
▁보이스	-13548
진흥원	-13549
▁뽑는	-13550
▁짙	-13551
▁디자이너	-13552
▁전역	-13553
▁어딨	-13554
▁이뤄지지	-13555
▁촌	-13556
▁불공정	-13557
▁저작권	-13558
광장에서	-13559
▁이끌고	-13560
FF	-13561
▁그들을	-13562
▁기대감이	-13563
▁직접적인	-13564
▁한대	-13565
▁주장하고	-13566
▁시야	-13567
▁부작용	-13568
▁공장을	-13569
▁원인은	-13570
▁다룬	-13571
▁속도로	-13572
▁국공립	-13573
.19	-13574
과정에서	-13575
되던	-13576
▁꼴이	-13577
▁진출을	-13578
▁타협	-13579
보라	-13580
스팅	-13581
▁비웃	-13582
리세요	-13583
▁시킬	-13584
▁사실이다	-13585
▁공적	-13586
▁교육과	-13587
▁사각	-13588
▁더럽	-13589
지긋	-13590
ick	-13591
이해	-13592
▁패스	-13593
▁전송	-13594
▁처형	-13595
▁관련이	-13596
▁국가는	-13597
▁아마추어	-13598
소통	-13599
▁무책임	-13600
▁죽었다	-13601
▁it	-13602
투데이	-13603
▁좋지만	-13604
▁전정권	-13605
억씩	-13606
▁우방	-13607
▁저하	-13608
공제	-13609
▁그렇지만	-13610
선택	-13611
▁듣기	-13612
하느냐	-13613
로보	-13614
▁맞춘	-13615
▁없구나	-13616
▁이순신	-13617
▁금융투자	-13618
▁더불어민주	-13619
▁알면서	-13620
아를	-13621
▁실질적으로	-13622
▁모순	-13623
▁수강	-13624
▁송환	-13625
▁정수	-13626
▁하는가	-13627
격으로	-13628
ice	-13629
▁우롱	-13630
융합	-13631
▁실제로는	-13632
▁아깝	-13633
▁어리석은	-13634
▁애쓴다	-13635
인걸	-13636
지말자	-13637
▁표를	-13638
▁남구	-13639
6.	-13640
(1	-13641
▁계신	-13642
▁수감	-13643
▁색히	-13644
▁의전	-13645
▁자신들이	-13646
▁부역	-13647
▁스타벅	-13648
▁날씨가	-13649
▁반역	-13650
▁나머지는	-13651
▁민주당과	-13652
▁한숨	-13653
▁내년도	-13654
▁유예	-13655
▁문죄인이	-13656
설계	-13657
▁조세	-13658
렸네	-13659
다지	-13660
▁간호사	-13661
▁편파	-13662
▁선보이는	-13663
▁발을	-13664
▁전용면적	-13665
맘대로	-13666
▁다이어	-13667
▁의장은	-13668
▁재산을	-13669
정원	-13670
▁있으니까	-13671
▁수치다	-13672
▁소음	-13673
▁아이콘	-13674
:00	-13675
어스	-13676
.'	-13677
▁이분	-13678
▁모티브	-13679
▁내보내	-13680
▁머니	-13681
▁가성	-13682
▁공조	-13683
▁당의	-13684
아마	-13685
▁끼어	-13686
▁함정	-13687
▁웃기고	-13688
▁해양수산	-13689
반을	-13690
▁싸워	-13691
▁발표할	-13692
▁사거리	-13693
액의	-13694
▁가족들	-13695
▁나몰	-13696
▁하는거지	-13697
▁낚시	-13698
등의	-13699
소유	-13700
▁장수	-13701
려다	-13702
▁하남	-13703
사들의	-13704
이라는게	-13705
▁인용해	-13706
▁않다고	-13707
▁법원이	-13708
▁걔	-13709
▁끝났다	-13710
에스	-13711
▁제이	-13712
권으로	-13713
파악	-13714
▁삼국	-13715
▁발생하지	-13716
▁커질	-13717
▁크기	-13718
석에	-13719
▁피곤	-13720
어질	-13721
▁모르냐	-13722
주교	-13723
▁없었고	-13724
▁채무	-13725
▁뻔한	-13726
▁어우	-13727
▁UAE	-13728
▁법원은	-13729
▁공식적으로	-13730
초에	-13731
최저임금	-13732
▁산정	-13733
▁잔뜩	-13734
▁격리	-13735
▁세계가	-13736
▁첫째	-13737
▁국민혈	-13738
같네	-13739
▁원료	-13740
▁우리나라를	-13741
▁최선	-13742
▁아쉬운	-13743
▁SD	-13744
▁법원행정	-13745
▁VS	-13746
▁자유한국당이	-13747
그동안	-13748
▁정원	-13749
▁팀의	-13750
▁1/	-13751
▁가벼운	-13752
▁해외에서	-13753
▁여자를	-13754
▁ᄏᄏᄏᄏᄏᄏᄏᄏᄏᄏ	-13755
로써	-13756
이닝	-13757
풍을	-13758
들이지	-13759
▁중복	-13760
▁비열	-13761
▁변화에	-13762
▁고스란히	-13763
▁전년동기	-13764
▁대화가	-13765
▁아이템을	-13766
▁수단	-13767
▁남긴	-13768
▁내려오	-13769
▁이사람	-13770
▁되게	-13771
▁하필	-13772
▁유공	-13773
▁약속했다	-13774
문죄	-13775
▁툭	-13776
속이	-13777
전화	-13778
▁전국에서	-13779
▁속으로	-13780
▁스파이	-13781
sh	-13782
▁구체적	-13783
▁두드러	-13784
▁재고	-13785
▁안된다는	-13786
▁현기	-13787
러시아	-13788
애들은	-13789
▁언젠가	-13790
▁1997	-13791
·2	-13792
하는것도	-13793
기부	-13794
▁도입을	-13795
▁그러게	-13796
▁잘못이	-13797
▁얹	-13798
▁매출을	-13799
▁일본군	-13800
▁규명	-13801
▁뭐고	-13802
▁트레	-13803
▁톡	-13804
▁야마	-13805
대표가	-13806
▁김어준	-13807
▁회전	-13808
사라	-13809
▁관내	-13810
▁과정이	-13811
▁동급	-13812
있어서	-13813
▁발생해	-13814
구매	-13815
▁추후	-13816
▁홈런	-13817
▁결론을	-13818
▁대형마트	-13819
▁후진국	-13820
▁말았다	-13821
:1	-13822
▁안간다	-13823
▁일로	-13824
해외	-13825
돈은	-13826
▁찌라시	-13827
▁깽	-13828
▁원주	-13829
▁망언	-13830
잡은	-13831
▁미래의	-13832
▁빌딩	-13833
▁무주택	-13834
▁문제와	-13835
종교	-13836
▁고만	-13837
▁여지가	-13838
▁꽤나	-13839
▁이쁘	-13840
▁간단한	-13841
▁합의한	-13842
▁주목된다	-13843
▁다른나라	-13844
▁인명피해	-13845
▁한동안	-13846
▁고등학생	-13847
▁CD	-13848
▁금메달	-13849
▁모터	-13850
▁밖에서	-13851
SS	-13852
▁아르헨	-13853
▁헬기	-13854
▁쥐새끼	-13855
예정	-13856
▁방식이	-13857
▁가축	-13858
▁곤란	-13859
▁전수조사	-13860
▁했나	-13861
qu	-13862
▁반려동물	-13863
질랜드	-13864
지노	-13865
오르	-13866
▁집회를	-13867
▁사업으로	-13868
났는데	-13869
나미	-13870
▁편히	-13871
덩이	-13872
구와	-13873
▁됐습니다	-13874
들만의	-13875
▁믿는다	-13876
▁의미로	-13877
수술	-13878
▁한복	-13879
▁담당하는	-13880
▁심신	-13881
▁yna	-13882
▁서울과	-13883
표준	-13884
▁사업자	-13885
▁몹	-13886
▁92	-13887
담을	-13888
▁사살	-13889
▁필요할	-13890
▁서술	-13891
▁나타나는	-13892
▁거래일보다	-13893
▁피해자의	-13894
▁송영	-13895
▁프로모션	-13896
팩트	-13897
▁KO	-13898
▁위치를	-13899
▁짓고	-13900
▁일제히	-13901
▁이라면서	-13902
▁웨이	-13903
▁저주	-13904
▁구린	-13905
만하다	-13906
싶어	-13907
▁고립	-13908
▁보고서를	-13909
셔널	-13910
▁바람직	-13911
▁살펴보고	-13912
이동	-13913
▁않으며	-13914
사고가	-13915
▁일각에서는	-13916
▁사람만	-13917
지원센터	-13918
▁깝	-13919
▁잘한	-13920
▁프라이	-13921
▁이밖에	-13922
크는	-13923
▁가까워	-13924
▁감독이	-13925
사들은	-13926
▁북쪽	-13927
▁치열한	-13928
하잖아	-13929
▁럭	-13930
역은	-13931
조치를	-13932
자라고	-13933
경제를	-13934
루미	-13935
▁처벌이	-13936
▁반영한	-13937
▁다죽	-13938
만들고	-13939
▁탕	-13940
▁달했다	-13941
저는	-13942
카르	-13943
▁내놨다	-13944
▁일어나는	-13945
밀히	-13946
루가	-13947
코가	-13948
▁군수	-13949
▁푼	-13950
▁데미지를	-13951
▁세계적	-13952
▁플러스	-13953
취를	-13954
▁이태	-13955
▁포기하고	-13956
▁계급	-13957
작은	-13958
▁했네	-13959
▁닥치고	-13960
▁몰랐다	-13961
▁양쪽	-13962
▁칼을	-13963
▁상봉	-13964
▁세종시	-13965
▁저감	-13966
▁1.6	-13967
▁1.3	-13968
▁많다는	-13969
▁킨	-13970
▁엄마가	-13971
▁강화할	-13972
▁제기한	-13973
▁세금만	-13974
▁유플러스	-13975
▁걸리는	-13976
▁이따	-13977
그룹의	-13978
▁알면서도	-13979
▁겐	-13980
▁판교	-13981
▁해마다	-13982
▁최대의	-13983
▁성장할	-13984
어쩌	-13985
▁전국적으로	-13986
▁종목이	-13987
▁키우고	-13988
신경	-13989
▁무시하는	-13990
▁대구시	-13991
별한	-13992
방위	-13993
들보다	-13994
총회	-13995
▁불필요	-13996
▁늬	-13997
▁고려하면	-13998
▁구축을	-13999
▁뱉	-14000
▁올인	-14001
파탄	-14002
인것	-14003
▁중화	-14004
집권	-14005
꺼면	-14006
▁체력이	-14007
▁곳곳에서	-14008
기야	-14009
▁신속하게	-14010
▁리더십	-14011
▁드림	-14012
▁정준영	-14013
차라리	-14014
▁아세안	-14015
▁노력하고	-14016
▁인테리어	-14017
월급	-14018
▁효과는	-14019
▁모르겠네	-14020
▁방패	-14021
▁패치	-14022
->	-14023
▁올해부터	-14024
비핵	-14025
스턴	-14026
모델링	-14027
▁전신	-14028
더군요	-14029
▁진행해	-14030
!!!!!!!	-14031
▁정치는	-14032
추천	-14033
▁만나고	-14034
▁페이스북에	-14035
광장	-14036
▁아시안	-14037
원자	-14038
▁기자는	-14039
▁바꿔야	-14040
▁홍준표가	-14041
치매	-14042
▁막장	-14043
▁댓글들	-14044
▁선착순	-14045
크라이나	-14046
훗날	-14047
베이터	-14048
왕이	-14049
▁끝나는	-14050
▁여성가족	-14051
▁안들	-14052
▁의미한다	-14053
▁재선	-14054
▁근혜	-14055
▁지인	-14056
학기	-14057
▁상원	-14058
▁지역으로	-14059
오가	-14060
▁식의	-14061
기업에	-14062
▁건강을	-14063
▁한두번	-14064
모임	-14065
▁둔화	-14066
▁하태경	-14067
be	-14068
▁마련한	-14069
먹기	-14070
▁주인이	-14071
스킬	-14072
▁부도	-14073
▁돌아갈	-14074
▁경제협력	-14075
▁플로	-14076
▁열면	-14077
▁소리하고	-14078
봤는데	-14079
▁Tr	-14080
▁보냈다	-14081
▁아나운	-14082
지는게	-14083
▁개인적으로	-14084
▁베이스	-14085
▁여성은	-14086
▁잘했다	-14087
▁못믿	-14088
사과	-14089
▁사람이다	-14090
▁에는	-14091
▁올해도	-14092
들에게도	-14093
사리	-14094
생태	-14095
▁점에	-14096
▁판타	-14097
▁AT	-14098
양아치	-14099
▁통일을	-14100
▁메달	-14101
▁다음과	-14102
900	-14103
렸다는	-14104
린지	-14105
▁기밀	-14106
▁할거	-14107
▁진로	-14108
▁즐겨	-14109
크의	-14110
▁앞당	-14111
▁몇명	-14112
▁활동에	-14113
힘들	-14114
bo	-14115
어느	-14116
▁당내	-14117
▁참석자들이	-14118
▁쿵	-14119
▁국방부는	-14120
▁멘토	-14121
▁치유	-14122
▁밤에	-14123
미한	-14124
▁할수있	-14125
▁생계	-14126
▁태도	-14127
림이	-14128
▁눈물을	-14129
말에	-14130
테일	-14131
▁일행	-14132
▁여론을	-14133
▁귀가	-14134
▁면적	-14135
▁함유	-14136
▁스티븐	-14137
▁있었을	-14138
▁나라망	-14139
▁81	-14140
비서관	-14141
▁어쩌면	-14142
▁생생	-14143
▁생일	-14144
▁길로	-14145
금과	-14146
▁아무나	-14147
▁애널리스트	-14148
▁농도가	-14149
▁투어	-14150
▁됬	-14151
경제는	-14152
포스트	-14153
▁개수	-14154
▁에코	-14155
▁박종	-14156
▁성우는	-14157
▁사용하면	-14158
▁발정	-14159
동부	-14160
▁다니고	-14161
▁의학	-14162
▁안드로이드	-14163
▁있죠	-14164
▁금리를	-14165
▁칩	-14166
테러	-14167
▁DJ	-14168
▁지역이	-14169
▁답변을	-14170
와이	-14171
▁대여	-14172
▁다채	-14173
▁형식	-14174
보게	-14175
아빠	-14176
▁론칭	-14177
▁서울은	-14178
▁3.3	-14179
줬으면	-14180
동은	-14181
▁터뜨	-14182
▁옹호하는	-14183
▁필요성을	-14184
▁가볍게	-14185
물가	-14186
▁구속수사	-14187
▁중대한	-14188
▁정한	-14189
폭망	-14190
▁오르면	-14191
▁맑은	-14192
▁클래스	-14193
레이터	-14194
그러나	-14195
도까지	-14196
드리는	-14197
▁불편을	-14198
주니	-14199
▁박정	-14200
▁남북이	-14201
▁영원한	-14202
▁자원봉사	-14203
▁임차	-14204
조원을	-14205
▁토요일	-14206
▁당뇨	-14207
▁상회	-14208
▁점프	-14209
▁판매가	-14210
▁홈쇼핑	-14211
것네	-14212
▁무능력	-14213
▁넘기	-14214
▁양념	-14215
ove	-14216
▁사랑의	-14217
▁미흡	-14218
시설이	-14219
▁모든걸	-14220
끼는	-14221
▁플랜	-14222
동조합	-14223
ire	-14224
▁의무를	-14225
사람을	-14226
▁인터뷰를	-14227
ock	-14228
반기에	-14229
▁94	-14230
ᆞᆞ	-14231
이치	-14232
처먹고	-14233
재정	-14234
있다는	-14235
좋다	-14236
십자	-14237
▁백성	-14238
▁이제야	-14239
반이	-14240
내며	-14241
실적	-14242
▁환자의	-14243
그래야	-14244
▁노르	-14245
▁기분이	-14246
▁있느냐	-14247
ᅳᅳᅳᅳᅳᅳᅳᅳ	-14248
▁두렵	-14249
▁광우	-14250
▁표본	-14251
방으로	-14252
퓰리즘	-14253
▁책임지고	-14254
▁냄	-14255
▁피아	-14256
▁마포구	-14257
▁나뉘	-14258
▁표현을	-14259
▁임진	-14260
▁협력업체	-14261
▁모듈	-14262
▁아직은	-14263
▁조속히	-14264
▁생긴다	-14265
▁연상	-14266
▁집중적으로	-14267
ame	-14268
▁이익이	-14269
▁블룸	-14270
▁서면	-14271
개에	-14272
계약을	-14273
프라이	-14274
▁구독	-14275
▁팍팍	-14276
▁정해진	-14277
▁구조조정	-14278
▁퍼주고	-14279
▁한번에	-14280
▁샌드	-14281
▁규제가	-14282
▁장식	-14283
저가	-14284
▁태블릿	-14285
▁되자	-14286
천히	-14287
겟지	-14288
분열	-14289
▁특례	-14290
교섭	-14291
로서의	-14292
▁박사모	-14293
▁나가고	-14294
▁모르지만	-14295
▁이내에	-14296
▁어딘	-14297
▁불편한	-14298
국민들은	-14299
▁악성	-14300
▁야이	-14301
.#	-14302
▁아바	-14303
▁취향	-14304
자이	-14305
▁비판이	-14306
▁모르게	-14307
였음	-14308
▁과천	-14309
▁화합	-14310
인간이	-14311
태우	-14312
▁수출규제	-14313
갈이	-14314
키의	-14315
▁구나	-14316
▁없는게	-14317
보에	-14318
..........	-14319
티스	-14320
▁붙은	-14321
▁글이	-14322
▁감정을	-14323
디지	-14324
▁안정적으로	-14325
▁부당한	-14326
▁대표적	-14327
▁열려	-14328
▁원산	-14329
▁과세	-14330
▁최다	-14331
▁불로	-14332
▁독특한	-14333
▁않는다면	-14334
▁얘기다	-14335
▁본인도	-14336
▁범행을	-14337
▁성과가	-14338
▁준비가	-14339
▁지켜보고	-14340
▁갖는	-14341
▁아녀	-14342
▁갖게	-14343
매수	-14344
▁주차장	-14345
▁3·1	-14346
▁같으니	-14347
▁마찬가지다	-14348
▁하든	-14349
▁오신	-14350
▁죽게	-14351
세력이	-14352
▁직장인	-14353
▁기습	-14354
▁답답하다	-14355
▁전반적으로	-14356
▁됐고	-14357
▁요구한	-14358
▁방탄소년단	-14359
~2	-14360
▁천막	-14361
▁삶이	-14362
▁챙기는	-14363
▁갑작	-14364
▁낮추	-14365
▁미세	-14366
▁기관의	-14367
▁자들이	-14368
▁확인해	-14369
▁멈춰	-14370
▁발로	-14371
부러	-14372
▁느낌을	-14373
단에서	-14374
것들아	-14375
평생	-14376
▁판사는	-14377
학자	-14378
▁인식을	-14379
▁Bl	-14380
▁확보를	-14381
▁호황	-14382
▁신분으로	-14383
안에서	-14384
▁가족과	-14385
▁볼때	-14386
커피	-14387
레오	-14388
▁말씀을	-14389
여러분	-14390
▁명목으로	-14391
▁터진	-14392
책이	-14393
▁고려한	-14394
▁안사	-14395
▁케어	-14396
▁흥미	-14397
▁개인은	-14398
▁차이를	-14399
▁다루는	-14400
▁죽을때	-14401
▁없애야	-14402
▁구직	-14403
▁더듬어	-14404
▁서비스는	-14405
ne	-14406
▁남는	-14407
▁드리	-14408
▁침입	-14409
▁나지	-14410
▁성공을	-14411
▁허가를	-14412
▁꼽았다	-14413
▁아래로	-14414
▁느낀다	-14415
범위	-14416
▁왠지	-14417
있는지	-14418
▁농림축산식품	-14419
▁친구가	-14420
▁카카오톡	-14421
▁불리한	-14422
▁박성	-14423
▁설레	-14424
▁무너뜨	-14425
▁점유율	-14426
▁실정	-14427
▁조선중앙	-14428
▁모의	-14429
법의	-14430
▁해설	-14431
▁같아서	-14432
▁정치하는	-14433
▁실패한	-14434
제도를	-14435
▁0.9	-14436
600	-14437
▁규모다	-14438
▁임대주택	-14439
▁기숙	-14440
▁위치해	-14441
▁잡기	-14442
▁탔	-14443
선물	-14444
▁유플러	-14445
경에	-14446
대단	-14447
▁주무	-14448
떨어진	-14449
▁막아야	-14450
▁코스트	-14451
▁제품으로	-14452
결혼	-14453
구치	-14454
▁피할	-14455
▁고장	-14456
▁CV	-14457
▁라도	-14458
추가	-14459
▁하더라	-14460
▁물결	-14461
종으로	-14462
▁사이코	-14463
▁가산	-14464
▁사쿠	-14465
▁112	-14466
▁등재	-14467
▁안맞	-14468
65	-14469
▁국가주	-14470
▁출신의	-14471
▁계획입니다	-14472
▁프라	-14473
강을	-14474
▁지점	-14475
▁송도	-14476
▁보상을	-14477
일만	-14478
▁김정은의	-14479
▁be	-14480
▁그들	-14481
경험	-14482
끼고	-14483
▁옆에서	-14484
▁직권남용	-14485
▁내년부터	-14486
▁장기간	-14487
▁뉴스를	-14488
▁적용한	-14489
▁인텔	-14490
▁공산화	-14491
▁교도소	-14492
▁마당에	-14493
▁멍멍	-14494
사형	-14495
만명을	-14496
▁고려대	-14497
▁김원	-14498
▁부통령	-14499
▁가져다	-14500
▁마켓	-14501
다나	-14502
▁북한도	-14503
▁환장	-14504
▁효율성	-14505
▁1200	-14506
▁이노베이션	-14507
▁우덜	-14508
건물	-14509
▁해볼	-14510
▁오류	-14511
▁진전	-14512
▁하도록	-14513
팀의	-14514
▁컸다	-14515
지냐	-14516
업이	-14517
여객	-14518
장군	-14519
▁사법개혁	-14520
▁가는데	-14521
수용	-14522
▁동종목에	-14523
▁자료는	-14524
91	-14525
들이야	-14526
▁우크라이나	-14527
원대의	-14528
▁어짜피	-14529
!!!!!!!!!!!!!!!!	-14530
▁맞네	-14531
보스	-14532
계에서	-14533
▁경향이	-14534
▁쓰기	-14535
▁공개하고	-14536
▁어렵고	-14537
▁파이낸	-14538
▁전차	-14539
하구나	-14540
▁거점	-14541
MP	-14542
▁주시	-14543
▁입지	-14544
▁고개를	-14545
개입	-14546
▁커플	-14547
였을	-14548
▁싸그리	-14549
첨단	-14550
당장	-14551
같으면	-14552
▁됐다고	-14553
▁쉽다	-14554
버려야	-14555
▁확률로	-14556
▁다른데	-14557
▁다하고	-14558
▁여학생	-14559
했을까	-14560
▁장면을	-14561
size	-14562
년후	-14563
되네	-14564
▁요인이	-14565
▁개발해	-14566
▁임용	-14567
▁튼튼	-14568
▁아침에	-14569
▁쌈	-14570
▁수준인	-14571
이름	-14572
채로	-14573
▁피로	-14574
▁보호를	-14575
▁명중	-14576
▁머저리	-14577
▁뉴스에	-14578
▁몰라서	-14579
▁유산	-14580
▁시인	-14581
들이고	-14582
에서부터	-14583
▁설치해	-14584
꼬라지	-14585
타의	-14586
▁거고	-14587
▁음란	-14588
▁음모	-14589
능력이	-14590
▁드립	-14591
▁장려	-14592
▁고려할	-14593
조차도	-14594
▁관료	-14595
정권을	-14596
코드	-14597
▁제작한	-14598
▁캬	-14599
75	-14600
데체	-14601
▁민주주의를	-14602
▁제안했다	-14603
EX	-14604
▁인권을	-14605
▁LC	-14606
▁보고도	-14607
▁내용에	-14608
▁세상에서	-14609
▁성립	-14610
▁미래는	-14611
▁범위를	-14612
▁개발하고	-14613
불쌍	-14614
되었는데	-14615
▁사라지고	-14616
▁사라져야	-14617
▁더럽고	-14618
▁세입	-14619
▁촉구하는	-14620
▁오지게	-14621
▁증상이	-14622
리던	-14623
▁빛을	-14624
EN	-14625
▁과잉	-14626
▁한국지	-14627
▁배부	-14628
▁입수	-14629
기네	-14630
▁아이들의	-14631
원들	-14632
▁전철	-14633
▁내란	-14634
상공회의	-14635
▁폐기물	-14636
.?	-14637
▁경선	-14638
▁1995	-14639
▁or	-14640
위해서	-14641
▁앱을	-14642
▁오늘날	-14643
▁기업들은	-14644
타민	-14645
▁키즈	-14646
필드	-14647
▁자신과	-14648
이명박	-14649
겠느냐	-14650
▁캐릭터가	-14651
해제	-14652
.15	-14653
▁오오	-14654
▁컨텐츠	-14655
▁심화	-14656
발로	-14657
▁조국의	-14658
▁구출	-14659
▁모여서	-14660
▁작년에	-14661
▁파산	-14662
▁많음	-14663
▁줄고	-14664
▁증가하는	-14665
▁유은혜	-14666
▁전보다	-14667
산다	-14668
▁어긋	-14669
▁논의했다	-14670
▁키울	-14671
▁어쩌라고	-14672
▁덮어	-14673
▁낙하산	-14674
▁저가	-14675
▁×	-14676
▁귀걸이	-14677
▁이넘	-14678
코의	-14679
▁번째로	-14680
▁아닌거	-14681
▁따지면	-14682
류의	-14683
▁조사할	-14684
많다	-14685
▁선정해	-14686
공부	-14687
▁클래식	-14688
▁근대	-14689
마케팅	-14690
▁공사를	-14691
▁발주	-14692
▁거래량	-14693
▁출시했다	-14694
주냐	-14695
수준이	-14696
▁블라디	-14697
aily	-14698
가기	-14699
▁규정을	-14700
▁지역주민	-14701
▁담보	-14702
테이너	-14703
▁안해도	-14704
지하	-14705
▁되겠다	-14706
▁같으면	-14707
▁국민의당	-14708
▁ET	-14709
▁오마이	-14710
▁좋습니다	-14711
▁경찰서	-14712
작가	-14713
▁되지만	-14714
1,	-14715
95	-14716
ear	-14717
▁안으로	-14718
전히	-14719
▁청춘	-14720
▁대구경북	-14721
세탁	-14722
▁못하도록	-14723
우의	-14724
연장	-14725
▁시가총액	-14726
▁편이	-14727
▁주목을	-14728
▁무난	-14729
▁조원	-14730
기업을	-14731
▁실체	-14732
▁머가	-14733
▁조건으로	-14734
노동조합	-14735
미야	-14736
▁하시는	-14737
잖어	-14738
▁유지했다	-14739
▁정도를	-14740
▁실화	-14741
▁얻었다	-14742
지역의	-14743
차적으로	-14744
▁우유	-14745
▁관점에서	-14746
의원이	-14747
알아	-14748
▁비상대책	-14749
▁하라는	-14750
▁사교육	-14751
나지	-14752
▁생각에	-14753
▁결심	-14754
▁시작할	-14755
문에서	-14756
급한	-14757
▁망쳐	-14758
▁법치	-14759
2,	-14760
▁기금	-14761
▁동원해	-14762
▁현주	-14763
▁해봐	-14764
매출	-14765
▁민선	-14766
▁잘난	-14767
▁말과	-14768
2)	-14769
▁혁	-14770
▁들어오는	-14771
▁인력을	-14772
▁이언주	-14773
▁자유대한민국	-14774
▁삼성물	-14775
세와	-14776
이었다고	-14777
▁이명	-14778
▁의견도	-14779
두를	-14780
희망	-14781
▁되기를	-14782
▁상주	-14783
▁Pro	-14784
▁일본어	-14785
▁정신적	-14786
▁전액	-14787
▁NC	-14788
▁해야할	-14789
▁말이지	-14790
▁복잡한	-14791
▁네이버는	-14792
▁경인	-14793
롭다	-14794
▁로비	-14795
▁키움	-14796
▁홧	-14797
▁통행	-14798
▁부끄러	-14799
▁있기에	-14800
▁작성된	-14801
▁위촉	-14802
▁찾지	-14803
▁신속한	-14804
생긴	-14805
▁해골	-14806
행사를	-14807
▁이승만	-14808
▁블록체	-14809
외국	-14810
▁실용	-14811
▁페르	-14812
▁올려서	-14813
▁최우선	-14814
▁썩을	-14815
▁항소심	-14816
▁초록	-14817
▁국토부는	-14818
▁보수는	-14819
연구원은	-14820
▁오락	-14821
만으로도	-14822
▁비호	-14823
렉션	-14824
▁날라	-14825
카는	-14826
▁과일	-14827
실장은	-14828
▁여권	-14829
▁사시	-14830
▁본사에서	-14831
▁전국민	-14832
▁외에는	-14833
▁걸림	-14834
렸지만	-14835
▁수두	-14836
▁안들어	-14837
▁구호	-14838
▁취직	-14839
▁배울	-14840
대회를	-14841
독한	-14842
부장관	-14843
▁해석이	-14844
▁약물	-14845
▁풀려	-14846
▁할듯	-14847
▁사무총	-14848
가짜	-14849
▁얽	-14850
교육감	-14851
정도는	-14852
한반도	-14853
▁깔아	-14854
▁성태	-14855
▁뻔히	-14856
▁퍼줄	-14857
▁부정부	-14858
▁PS	-14859
분한	-14860
▁주민들은	-14861
▁배웠	-14862
▁잘도	-14863
▁줄이기	-14864
▁역겨운	-14865
징금	-14866
▁안되는데	-14867
▁과거사	-14868
▁사진이	-14869
▁개도	-14870
매국노	-14871
▁실장은	-14872
▁미드	-14873
국장은	-14874
▁관리하는	-14875
▁초미세먼지	-14876
통계	-14877
▁했으며	-14878
▁전부다	-14879
▁박수를	-14880
▁두는	-14881
르의	-14882
▁원조	-14883
▁신뢰가	-14884
▁환경이	-14885
▁쪼개	-14886
당했다	-14887
수수료	-14888
▁재차	-14889
토가	-14890
▁거덜	-14891
▁반환	-14892
▁부른	-14893
▁잡아야	-14894
▁하자는	-14895
갖고	-14896
것입니다	-14897
▁곳도	-14898
▁김부선	-14899
▁배터	-14900
▁전임	-14901
▁제공해	-14902
▁전주시	-14903
▁프로젝트를	-14904
었기	-14905
▁결렬	-14906
되야	-14907
주는게	-14908
시스템을	-14909
▁승부	-14910
▁것이었다	-14911
▁휴대전화	-14912
/0	-14913
▁나서야	-14914
▁소문	-14915
▁줘라	-14916
기정통	-14917
능력을	-14918
거를	-14919
▁주휴	-14920
놈을	-14921
▁뉴질랜드	-14922
▁쏙	-14923
▁지원금	-14924
변을	-14925
▁성분	-14926
▁네덜란드	-14927
▁클린	-14928
▁8000	-14929
▁총살	-14930
==	-14931
홍보	-14932
▁사육	-14933
▁밝은	-14934
▁버리	-14935
▁바꿔라	-14936
님께	-14937
됐을	-14938
▁잡지	-14939
▁비서실장	-14940
▁유인	-14941
▁램	-14942
▁솔로	-14943
??????	-14944
▁☎	-14945
▁정상적으로	-14946
▁기자의	-14947
▁이나라가	-14948
▁한민족	-14949
▁경쟁을	-14950
▁매장을	-14951
▁타결	-14952
▁캠페인을	-14953
▁부가	-14954
▁오른다	-14955
▁class	-14956
강남	-14957
플루	-14958
ook	-14959
수리	-14960
▁준비하는	-14961
식에는	-14962
▁김병준	-14963
▁이상하게	-14964
▁문희	-14965
▁수신	-14966
▁밑에서	-14967
▁짓는	-14968
▁마련할	-14969
▁즐거운	-14970
ᅳᅳᅳ	-14971
▁기사로	-14972
▁바깥	-14973
▁1.7	-14974
▁아랫	-14975
unction	-14976
▁종가	-14977
▁2500	-14978
고시	-14979
그린	-14980
맞은	-14981
▁거꾸로	-14982
▁보너스	-14983
ng	-14984
▁미사일을	-14985
▁쥐어	-14986
▁판을	-14987
▁천천히	-14988
▁튀어나	-14989
▁햄	-14990
카를	-14991
▁뭐하고	-14992
▁총장은	-14993
800	-14994
미약	-14995
▁까는	-14996
▁혐의가	-14997
없으니	-14998
▁NY	-14999
▁무척	-15000
▁죽어야	-15001
▁답을	-15002
▁진행한다고	-15003
▁듣지	-15004
면세	-15005
범이	-15006
▁단위로	-15007
▁합의했다	-15008
들었다	-15009
▁사학	-15010
대표는	-15011
▁연구팀은	-15012
주얼	-15013
▁Ar	-15014
▁보컬	-15015
기업은	-15016
▁아이디	-15017
▁러브	-15018
▁푹	-15019
검증	-15020
▁지긋	-15021
▁남자들이	-15022
▁그로	-15023
▁잘사는	-15024
▁환승	-15025
▁방송에	-15026
▁FA	-15027
▁기증	-15028
아내	-15029
ace	-15030
▁바라보는	-15031
벚꽃	-15032
세권	-15033
간다고	-15034
▁차원	-15035
▁비핵화와	-15036
았으니	-15037
심과	-15038
▁가야지	-15039
▁드물	-15040
▁하이브리	-15041
▁가사	-15042
지방경찰청	-15043
으시	-15044
손으로	-15045
▁피해자를	-15046
▁사용되는	-15047
▁포함됐다	-15048
▁환불	-15049
졌으며	-15050
▁만다	-15051
▁정상회담이	-15052
▁인형	-15053
▁사용을	-15054
일텐데	-15055
▁발부	-15056
▁처분을	-15057
▁도시락	-15058
▁DS	-15059
▁수산	-15060
선진	-15061
▁실시하고	-15062
▁살피	-15063
시대에	-15064
시키자	-15065
▁국회는	-15066
▁제시된	-15067
▁돈주고	-15068
▁이준	-15069
연설	-15070
▁동화	-15071
▁절망	-15072
▁잡았다	-15073
▁좋으면	-15074
▁젊은이	-15075
▁밥먹	-15076
시께	-15077
II	-15078
--------	-15079
▁신청할	-15080
▁민주화운동	-15081
▁웃기네	-15082
중의	-15083
▁천지	-15084
▁종목에	-15085
▁국무총리가	-15086
영향	-15087
▁심각하게	-15088
▁장하성	-15089
▁생각해서	-15090
▁SR	-15091
회사가	-15092
▁심해	-15093
▁낮다	-15094
▁범법	-15095
▁터져	-15096
버리면	-15097
▁소지	-15098
가진	-15099
▁구로	-15100
▁제조사	-15101
투스	-15102
▁감찰	-15103
▁지적도	-15104
▁선수들이	-15105
▁박스	-15106
▁전복	-15107
▁총알	-15108
카의	-15109
▁당시에는	-15110
안해	-15111
▁뜬금	-15112
▁엇갈	-15113
열이	-15114
▁시작됐다	-15115
자영업	-15116
▁KEB	-15117
▁레전	-15118
▁다는	-15119
▁밴드	-15120
▁감면	-15121
▁김연	-15122
▁성장률	-15123
▁고조	-15124
▁군사적	-15125
▁재앙이가	-15126
▁하신	-15127
▁소재로	-15128
▁민족의	-15129
▁무용	-15130
보니까	-15131
▁전시회	-15132
▁배를	-15133
코는	-15134
▁와인	-15135
있는거	-15136
▁총을	-15137
차와	-15138
화이팅	-15139
노스	-15140
▁상륙	-15141
▁방침을	-15142
유공	-15143
▁kt	-15144
▁이러면	-15145
어차피	-15146
판으로	-15147
▁과기정통	-15148
▁불명	-15149
▁대출을	-15150
방은	-15151
▁명확히	-15152
대지	-15153
▁국민들도	-15154
▁//	-15155
▁공기청정기	-15156
▁카운터	-15157
▁적에게	-15158
무지	-15159
▁1994	-15160
▁개최한다고	-15161
▁여신	-15162
▁동종목의	-15163
사업의	-15164
Hz	-15165
▁쓸모	-15166
저지	-15167
▁이모양	-15168
▁사는데	-15169
▁본질	-15170
▁광양	-15171
▁넣은	-15172
마루	-15173
전부터	-15174
보고서	-15175
▁브랜드를	-15176
▁AD	-15177
작업을	-15178
▁말대로	-15179
ud	-15180
▁리모델링	-15181
▁못했던	-15182
▁혼수	-15183
래요	-15184
파이어	-15185
▁오랜만에	-15186
▁장례식	-15187
▁적합한	-15188
▁시신	-15189
▁하나요	-15190
▁받으면서	-15191
브를	-15192
▁미달	-15193
▁가족의	-15194
▁때리고	-15195
▁근거가	-15196
▁디자인을	-15197
사례	-15198
▁어느나라	-15199
나를	-15200
▁멸종	-15201
마일	-15202
▁힐링	-15203
▁미치지	-15204
▁깨닫	-15205
▁이른다	-15206
사관	-15207
▁대목	-15208
▁들면	-15209
▁패싱	-15210
죽이고	-15211
▁떨어지면	-15212
하되	-15213
▁압수	-15214
▁이재명이	-15215
눈에	-15216
▁있으면서	-15217
소리가	-15218
렬한	-15219
▁06	-15220
직으로	-15221
▁가리지	-15222
▁순서	-15223
▁안되나	-15224
드림	-15225
▁손상	-15226
▁참전	-15227
▁새겨	-15228
받으면	-15229
▁통째로	-15230
▁편에	-15231
가는구나	-15232
▁장벽	-15233
▁익숙	-15234
▁살길	-15235
▁취업자	-15236
▁블룸버그	-15237
▁미쳤다	-15238
▁말이냐	-15239
안된다	-15240
이야기	-15241
▁운영할	-15242
▁발언은	-15243
SJ	-15244
▁가능해	-15245
▁해준	-15246
▁이런기사	-15247
▁미뤄	-15248
▁청와대와	-15249
대변인은	-15250
만든	-15251
▁선관	-15252
▁농식품	-15253
▁운영에	-15254
▁성격이	-15255
을지	-15256
직에	-15257
▁불교	-15258
▁행사에는	-15259
▁개선이	-15260
BM	-15261
▁엉뚱한	-15262
▁빤	-15263
▁할말이	-15264
티어	-15265
▁전제	-15266
매를	-15267
▁대성	-15268
▁시행령	-15269
중앙회	-15270
더불어	-15271
▁자부	-15272
부끄	-15273
▁원거리	-15274
▁ᄅᄋ	-15275
▁딜러	-15276
▁대표로	-15277
▁신화	-15278
▁의혹과	-15279
어촌	-15280
▁연쇄	-15281
▁with	-15282
▁습득	-15283
▁정책의	-15284
▁공짜로	-15285
FC	-15286
▁방식이다	-15287
아침	-15288
▁극혐	-15289
▁작살	-15290
들지	-15291
▁올리지	-15292
▁작가가	-15293
플라	-15294
▁고개	-15295
▁위원장을	-15296
▁동서	-15297
▁미국산	-15298
▁살릴	-15299
▁미얀	-15300
되었다고	-15301
▁많다고	-15302
▁고백	-15303
▁공유하고	-15304
ho	-15305
▁던전	-15306
모비스	-15307
르르	-15308
▁3.5	-15309
▁누군지	-15310
▁전진	-15311
▁이색	-15312
▁비슷하게	-15313
성장을	-15314
▁성공적인	-15315
급식	-15316
▁인증을	-15317
▁지위를	-15318
도도	-15319
85	-15320
▁초월	-15321
일지	-15322
▁올라서	-15323
▁뺀	-15324
민을	-15325
베르	-15326
▁랜드	-15327
이거나	-15328
▁여당이	-15329
▁차량에	-15330
▁스마트시티	-15331
▁권력의	-15332
▁피해자는	-15333
설비	-15334
다보니	-15335
▁걸리면	-15336
어버리고	-15337
사키	-15338
▁낡	-15339
▁축적	-15340
센터에	-15341
▁배경으로	-15342
▁아산	-15343
▁문준	-15344
▁한중	-15345
▁대부분은	-15346
▁화를	-15347
▁단거리	-15348
▁7000	-15349
▁몇백	-15350
▁가슴에	-15351
▁지금처럼	-15352
▁희대의	-15353
▁클로	-15354
▁파이팅	-15355
▁하는짓이	-15356
▁휘발유	-15357
▁국제적	-15358
▁있겠지	-15359
▁이놈의	-15360
내내	-15361
▁숙청	-15362
▁락	-15363
▁눈물이	-15364
▁차이나	-15365
▁저것들	-15366
▁여부에	-15367
▁세븐	-15368
▁결정에	-15369
▁기원합니다	-15370
려구	-15371
▁기자들	-15372
▁국비	-15373
인인	-15374
으로서의	-15375
▁내게	-15376
▁올라온	-15377
▁홍남기	-15378
▁부풀	-15379
▁PM	-15380
▁앞바다	-15381
주체	-15382
▁현실적으로	-15383
▁헌신	-15384
▁획기	-15385
자들도	-15386
▁판단이	-15387
▁어려움이	-15388
▁내장	-15389
▁포스터	-15390
▁제조업체	-15391
러스터	-15392
▁서대문구	-15393
놈아	-15394
▁기체	-15395
커스	-15396
투를	-15397
▁혜택이	-15398
▁조성을	-15399
▁방안이	-15400
7.	-15401
캠프	-15402
셀러	-15403
그로	-15404
▁줍	-15405
여명	-15406
▁조준	-15407
차원	-15408
▁실질적	-15409
VP	-15410
위인	-15411
▁지켜보	-15412
▁학생들을	-15413
▁건물을	-15414
▁밀집	-15415
더리	-15416
▁내기	-15417
승리	-15418
지원을	-15419
▁명박	-15420
▁소개하고	-15421
수행	-15422
▁한발	-15423
HE	-15424
무죄	-15425
▁거주하는	-15426
▁새누리당	-15427
▁판정	-15428
업에	-15429
TI	-15430
▁지령	-15431
과장	-15432
청탁	-15433
▁갑니다	-15434
국적	-15435
▁1.4	-15436
▁마비	-15437
▁문재앙과	-15438
▁벌였다	-15439
▁찾아서	-15440
▁전체적인	-15441
마에	-15442
사진을	-15443
▁조센징	-15444
▁부진한	-15445
▁암튼	-15446
one	-15447
해야된다	-15448
▁지원에	-15449
실과	-15450
▁파손	-15451
▁노숙	-15452
▁찐	-15453
꺼번에	-15454
▁될지	-15455
생물	-15456
▁고객들이	-15457
▁장교	-15458
된거	-15459
▁하원	-15460
▁MM	-15461
무는	-15462
▁어디갔	-15463
을수	-15464
▁어설	-15465
▁출간	-15466
소수	-15467
▁MP	-15468
▁단체로	-15469
▁취하고	-15470
체류	-15471
▁360	-15472
▁치밀	-15473
▁현실이다	-15474
▁기간은	-15475
▁칼로	-15476
▁기무	-15477
▁않겠다는	-15478
▁야당은	-15479
▁경로	-15480
▁요약	-15481
▁바닥에	-15482
▁내용도	-15483
▁자칫	-15484
철이	-15485
▁법에	-15486
▁주변의	-15487
▁출시를	-15488
▁방역	-15489
▁화이트리스트	-15490
▁정전	-15491
▁송치	-15492
▁이집	-15493
▁같지	-15494
▁유령	-15495
▁아니니	-15496
▁나이에	-15497
▁중국발	-15498
▁선고했다	-15499
▁탄탄	-15500
▁고용노동부	-15501
총회에서	-15502
▁아니네	-15503
등한	-15504
▁쿠데	-15505
나오는	-15506
▁싶은데	-15507
▁객관적으로	-15508
▁이대	-15509
▁관리에	-15510
▁제목의	-15511
라기	-15512
▁제도가	-15513
▁공안	-15514
▁종부	-15515
▁전반적인	-15516
매김	-15517
시한	-15518
▁관련해서	-15519
년이다	-15520
▁color	-15521
▁딸을	-15522
▁모델이	-15523
▁보이지만	-15524
▁경위를	-15525
▁크로스	-15526
▁행안	-15527
환경을	-15528
▁금수저	-15529
▁권력에	-15530
▁조양호	-15531
▁여긴	-15532
▁대변인이	-15533
대왕	-15534
▁현대차는	-15535
▁인근에서	-15536
했다며	-15537
▁소득이	-15538
교체	-15539
▁상의	-15540
응원	-15541
▁아들은	-15542
▁보전	-15543
▁가격으로	-15544
지않는	-15545
행복	-15546
▁언니	-15547
▁아르바이트	-15548
나올	-15549
▁he	-15550
충전	-15551
함으로	-15552
▁성장이	-15553
...!	-15554
군수	-15555
▁개돼	-15556
▁수출이	-15557
▁업체인	-15558
심으로	-15559
▁결과적으로	-15560
스토어	-15561
▁고무	-15562
정하고	-15563
도어	-15564
왔습니다	-15565
ite	-15566
▁영문	-15567
▁안한	-15568
명령	-15569
병은	-15570
▁자리매김	-15571
청의	-15572
▁울산시	-15573
▁간담회에서	-15574
▁댄스	-15575
사람도	-15576
▁돼야	-15577
자들에	-15578
▁찔러	-15579
▁사용이	-15580
▁93	-15581
까리	-15582
▁뜻이	-15583
▁일간	-15584
▁부끄럽다	-15585
▁영향력을	-15586
박사	-15587
결과를	-15588
형에	-15589
▁전국이	-15590
▁검찰총장	-15591
▁습격	-15592
▁성남시	-15593
▁망하고	-15594
▁넷마블	-15595
▁실업자	-15596
▁법안을	-15597
▁MC	-15598
▁취지로	-15599
등에	-15600
귀포	-15601
▁눈높	-15602
▁좃선	-15603
아아	-15604
들까지	-15605
86	-15606
억을	-15607
▁쩔	-15608
▁딸은	-15609
▁휴식	-15610
▁파고	-15611
▁잠재적	-15612
▁사과하고	-15613
▁감각	-15614
▁캐릭터를	-15615
▁생겼네	-15616
ge	-15617
▁뱅	-15618
▁토론회	-15619
▁감추	-15620
▁진술을	-15621
라구	-15622
▁클리	-15623
▁연계해	-15624
▁전투기	-15625
그대로	-15626
▁꼽히는	-15627
▁단백	-15628
농협	-15629
▁중국도	-15630
▁걸리	-15631
▁허위사실	-15632
족을	-15633
▁경제도	-15634
▁이유도	-15635
▁YG	-15636
서부	-15637
▁유투	-15638
▁소득주도성장	-15639
▁긁	-15640
▁소울	-15641
▁이하로	-15642
▁고맙다	-15643
기한	-15644
▁브리핑을	-15645
▁공직선거	-15646
▁중학생	-15647
만개	-15648
▁방어력	-15649
▁꾀	-15650
▁유상	-15651
▁김의	-15652
어야한다	-15653
분부터	-15654
▁관심과	-15655
▁백수	-15656
다란	-15657
▁시원하게	-15658
▁수성	-15659
RI	-15660
대리	-15661
▁통치	-15662
기관에	-15663
둘러	-15664
네이버	-15665
.05	-15666
▁수확	-15667
치는데	-15668
▁불합	-15669
▁앞세워	-15670
▁적혀	-15671
동으로	-15672
▁7%	-15673
▁최하	-15674
▁개선에	-15675
▁과학기술정보통신부	-15676
LC	-15677
▁되서	-15678
씨에	-15679
▁금융감독원	-15680
로서는	-15681
▁도우	-15682
박살	-15683
창호	-15684
들갑	-15685
▁덕분	-15686
▁나타날	-15687
ance	-15688
였나	-15689
▁청정	-15690
연수	-15691
테이	-15692
▁적용할	-15693
▁보수의	-15694
▁샤오	-15695
답시고	-15696
▁미군철수	-15697
▁김정일	-15698
▁요시	-15699
▁통화에서	-15700
▁마이클	-15701
▁가난한	-15702
▁육박	-15703
▁한반도에	-15704
▁면상	-15705
다만	-15706
▁퇴임	-15707
▁적용된다	-15708
▁방식의	-15709
▁나발	-15710
▁알렉	-15711
▁돌대가리	-15712
▁대응할	-15713
제주	-15714
▁제시해	-15715
▁애로	-15716
▁특별히	-15717
▁이간	-15718
▁예쁘	-15719
▁세제	-15720
그룹이	-15721
▁관계없이	-15722
▁후보의	-15723
▁하이닉스	-15724
▁이어져	-15725
▁투자자의	-15726
자꾸	-15727
자랑	-15728
▁최후의	-15729
▁고래	-15730
▁당신을	-15731
bot	-15732
▁국민세금으로	-15733
루션을	-15734
변경	-15735
▁우울증	-15736
▁찍는	-15737
▁밝혀진	-15738
훈련을	-15739
쓰면	-15740
▁나오네	-15741
시간은	-15742
▁동북아	-15743
▁별개로	-15744
▁1.1	-15745
수고	-15746
▁어쩌구	-15747
이한	-15748
▁의원들은	-15749
주의를	-15750
▁신기술	-15751
▁일괄	-15752
발전을	-15753
라나	-15754
한거야	-15755
▁배우고	-15756
▁한꺼번에	-15757
▁사업장	-15758
▁저질러	-15759
▁자랑하는	-15760
났고	-15761
▁노는	-15762
요구	-15763
▁보내라	-15764
▁보도합니다	-15765
▁될듯	-15766
▁훗날	-15767
▁이슈가	-15768
▁박근혜는	-15769
▁후에도	-15770
놓는	-15771
무서	-15772
▁손해를	-15773
▁저소득층	-15774
▁브로	-15775
▁불법으로	-15776
▁돈에	-15777
개소	-15778
소연	-15779
저널	-15780
▁계획이라고	-15781
▁원으로	-15782
▁없으면서	-15783
▁하자고	-15784
▁하나은행	-15785
터널	-15786
▁무역분쟁	-15787
▁박지	-15788
민주화	-15789
이어서	-15790
▁1.8	-15791
▁시연	-15792
▁자폭	-15793
하곤	-15794
▁허허	-15795
▁철학	-15796
▁방위비	-15797
▁심상정	-15798
전부	-15799
▁점검하고	-15800
▁껍	-15801
중요	-15802
▁반박했다	-15803
▁다르지	-15804
▁동포	-15805
▁조사는	-15806
론은	-15807
브로	-15808
▁싶습니다	-15809
▁있을까요	-15810
▁최순	-15811
▁시간당	-15812
금리를	-15813
▁꼬집	-15814
▁내주	-15815
▁상용화	-15816
▁않는데	-15817
▁최고위원회의	-15818
▁달라진	-15819
리사	-15820
▁끼고	-15821
▁당당	-15822
덕에	-15823
위원장을	-15824
▁해줘야	-15825
▁셀프	-15826
▁바퀴벌레	-15827
▁송금	-15828
▁편향	-15829
▁만성	-15830
▁사라져	-15831
▁최고경영자	-15832
▁1996	-15833
돼서	-15834
드루킹	-15835
▁손쉽게	-15836
▁참여하고	-15837
▁닥터	-15838
▁지지한다	-15839
▁진상조사	-15840
▁비리가	-15841
선도	-15842
▁올라갈	-15843
▁파이낸셜	-15844
심에	-15845
▁군의	-15846
스트로	-15847
▁거는	-15848
▁제기된	-15849
편에서	-15850
호에	-15851
▁철새	-15852
▁도착한	-15853
▁예비후	-15854
▁보강	-15855
▁투자한	-15856
▁가담	-15857
▁가입자	-15858
▁능력은	-15859
맥주	-15860
▁이쪽	-15861
▁여경	-15862
▁이어진다	-15863
밸리	-15864
▁설립된	-15865
▁상해	-15866
▁발견됐다	-15867
조심	-15868
▁개한민국	-15869
▁팔아먹	-15870
▁남았다	-15871
▁비싸게	-15872
물과	-15873
▁감빵	-15874
▁우익	-15875
▁똑똑한	-15876
▁나타나고	-15877
소서	-15878
▁들먹	-15879
동에서	-15880
▁수험생	-15881
베트남	-15882
▁로그	-15883
▁많지만	-15884
▁들어올	-15885
▁폭이	-15886
라인을	-15887
▁해결하기	-15888
▁가족들이	-15889
▁랄	-15890
▁앞선	-15891
▁정계	-15892
▁밝혀졌다	-15893
▁않나요	-15894
년보다	-15895
▁댓글에	-15896
▁수두룩	-15897
▁삭감	-15898
▁사법농단	-15899
▁할아버지	-15900
ank	-15901
▁부사장	-15902
하가	-15903
▁늘어났다	-15904
▁올해로	-15905
▁AM	-15906
이요	-15907
▁과감	-15908
하다면	-15909
▁대학원	-15910
▁변호사가	-15911
▁사업이다	-15912
미칼	-15913
ult	-15914
▁역으로	-15915
▁대략	-15916
블리	-15917
▁일부는	-15918
ies	-15919
▁의원들	-15920
▁관절	-15921
ib	-15922
▁튜	-15923
지급	-15924
▁지갑	-15925
우와	-15926
BA	-15927
▁구별	-15928
마당	-15929
▁데스	-15930
▁예멘	-15931
▁평소에	-15932
▁무사히	-15933
▁현대모비스	-15934
국가가	-15935
▁여기까지	-15936
▁여는	-15937
▁아이러니	-15938
▁위헌	-15939
▁근처에	-15940
▁믿음	-15941
▁일일	-15942
▁담았다	-15943
세금으로	-15944
자금을	-15945
▁언론에서	-15946
▁지정된	-15947
▁이런일이	-15948
▁한건	-15949
▁지역별	-15950
▁쉽고	-15951
구장	-15952
▁,,	-15953
▁재임	-15954
▁트럼프의	-15955
▁법사	-15956
▁사외	-15957
▁법과	-15958
▁늦은	-15959
▁없는거	-15960
것인가	-15961
ull	-15962
▁피가	-15963
파리	-15964
▁논란에	-15965
▁꼴보기	-15966
▁생색	-15967
▁짓이	-15968
▁개누리	-15969
해줘야	-15970
▁나와야	-15971
▁서울시가	-15972
▁카드가	-15973
▁장치	-15974
▁터치	-15975
▁김승	-15976
▁중국몽	-15977
▁영유	-15978
▁심심	-15979
▁푸드	-15980
▁그립	-15981
▁마이너	-15982
▁펠	-15983
색으로	-15984
▁스텔	-15985
▁성실	-15986
▁무엇인가	-15987
▁바뀌고	-15988
▁회장을	-15989
업자득	-15990
▁정의가	-15991
uc	-15992
직업	-15993
▁너같은	-15994
하를	-15995
▁두루	-15996
▁책임질	-15997
인들을	-15998
▁방문객	-15999
▁선호하는	-16000
▁문화가	-16001
63	-16002
▁누가봐도	-16003
▁실어	-16004
▁시내버스	-16005
▁요구에	-16006
▁확보하고	-16007
▁아이들은	-16008
▁두들	-16009
▁여기가	-16010
▁원칙을	-16011
▁©	-16012
박람회	-16013
▁외계	-16014
▁직면	-16015
▁기다리는	-16016
당국	-16017
?.	-16018
▁올라가는	-16019
▁제주시	-16020
곡을	-16021
할거다	-16022
▁않았는데	-16023
토를	-16024
▁안남	-16025
저래	-16026
청과	-16027
▁워크숍	-16028
없나	-16029
▁여럿	-16030
었어요	-16031
▁거리에	-16032
▁노하우를	-16033
▁쎄	-16034
만원이다	-16035
봐서	-16036
▁진실은	-16037
▁바이러스	-16038
▁이글	-16039
▁그만좀	-16040
▁옴	-16041
공모	-16042
▁교수의	-16043
▁역사는	-16044
클래	-16045
▁신이	-16046
▁죽기	-16047
▁출연해	-16048
▁아이디어를	-16049
들에겐	-16050
▁우상	-16051
▁제기됐다	-16052
상황을	-16053
▁의원님	-16054
▁회담이	-16055
▁마지막에	-16056
▁450	-16057
▁서귀포	-16058
함의	-16059
▁태워	-16060
▁좋음	-16061
▁동영상을	-16062
▁말아먹고	-16063
공시	-16064
이란게	-16065
반도체	-16066
일차	-16067
▁91	-16068
▁싫어서	-16069
▁예금	-16070
▁명령을	-16071
▁포퓰리즘	-16072
▁올려라	-16073
84	-16074
▁여름철	-16075
edaily	-16076
▁이름의	-16077
▁키운	-16078
도없는	-16079
▁이뤄지고	-16080
▁메이저	-16081
▁때에는	-16082
못하게	-16083
▁이희	-16084
▁인정하지	-16085
▁탈당	-16086
▁차에	-16087
▁시속	-16088
▁경협	-16089
▁나가야	-16090
▁정체가	-16091
▁제공한	-16092
▁홈페이지에	-16093
궐선거	-16094
▁작업이	-16095
였지	-16096
줄을	-16097
▁눈으로	-16098
▁일요일	-16099
▁생각으로	-16100
관리를	-16101
▁표정	-16102
▁공급이	-16103
▁안타깝네요	-16104
▁보훈	-16105
▁즐기고	-16106
▁국정감	-16107
▁관리가	-16108
▁회사에서	-16109
▁내용으로	-16110
▁쳤	-16111
▁증가할	-16112
▁예산이	-16113
▁대법원장	-16114
▁위원회	-16115
▁자료에	-16116
▁쯤	-16117
▁연구소	-16118
▁수상한	-16119
의원은	-16120
가에서	-16121
▁사자	-16122
▁협정	-16123
▁연기를	-16124
제철	-16125
▁신차	-16126
▁안습	-16127
과제	-16128
▁되돌아	-16129
▁마녀사냥	-16130
할래	-16131
▁나란히	-16132
업계에	-16133
로나	-16134
▁실버	-16135
▁주장했습니다	-16136
피탈	-16137
▁합의에	-16138
▁달창들	-16139
▁좋았	-16140
▁시민들	-16141
▁절라도	-16142
▁계정	-16143
▁조씨	-16144
정권에	-16145
▁토크	-16146
▁벌여	-16147
▁원망	-16148
▁Com	-16149
매체	-16150
▁당을	-16151
▁외교적	-16152
▁나몰라라	-16153
oy	-16154
▁권장	-16155
법도	-16156
▁추가된	-16157
린다는	-16158
▁하다니	-16159
▁업종에	-16160
▁시계	-16161
▁긍정적으로	-16162
란이	-16163
▁서울고	-16164
이지요	-16165
▁그녀는	-16166
▁역할이	-16167
▁사임	-16168
▁증오	-16169
악의	-16170
대회에서	-16171
▁일대에서	-16172
▁ID	-16173
▁차려	-16174
▁율	-16175
변호	-16176
▁살수	-16177
▁사고는	-16178
상이다	-16179
변동	-16180
북한이	-16181
▁벌을	-16182
넘어	-16183
키를	-16184
▁잘해라	-16185
▁국가로	-16186
▁사립유치원	-16187
▁초중	-16188
▁국민적	-16189
▁당시의	-16190
▁영상이	-16191
▁있기를	-16192
▁준비한	-16193
▁학생들에게	-16194
▁면세점	-16195
▁동방	-16196
▁서민들은	-16197
▁부부가	-16198
▁소매	-16199
▁사물인터넷	-16200
▁독서	-16201
▁치안	-16202
▁원래는	-16203
담보	-16204
▁노력할	-16205
▁배우는	-16206
▁시기를	-16207
주나	-16208
저도	-16209
▁개정안을	-16210
▁까고	-16211
▁산학	-16212
▁이어갈	-16213
▁국무장관	-16214
▁이상인	-16215
▁부양	-16216
▁부상을	-16217
년차	-16218
▁보물	-16219
▁서식	-16220
▁소방당국은	-16221
▁줄을	-16222
▁채로	-16223
▁살아서	-16224
▁저질렀	-16225
▁만들려고	-16226
▁구역질	-16227
▁데이트	-16228
94	-16229
▁부평	-16230
▁그대	-16231
공사가	-16232
▁기술개발	-16233
▁이것들은	-16234
▁국회의원들	-16235
▁권력이	-16236
▁했더니	-16237
▁function	-16238
ics	-16239
같아	-16240
기간은	-16241
▁승인을	-16242
▁이어서	-16243
▁약화	-16244
▁날을	-16245
공동체	-16246
▁이득을	-16247
호와	-16248
▁수의	-16249
▁이땅	-16250
▁양질의	-16251
▁버는	-16252
▁제임	-16253
orm	-16254
▁구름	-16255
▁노선을	-16256
이하	-16257
ung	-16258
▁핏	-16259
북부	-16260
▁이화	-16261
페라	-16262
▁특사	-16263
▁초청해	-16264
▁대단히	-16265
▁실력을	-16266
▁자기네	-16267
운을	-16268
▁지킨	-16269
전도	-16270
▁문정	-16271
▁노리는	-16272
▁모두에게	-16273
시픽	-16274
▁일개	-16275
▁부의	-16276
▁등장했다	-16277
파의	-16278
▁불만이	-16279
~19	-16280
▁가톨릭	-16281
▁달콤	-16282
라이브	-16283
▁선거를	-16284
지않나	-16285
▁민낯	-16286
▁무거운	-16287
▁다행이다	-16288
특별위원회	-16289
정신차	-16290
▁사항을	-16291
연방	-16292
▁면서도	-16293
▁마련하고	-16294
▁세상은	-16295
드라마	-16296
▁초대형	-16297
▁가르쳐	-16298
▁늘릴	-16299
▁625	-16300
▁그룹의	-16301
▁공화당	-16302
업소	-16303
▁버릴	-16304
▁알수	-16305
▁달러를	-16306
▁상응	-16307
▁핵포기	-16308
자살	-16309
▁똑같네	-16310
▁You	-16311
▁것임	-16312
전국	-16313
▁de	-16314
▁도배	-16315
▁현수	-16316
▁알바들	-16317
짓은	-16318
▁한표	-16319
보디아	-16320
▁sedaily	-16321
▁소집	-16322
전망	-16323
르며	-16324
▁내밀	-16325
▁규정하고	-16326
수영	-16327
▁배불	-16328
▁CS	-16329
본부장은	-16330
발생	-16331
▁텔레콤은	-16332
정하게	-16333
일까요	-16334
▁반성하고	-16335
▁주위	-16336
믿고	-16337
▁시카	-16338
▁구급	-16339
▁고유정	-16340
▁단어를	-16341
▁DC	-16342
제작	-16343
▁중증	-16344
▁환경에	-16345
▁똘똘	-16346
▁패시브	-16347
="#	-16348
▁덧붙였습니다	-16349
살고	-16350
▁그다음	-16351
과를	-16352
기에는	-16353
청소	-16354
총을	-16355
▁김상조	-16356
▁템	-16357
▁기만	-16358
▁낫지	-16359
▁학력	-16360
▁법원에	-16361
NK	-16362
▁WSJ	-16363
▁김혜	-16364
토의	-16365
▁표현의	-16366
시원	-16367
▁중에서는	-16368
▁BB	-16369
▁모았다	-16370
▁이미지가	-16371
자에게는	-16372
나가고	-16373
▁묶어	-16374
전라도	-16375
▁제안을	-16376
▁학교를	-16377
▁달라는	-16378
▁국어	-16379
▁비위	-16380
▁차명	-16381
자라	-16382
▁번에	-16383
▁심재	-16384
▁이꼴	-16385
▁톤	-16386
▁유명하다	-16387
▁확대에	-16388
▁시의	-16389
▁직원을	-16390
류에	-16391
한거냐	-16392
품질	-16393
.09	-16394
▁가나	-16395
▁놀이터	-16396
▁내놓았다	-16397
▁터널	-16398
▁공개적으로	-16399
석의	-16400
▁사단	-16401
되었던	-16402
▁구는	-16403
되는게	-16404
▁힘든데	-16405
▁입장에선	-16406
▁성적을	-16407
▁많았	-16408
▁설치하고	-16409
▁다이아	-16410
▁비판하는	-16411
소설	-16412
▁어쩌다	-16413
▁투자의견은	-16414
드네	-16415
지금은	-16416
▁경우에도	-16417
▁보수를	-16418
▁매진	-16419
▁크림	-16420
▁멋대로	-16421
유로	-16422
▁가능성에	-16423
평창	-16424
▁소비자들의	-16425
청을	-16426
▁유진	-16427
▁북한만	-16428
▁때문이라고	-16429
채를	-16430
▁CF	-16431
모르는	-16432
▁구리	-16433
▁기술의	-16434
▁이해하고	-16435
▁진학	-16436
▁까발	-16437
장면	-16438
▁후임	-16439
일때	-16440
▁누구냐	-16441
▁대가로	-16442
재인	-16443
▁그런데도	-16444
hn	-16445
▁본격화	-16446
▁비슷하다	-16447
▁총리의	-16448
▁발병	-16449
▁많아요	-16450
▁사악한	-16451
▁측면에서는	-16452
코올	-16453
▁혁신성장	-16454
▁씨에게	-16455
▁울트라	-16456
할줄	-16457
하는것이	-16458
▁행동은	-16459
▁아일랜드	-16460
성동	-16461
▁아무튼	-16462
틀러	-16463
▁로버트	-16464
▁싣	-16465
사다	-16466
지켜	-16467
▁과태료	-16468
▁새끼들은	-16469
▁눈감	-16470
▁어울리는	-16471
▁작가는	-16472
인해	-16473
군데	-16474
▁해운대	-16475
▁감독의	-16476
▁자랑한다	-16477
▁투표를	-16478
▁크리스마스	-16479
▁불쾌	-16480
▁공표	-16481
▁가뭄	-16482
▁예비후보	-16483
▁발사체	-16484
▁친척	-16485
▁언론을	-16486
▁사퇴해라	-16487
▁소비자들이	-16488
▁그다지	-16489
▁된장	-16490
▁하겠냐	-16491
▁침투	-16492
▁빠는	-16493
▁아니잖아	-16494
▁수산물	-16495
인프라	-16496
▁뺨	-16497
▁220	-16498
▁채용비리	-16499
▁성관계	-16500
▁그림을	-16501
▁도데체	-16502
79	-16503
▁시너	-16504
▁안전사고	-16505
센티브	-16506
▁추출	-16507
▁광산	-16508
▁번도	-16509
▁오스트	-16510
▁입맛에	-16511
사업으로	-16512
▁연결하는	-16513
▁몇개	-16514
▁상고	-16515
▁기대가	-16516
▁1970	-16517
TC	-16518
▁사운드	-16519
골을	-16520
제일	-16521
▁단점	-16522
▁뻗	-16523
▁압박을	-16524
할것이다	-16525
▁당국이	-16526
▁여사가	-16527
▁댓글부대	-16528
바랍니다	-16529
▁한나라당	-16530
▁퇴진	-16531
▁있으	-16532
▁강서구	-16533
▁확인된	-16534
▁김정은은	-16535
▁했다면	-16536
규칙	-16537
▁▼	-16538
소시효	-16539
▁출현	-16540
▁진작에	-16541
IM	-16542
▁빼면	-16543
미수	-16544
▁있겠냐	-16545
▁이도	-16546
▁광고를	-16547
산업단지	-16548
▁벚꽃	-16549
▁것이냐	-16550
▁우연히	-16551
▁껴	-16552
▁최적의	-16553
할수있는	-16554
▁바다에	-16555
▁전년대비	-16556
싫어	-16557
진당	-16558
노동자	-16559
▁다각	-16560
▁귀를	-16561
▁인상이	-16562
▁입양	-16563
대면	-16564
씨도	-16565
▁전년보다	-16566
▁얼마든지	-16567
▁다를게	-16568
▁형편	-16569
년여	-16570
까지의	-16571
방울	-16572
▁상담을	-16573
▁렉	-16574
▁안성	-16575
▁청취	-16576
렸으면	-16577
▁원한다	-16578
▁수원시	-16579
▁트윗	-16580
▁주인공이	-16581
▁공동주택	-16582
▁종목은	-16583
소환	-16584
▁때보다	-16585
것에	-16586
질하는	-16587
▁검사가	-16588
▁넘어가는	-16589
▁모아서	-16590
배에	-16591
▁제품이다	-16592
▁망한	-16593
▁망치고	-16594
▁스킬을	-16595
기간을	-16596
▁휩싸	-16597
▁부위원장	-16598
금도	-16599
▁천국	-16600
▁서울특별	-16601
▁감형	-16602
▁있잖아	-16603
▁러시아가	-16604
▁ᄎ	-16605
▁향상을	-16606
▁101	-16607
▁체계를	-16608
자리에서	-16609
▁치면	-16610
▁살아온	-16611
우며	-16612
총선	-16613
▁쓰레기가	-16614
▁입주민	-16615
하던가	-16616
▁같지만	-16617
▁쳐먹고	-16618
▁롯데마트	-16619
받았	-16620
▁공격이	-16621
▁드러냈다	-16622
▁작성했습니다	-16623
놈도	-16624
▁대갈	-16625
▁떠넘	-16626
▁신작	-16627
간을	-16628
▁의원회관에서	-16629
▁염두에	-16630
지옥	-16631
▁소통을	-16632
가리고	-16633
▁청주시	-16634
▁관련해서는	-16635
지역은	-16636
▁김관영	-16637
▁가증	-16638
▁북미회담	-16639
▁예정이며	-16640
▁증정한다	-16641
왔고	-16642
▁일원	-16643
▁교육이	-16644
▁보건복지부	-16645
▁원본	-16646
▁환경에서	-16647
▁적용된	-16648
▁편의를	-16649
▁있어야지	-16650
▁형식으로	-16651
심판	-16652
젊은	-16653
천명	-16654
▁발송	-16655
▁싶네요	-16656
▁싸우고	-16657
게요	-16658
겟네	-16659
달고	-16660
▁국가정보	-16661
▁교장	-16662
▁안티	-16663
소시엄	-16664
▁마디	-16665
▁할텐데	-16666
▁낙동강	-16667
▁생각만	-16668
상가	-16669
것임	-16670
켰다	-16671
▁버텨	-16672
▁외노	-16673
▁솔루션을	-16674
실의	-16675
올리고	-16676
▁친절	-16677
ayer	-16678
파티	-16679
▁우회	-16680
▁차로	-16681
▁장거리	-16682
▁마포	-16683
▁비참	-16684
▁벌이는	-16685
▁Se	-16686
인지를	-16687
▁선거법	-16688
▁감사를	-16689
▁고전	-16690
리온	-16691
▁힘없는	-16692
세습	-16693
▁출신으로	-16694
▁그때는	-16695
▁반격	-16696
▁심판을	-16697
▁압도적인	-16698
▁해적	-16699
▁수술을	-16700
▁동아시아	-16701
▁아이의	-16702
▁판매량	-16703
▁사생활	-16704
▁시바	-16705
▁읽는	-16706
▁국정조사	-16707
▁업계의	-16708
참모	-16709
묘한	-16710
▁박차를	-16711
▁6%	-16712
▁대림	-16713
▁해피	-16714
▁상승하고	-16715
▁개돼지들이	-16716
▁상하	-16717
건설은	-16718
▁감독은	-16719
▁사형시켜라	-16720
▁출신인	-16721
▁성능이	-16722
▁재학생	-16723
▁창원시	-16724
르가	-16725
편으로	-16726
▁돌고	-16727
▁베를	-16728
날을	-16729
니지	-16730
미에	-16731
▁05	-16732
▁이인영	-16733
▁부정부패	-16734
orld	-16735
▁나왔습니다	-16736
▁김무성	-16737
남의	-16738
▁일부가	-16739
게는	-16740
▁군대를	-16741
▁고지	-16742
▁벗어나지	-16743
▁여자들은	-16744
▁어드	-16745
제거	-16746
ime	-16747
▁컨테이너	-16748
▁묻자	-16749
▁지키지	-16750
▁트위터에	-16751
▁커넥	-16752
▁아라	-16753
▁포함돼	-16754
▁3,	-16755
▁처방	-16756
▁나오기	-16757
▁노트북	-16758
▁랜덤	-16759
▁건가요	-16760
▁말하지	-16761
▁호들갑	-16762
▁맺은	-16763
▁감성팔이	-16764
▁정치인들이	-16765
▁슬픔	-16766
▁병사	-16767
토막	-16768
▁항구	-16769
▁분노를	-16770
▁보도했습니다	-16771
▁이용하여	-16772
▁펫	-16773
▁Te	-16774
~~~~~~	-16775
89	-16776
▁비고	-16777
플랫폼	-16778
▁sh	-16779
▁발암	-16780
문화를	-16781
없게	-16782
오카	-16783
▁광장에서	-16784
▁ᄆᄎ	-16785
월과	-16786
▁미친거	-16787
▁살리는	-16788
▁로드맵	-16789
▁유지되고	-16790
▁쏜	-16791
▁두둔	-16792
안한	-16793
▁레어	-16794
▁로스쿨	-16795
▁뒷통수	-16796
일보는	-16797
;;;;	-16798
▁바가지	-16799
▁대권	-16800
는거고	-16801
▁말라는	-16802
▁남경필	-16803
치킨	-16804
▁자발적으로	-16805
▁대원	-16806
▁매트	-16807
순이	-16808
랬다	-16809
▁거울	-16810
▁총선때	-16811
▁응모	-16812
질하고	-16813
▁필드	-16814
드립	-16815
고와	-16816
▁뭘까	-16817
▁우버	-16818
▁국민은행	-16819
▁국민투표	-16820
▁마크롱	-16821
▁너희가	-16822
▁주방	-16823
▁한미일	-16824
▁들어서는	-16825
▁있거나	-16826
GB	-16827
서치	-16828
▁이뤄진다	-16829
▁마니	-16830
▁상대의	-16831
div	-16832
▁브루	-16833
▁다큐	-16834
▁암흑	-16835
▁움직임을	-16836
▁5.	-16837
▁하이브리드	-16838
▁포스트	-16839
하던지	-16840
▁지긋지긋	-16841
아이가	-16842
▁면에서	-16843
좋게	-16844
투명	-16845
뉴스봇	-16846
▁모두를	-16847
▁서경뉴스봇	-16848
▁newsbot	-16849
지휘	-16850
드리고	-16851
▁세번째	-16852
일수록	-16853
ctv	-16854
▁패러디	-16855
▁전해졌습니다	-16856
먹어	-16857
▁고성능	-16858
▁컷	-16859
▁아이들에게	-16860
▁여동생	-16861
▁청와대의	-16862
시안	-16863
▁파생	-16864
▁한류	-16865
▁엽	-16866
없냐	-16867
전투	-16868
더러운	-16869
대사관	-16870
군인	-16871
▁스폰	-16872
▁승용차	-16873
▁박멸	-16874
단체가	-16875
협회는	-16876
▁제공된다	-16877
▁방화	-16878
기관인	-16879
는다면	-16880
▁가득한	-16881
▁결정이	-16882
실질	-16883
▁여성들이	-16884
때문이다	-16885
편은	-16886
▁명확한	-16887
폴리오	-16888
▁위치에	-16889
▁지디	-16890
▁이의	-16891
▁정화	-16892
안하면	-16893
숟가락	-16894
▁주장한	-16895
▁이세	-16896
▁기술력을	-16897
▁경제보복	-16898
렌즈	-16899
포터	-16900
▁핵개발	-16901
▁쇼를	-16902
그걸	-16903
지연	-16904
▁자격증	-16905
급을	-16906
▁업체는	-16907
▁ᄏᄏᄏᄏᄏᄏᄏᄏᄏᄏᄏ	-16908
▁민감한	-16909
▁저런거	-16910
▁쳐넣	-16911
트럭	-16912
▁맞물	-16913
교도	-16914
▁노골	-16915
▁핵심은	-16916
찍고	-16917
▁정상은	-16918
위치	-16919
▁높을	-16920
해야하는	-16921
▁......	-16922
▁해당한다	-16923
모터	-16924
해보면	-16925
▁(200	-16926
▁참여한다	-16927
그것도	-16928
▁낳고	-16929
조달	-16930
▁저능	-16931
▁소액	-16932
▁종목과	-16933
▁총재	-16934
▁봤을	-16935
셔요	-16936
퍼니	-16937
플랜	-16938
▁실력이	-16939
▁문빠들	-16940
개도	-16941
▁않으면서	-16942
타입	-16943
속성	-16944
▁농담	-16945
기사가	-16946
▁그러한	-16947
▁새키	-16948
▁진동	-16949
▁여파로	-16950
▁생중계	-16951
▁맞으면	-16952
▁토끼	-16953
말라	-16954
▁신재	-16955
▁이기적인	-16956
▁위키	-16957
▁썩어빠진	-16958
▁제기했다	-16959
▁스포	-16960
슬러	-16961
▁안중에도	-16962
너는	-16963
▁유영	-16964
▁협상에	-16965
잖은	-16966
비드	-16967
▁굵	-16968
조각	-16969
중단	-16970
코인	-16971
합병	-16972
▁삼성의	-16973
▁매장에서	-16974
고만	-16975
설치	-16976
▁공론화	-16977
▁증가로	-16978
집어	-16979
ary	-16980
▁아닥	-16981
▁것들을	-16982
▁만일	-16983
이미지	-16984
▁심신미약	-16985
▁찢어	-16986
▁임종	-16987
▁선거운동	-16988
▁나쁘지	-16989
▁이뤄지는	-16990
▁공소	-16991
▁나왔는데	-16992
▁투자하는	-16993
공식이	-16994
▁기대할	-16995
▁저런게	-16996
▁분단	-16997
▁방안에	-16998
▁국방장관	-16999
▁호의	-17000
▁어렵다고	-17001
▁구석	-17002
▁정론	-17003
▁싸움을	-17004
▁드러내고	-17005
▁지난해보다	-17006
▁보여줄	-17007
▁바른정당	-17008
▁시흥	-17009
ug	-17010
▁결과다	-17011
▁땜에	-17012
▁선별	-17013
대다	-17014
인지라	-17015
▁간절히	-17016
▁중장	-17017
▁넘어갈	-17018
76	-17019
▁공정하게	-17020
▁연평균	-17021
화물	-17022
▁용납	-17023
셨으면	-17024
응답	-17025
▁뽕	-17026
▁cm	-17027
▁엘리트	-17028
▁울릉	-17029
▁겨냥한	-17030
▁지저	-17031
▁위험대비	-17032
▁대동	-17033
▁너희들은	-17034
▁먹고살	-17035
▁맞나	-17036
통과	-17037
▁중국으로	-17038
▁종결	-17039
▁항복	-17040
▁인정한	-17041
찰을	-17042
▁스승	-17043
백화	-17044
▁은평	-17045
브리핑	-17046
가냐	-17047
▁돌이	-17048
식당	-17049
▁하지않	-17050
▁나가면	-17051
▁삼성전자의	-17052
▁현지시각	-17053
▁쓰레기들이	-17054
▁격추	-17055
▁무제한	-17056
생성	-17057
★★	-17058
ink	-17059
▁배워	-17060
실패	-17061
▁정면	-17062
효과가	-17063
▁집합	-17064
▁활용하는	-17065
나나	-17066
▁김영삼	-17067
센터가	-17068
▁불의	-17069
▁할배	-17070
▁되야	-17071
▁경제와	-17072
▁안보고	-17073
▁모으고	-17074
▁추악한	-17075
▁시간도	-17076
잔치	-17077
▁임무를	-17078
▁가능하고	-17079
절차	-17080
▁대상에	-17081
▁찾았다	-17082
경비	-17083
▁세웠다	-17084
공이	-17085
기간에	-17086
▁결과로	-17087
▁경부	-17088
▁개돼지들은	-17089
▁방산	-17090
▁출자	-17091
▁한국당의	-17092
▁평가다	-17093
▁미북	-17094
스톤	-17095
▁살았	-17096
불이	-17097
▁발음	-17098
▁상급	-17099
▁span	-17100
▁담합	-17101
나라에	-17102
▁여부는	-17103
▁수상했다	-17104
식도	-17105
▁논쟁	-17106
▁잘만	-17107
발언	-17108
▁찾아가는	-17109
▁붐	-17110
차전	-17111
▁인재를	-17112
▁추운	-17113
▁me	-17114
▁장담	-17115
▁탈취	-17116
▁계시	-17117
▁너를	-17118
▁비율을	-17119
▁조직을	-17120
▁추진을	-17121
새끼들이	-17122
▁찍을	-17123
들과는	-17124
댕이	-17125
▁기적	-17126
▁발생한다	-17127
▁검찰총	-17128
▁우위를	-17129
cho	-17130
했더니	-17131
▁깨어	-17132
▁국영	-17133
▁쪽이	-17134
▁토로	-17135
하락	-17136
혹한	-17137
▁생리	-17138
▁항만	-17139
▁출마를	-17140
▁짠	-17141
▁2~3	-17142
-10	-17143
▁상여	-17144
스틱	-17145
▁나눈	-17146
▁날로	-17147
▁우리은행	-17148
루를	-17149
▁문제야	-17150
될듯	-17151
탄압	-17152
차관	-17153
▁비타민	-17154
▁그러자	-17155
▁시기가	-17156
▁탈세	-17157
상관	-17158
주길	-17159
▁자고	-17160
▁신속히	-17161
▁귀신	-17162
▁행위는	-17163
▁도와주는	-17164
▁터트	-17165
▁실시했다	-17166
▁음악을	-17167
▁갤러리	-17168
▁공부를	-17169
▁주가의	-17170
▁다할	-17171
▁사이가	-17172
▁수요를	-17173
▁먹지	-17174
▁넷플	-17175
▁비유	-17176
▁애도	-17177
▁많으니	-17178
▁나팔	-17179
시에는	-17180
▁그치	-17181
74	-17182
▁엔터테인먼트	-17183
께요	-17184
▁베르	-17185
▁두각을	-17186
▁꿰	-17187
▁이야기는	-17188
강점	-17189
▁맞는데	-17190
▁스프링	-17191
▁짜증난다	-17192
지도않	-17193
빨아	-17194
▁여사	-17195
▁좋겠어요	-17196
▁쓰레기를	-17197
였다면	-17198
▁안전관리	-17199
▁레스토	-17200
▁달리는	-17201
▁특활비	-17202
LA	-17203
▁후예	-17204
▁서울을	-17205
침해	-17206
▁나라와	-17207
녀가	-17208
▁、	-17209
▁MD	-17210
안함	-17211
▁관악	-17212
들로부터	-17213
▁시원한	-17214
▁뿌려	-17215
사업이	-17216
▁이루어진	-17217
▁그에게	-17218
▁워터	-17219
▁짓밟	-17220
▁신인	-17221
공원에서	-17222
▁한국경제신문	-17223
HO	-17224
그때	-17225
▁못함	-17226
는거임	-17227
▁임시정부	-17228
▁편한	-17229
▁심어	-17230
문으로	-17231
▁오세훈	-17232
하는걸	-17233
▁헷	-17234
▁바가	-17235
▁커다란	-17236
▁SA	-17237
▁반대를	-17238
▁돌아서	-17239
▁살해한	-17240
▁jtbc	-17241
버스터	-17242
▁죄없는	-17243
▁죄인	-17244
~~^^	-17245
이라이트	-17246
73	-17247
▁백색	-17248
▁살림	-17249
▁한자	-17250
▁회장과	-17251
)'	-17252
▁줬다	-17253
▁공산국가	-17254
비어	-17255
▁추격	-17256
법안	-17257
▁오바마	-17258
▁사망자	-17259
하고있다	-17260
▁김형	-17261
▁문재인도	-17262
▁박람회	-17263
▁열대	-17264
▁하던가	-17265
▁사료	-17266
▁법원행정처	-17267
▁탄도미사일	-17268
▁문희상	-17269
▁기절	-17270
▁미국인	-17271
것지	-17272
거죠	-17273
▁없어질	-17274
▁아름다	-17275
나눔	-17276
▁밝혀야	-17277
▁중이던	-17278
통신은	-17279
▁알겠다	-17280
▁다채로운	-17281
▁의원들의	-17282
▁신경을	-17283
▁파주시	-17284
▁중요성을	-17285
▁따르	-17286
▁누구는	-17287
▁펑펑	-17288
▁완벽하게	-17289
▁뽑을	-17290
▁댓글알바	-17291
▁장점이	-17292
)/	-17293
▁확보해	-17294
▁NO	-17295
▁오프닝	-17296
▁보도를	-17297
의무	-17298
.20	-17299
▁귀엽	-17300
LO	-17301
우드	-17302
▁양의	-17303
지역에서	-17304
워요	-17305
읍니다	-17306
▁동의를	-17307
▁내려와라	-17308
에휴	-17309
▁기뻐	-17310
▁Me	-17311
▁구호를	-17312
▁되니까	-17313
▁방문하는	-17314
▁교육부는	-17315
▁책임지는	-17316
▁1987	-17317
▁모금	-17318
▁외곽	-17319
▁김의겸	-17320
에라이	-17321
▁좌파가	-17322
▁사양	-17323
▁치료제	-17324
▁확보할	-17325
▁쓰레기같은	-17326
법무	-17327
나라에서	-17328
▁0.1%	-17329
▁정성	-17330
▁약을	-17331
기자가	-17332
▁부유	-17333
▁신재생	-17334
하우	-17335
▁조차	-17336
▁온도	-17337
▁물러나라	-17338
▁쌓여	-17339
▁확대하는	-17340
▁고로	-17341
▁남자들은	-17342
▁겪은	-17343
▁지배구조	-17344
▁고노	-17345
작품	-17346
▁인센티브	-17347
▁복용	-17348
군으로	-17349
월의	-17350
▁실습	-17351
▁갖췄다	-17352
▁임금을	-17353
껀데	-17354
▁알면	-17355
▁불평등	-17356
.08	-17357
▁인간들아	-17358
잡기	-17359
▁발전소	-17360
▁불렀	-17361
사원	-17362
▁폄	-17363
▁광장	-17364
▁방문을	-17365
▁시너지	-17366
입학	-17367
▁소홀	-17368
▁4.3	-17369
▁안믿	-17370
▁쿠팡	-17371
▁참가해	-17372
▁근무하는	-17373
받기	-17374
대책을	-17375
▁주파	-17376
▁유튜버	-17377
▁금호타이어	-17378
▁이방	-17379
▁부들부들	-17380
공약	-17381
▁장기적으로	-17382
▁김지은	-17383
▁투자점수	-17384
▁확보했다	-17385
(,	-17386
▁작품이	-17387
▁총리와	-17388
▁통일이	-17389
▁넘들이	-17390
▁많았고	-17391
▁문제지만	-17392
▁불필요한	-17393
인지도	-17394
보조	-17395
▁없다며	-17396
바가	-17397
▁일한	-17398
강한	-17399
▁건보	-17400
▁차등	-17401
▁포상	-17402
▁01	-17403
▁탱크	-17404
▁응시	-17405
▁어쩜	-17406
▁하얀	-17407
▁협조를	-17408
▁공소시효	-17409
▁아르헨티나	-17410
▁미용	-17411
▁헬스케어	-17412
▁종북좌파	-17413
셨다	-17414
▁받았고	-17415
다들	-17416
▁무대에	-17417
▁냉동	-17418
▁여왕	-17419
체크	-17420
▁언플	-17421
워치	-17422
▁전통시장	-17423
▁사야	-17424
▁결혼을	-17425
▁기억을	-17426
▁전남도	-17427
▁현충	-17428
▁여러모로	-17429
▁우라	-17430
▁모빌리티	-17431
▁부회장이	-17432
▁얇	-17433
주면서	-17434
▁트래	-17435
▁개최를	-17436
보겠습니다	-17437
▁우정	-17438
▁전산	-17439
아파	-17440
▁문체	-17441
▁결정한	-17442
▁크루즈	-17443
▁말이되냐	-17444
해볼	-17445
중소기업	-17446
다니고	-17447
~4	-17448
직이	-17449
우니	-17450
▁시간과	-17451
▁움직임이	-17452
▁공동체	-17453
▁없었다고	-17454
▁시에	-17455
▁신안	-17456
▁부산의	-17457
뭐가	-17458
▁돌진	-17459
호로	-17460
▁경북도	-17461
▁준비했다	-17462
▁보좌관	-17463
▁금액을	-17464
▁도적	-17465
넘들이	-17466
해야만	-17467
▁이것들	-17468
▁버릇	-17469
걸음	-17470
▁주장에	-17471
▁자신도	-17472
▁같다고	-17473
맞아	-17474
▁아야	-17475
▁대안을	-17476
천억원	-17477
▁태풍이	-17478
▁범죄가	-17479
▁2.3	-17480
▁공급하는	-17481
번의	-17482
▁아쉬움을	-17483
▁지시를	-17484
올린	-17485
▁살던	-17486
▁인접	-17487
▁급격한	-17488
부정	-17489
▁호응을	-17490
▁정신좀	-17491
▁무방	-17492
▁김광	-17493
같음	-17494
▁대행	-17495
▁나라꼴이	-17496
있었다	-17497
▁금융위	-17498
▁로맨	-17499
▁익산	-17500
지던	-17501
▁하고는	-17502
▁직원들의	-17503
▁관종	-17504
이구만	-17505
▁정책과	-17506
▁남기고	-17507
▁투자공식이	-17508
▁적법	-17509
▁폭풍	-17510
▁망치는	-17511
▁들통	-17512
▁민감	-17513
주는데	-17514
▁기업가	-17515
EM	-17516
▁반사	-17517
▁배고	-17518
ES	-17519
▁속아	-17520
▁차량은	-17521
▁바뀌는	-17522
▁조작질	-17523
링을	-17524
▁아까운	-17525
▁-1	-17526
▁최저임금을	-17527
▁한국으로	-17528
▁일일이	-17529
명씩	-17530
▁엔지니	-17531
▁새마을	-17532
▁유키	-17533
▁안그래도	-17534
수소	-17535
히게	-17536
▁등산	-17537
▁레인	-17538
▁없는지	-17539
▁부르고	-17540
당국이	-17541
▁도입한	-17542
기회에	-17543
▁정관	-17544
▁봉사활동	-17545
▁플래그	-17546
▁캠핑	-17547
이나마	-17548
▁스피드	-17549
만원에서	-17550
ix	-17551
일가	-17552
▁앞잡이	-17553
▁맞습니다	-17554
▁여건	-17555
▁채팅	-17556
▁트로	-17557
▁한국투자증권	-17558
▁에효	-17559
바겐	-17560
▁집구석	-17561
텍스	-17562
활성	-17563
▁해가	-17564
▁선거때	-17565
확대	-17566
퀘어	-17567
▁안하	-17568
등으로	-17569
▁ch	-17570
▁논평	-17571
▁아들을	-17572
▁조치에	-17573
▁위해서라도	-17574
▁터질	-17575
미와	-17576
▁전대	-17577
▁쳐들어	-17578
디움	-17579
▁20190	-17580
▁공룡	-17581
▁정선	-17582
상환	-17583
러드	-17584
즈키	-17585
▁뜻하는	-17586
▁상태에	-17587
▁파이터	-17588
겨울	-17589
▁노동조합	-17590
▁호위	-17591
속을	-17592
▁커서	-17593
▁2023	-17594
▁참여연대	-17595
단위	-17596
▁추이를	-17597
▁스트리	-17598
대기업	-17599
▁틀딱들	-17600
▁생애	-17601
▁보태	-17602
▁정권에서	-17603
궁창	-17604
▁해봐야	-17605
▁오늘의	-17606
셔츠	-17607
▁여적	-17608
가가치	-17609
▁끼리끼리	-17610
▁월간	-17611
구도	-17612
션이	-17613
▁부모의	-17614
적으로도	-17615
▁메탈	-17616
▁자처	-17617
시에서	-17618
▁왕복	-17619
▁일자리는	-17620
▁쿨타임	-17621
▁원인으로	-17622
▁문재앙의	-17623
▁청문회를	-17624
▁>	-17625
▁악랄	-17626
▁져야	-17627
▁업적	-17628
▁이들에게	-17629
경궁	-17630
▁살인사건	-17631
립시다	-17632
▁강조한	-17633
커녕	-17634
▁포기한	-17635
▁감정이	-17636
▁소리는	-17637
rom	-17638
▁문준용	-17639
▁대면	-17640
▁들어가고	-17641
▁충실	-17642
▁돕고	-17643
▁편리하게	-17644
▁연기가	-17645
▁문제점을	-17646
중인데	-17647
▁발악을	-17648
ok	-17649
비전	-17650
부패	-17651
▁약점	-17652
댄다	-17653
▁춥	-17654
▁만들겠다	-17655
▁김문수	-17656
▁집사	-17657
▁노원	-17658
▁지적이다	-17659
▁캄보디아	-17660
▁못하냐	-17661
▁실업률	-17662
▁교훈	-17663
▁장외	-17664
▁양심도	-17665
▁우려도	-17666
▁흩	-17667
▁다양하게	-17668
▁이철	-17669
한다며	-17670
참사	-17671
▁공간이	-17672
▁주관하는	-17673
운송	-17674
▁2.2	-17675
▁Su	-17676
▁환율은	-17677
방의	-17678
▁돕기	-17679
▁이식	-17680
▁그걸로	-17681
▁아침부터	-17682
▁파격	-17683
진출	-17684
려니	-17685
▁필터	-17686
병에	-17687
▁무리한	-17688
데기	-17689
▁설문조사	-17690
▁인사하고	-17691
▁떠나는	-17692
78	-17693
▁그쪽	-17694
▁우병	-17695
▁결합해	-17696
▁없잖아	-17697
▁활동이	-17698
orea	-17699
▁상정	-17700
▁챌	-17701
▁반대하고	-17702
▁처벌해야	-17703
▁신촌	-17704
사실을	-17705
했어야	-17706
wik	-17707
▁영변	-17708
▁그러는	-17709
▁체결한	-17710
▁FI	-17711
▁전문가들이	-17712
▁240	-17713
드래곤	-17714
▁『	-17715
▁유흥	-17716
▁상인	-17717
▁되는게	-17718
방사	-17719
▁존재하지	-17720
▁일가	-17721
▁제안한	-17722
디스플레이	-17723
데요	-17724
▁요청을	-17725
▁양파	-17726
der	-17727
▁북한과의	-17728
▁출동한	-17729
▁설립한	-17730
▁부문에서	-17731
제국	-17732
▁하고싶은	-17733
▁북이	-17734
▁실수로	-17735
▁처우	-17736
▁De	-17737
▁법도	-17738
▁처참	-17739
수다	-17740
미안	-17741
습기	-17742
▁어우러	-17743
▁협회	-17744
▁하이라이트	-17745
▁변호인	-17746
명에서	-17747
▁분야를	-17748
▁이것들이	-17749
▁축산	-17750
카드를	-17751
한텐	-17752
▁추가바람	-17753
▁특권	-17754
▁미분양	-17755
▁지급하는	-17756
▁인정할	-17757
면의	-17758
▁한국인이	-17759
▁들아	-17760
▁신사	-17761
지정	-17762
▁공화국	-17763
▁아파트를	-17764
▁양식	-17765
▁걸친	-17766
▁기아차	-17767
▁높아진	-17768
▁이원	-17769
분할	-17770
▁지지율은	-17771
▁최장	-17772
▁발언이	-17773
란스	-17774
▁거둔	-17775
▁썬	-17776
▁강수	-17777
한심한	-17778
▁타다	-17779
▁안정성	-17780
최대	-17781
▁비무장	-17782
▁행위가	-17783
▁한마디도	-17784
었을까	-17785
▁시작해서	-17786
▁자금이	-17787
▁억압	-17788
▁신성	-17789
▁레스토랑	-17790
▁sk	-17791
▁그녀를	-17792
그럴	-17793
물어	-17794
▁랭킹	-17795
▁목적을	-17796
▁역겹	-17797
▁체제를	-17798
님도	-17799
ᄍᄍᄍᄍ	-17800
주라	-17801
▁입이	-17802
▁싫고	-17803
롭지	-17804
▁보도가	-17805
미국이	-17806
▁슬픈	-17807
분으로	-17808
▁개회	-17809
▁오라	-17810
▁평일	-17811
▁얼마전	-17812
드나	-17813
주군	-17814
▁미화	-17815
▁마술	-17816
▁휩쓸	-17817
▁문슬람들	-17818
▁짭	-17819
▁학교가	-17820
▁본인들	-17821
▁Pl	-17822
면제	-17823
▁모스크	-17824
▁종합적으로	-17825
▁시험을	-17826
▁참석하고	-17827
급이	-17828
▁귀환	-17829
▁찌그러	-17830
투리	-17831
▁극히	-17832
▁쿄	-17833
기간이	-17834
▁아파트는	-17835
▁남북한	-17836
▁미스터	-17837
▁영화가	-17838
.!	-17839
▁연말까지	-17840
수아	-17841
당한다	-17842
▁꿈꾸는	-17843
▁경기는	-17844
▁세무조사	-17845
▁동남	-17846
▁내용과	-17847
▁공급을	-17848
만명의	-17849
포가	-17850
▁항암	-17851
분기에	-17852
세도	-17853
▁침수	-17854
님께서	-17855
▁자업자득	-17856
▁닉	-17857
▁커졌다	-17858
▁이럴때	-17859
걸리	-17860
---	-17861
하였으며	-17862
▁탈을	-17863
▁되풀이	-17864
붙어	-17865
▁왕이	-17866
▁체납	-17867
ah	-17868
▁안정을	-17869
▁하루종일	-17870
▁준다고	-17871
▁합니까	-17872
▁역사적인	-17873
경의	-17874
▁예상됩니다	-17875
▁지속될	-17876
죽일	-17877
해체	-17878
▁주연	-17879
바꿔	-17880
손실	-17881
무조건	-17882
▁챙기고	-17883
▁혁신적인	-17884
님과	-17885
▁!!!!	-17886
▁건강에	-17887
▁더럽다	-17888
▁인물이다	-17889
하셨습니다	-17890
리지말고	-17891
길로	-17892
▁베를린	-17893
▁죽여야	-17894
▁IBK	-17895
▁원격	-17896
▁독려	-17897
은거	-17898
▁쥐고	-17899
스트리트	-17900
▁정상회의	-17901
▁출하	-17902
▁했다가	-17903
여당	-17904
▁신고가	-17905
국대	-17906
라와	-17907
▁에너지를	-17908
▁의미다	-17909
▁모텔	-17910
▁유람	-17911
▁만들자	-17912
▁죽지	-17913
▁리플	-17914
나베	-17915
▁감사의	-17916
▁희망하는	-17917
▁뒤에는	-17918
▁화력	-17919
▁아파트가	-17920
▁오름	-17921
▁높다는	-17922
▁하이닉	-17923
▁싸고	-17924
우파	-17925
▁시켜서	-17926
업은	-17927
연료	-17928
▁적용되는	-17929
▁다뤄	-17930
모레	-17931
▁서울로	-17932
▁전망입니다	-17933
▁정글	-17934
▁긴밀한	-17935
하고있네	-17936
실장이	-17937
▁머리카	-17938
▁윤지오	-17939
▁하시고	-17940
▁주적	-17941
▁반전	-17942
▁있는것	-17943
▁해금	-17944
▁소극	-17945
▁국외	-17946
▁욕설	-17947
▁정류	-17948
▁자식을	-17949
▁일들이	-17950
더라고요	-17951
·4	-17952
▁위하는	-17953
진구	-17954
▁주저	-17955
▁관광객이	-17956
▁공립	-17957
▁득점	-17958
▁붓	-17959
▁한통	-17960
▁극장판	-17961
▁불신	-17962
▁망해라	-17963
경협	-17964
적용	-17965
▁반기	-17966
막고	-17967
▁행동으로	-17968
▁공청	-17969
▁지금껏	-17970
▁상장주식	-17971
▁혐의에	-17972
할꺼	-17973
끼가	-17974
▁그정도	-17975
▁신청한	-17976
▁징용	-17977
주네	-17978
▁생각했다	-17979
빨갱	-17980
스타일	-17981
▁비비	-17982
▁백신	-17983
▁불린다	-17984
▁원이	-17985
▁우승을	-17986
▁정당이	-17987
▁해결될	-17988
▁토요	-17989
ET	-17990
자라는	-17991
▁인사청문회	-17992
▁Le	-17993
▁뜻으로	-17994
▁법령	-17995
정책에	-17996
▁이루고	-17997
미르	-17998
▁삼고	-17999
▁새삼	-18000
▁프로그램은	-18001
▁키움증권	-18002
생겼	-18003
▁당정	-18004
처음	-18005
▁일정이	-18006
▁청년들이	-18007
▁마인드	-18008
▁않았나	-18009
▁촬영한	-18010
▁하나라도	-18011
▁행복하게	-18012
▁뉴스가	-18013
스트는	-18014
▁방관	-18015
▁나오게	-18016
▁무기로	-18017
▁피눈물	-18018
줄도	-18019
▁메카	-18020
프레임	-18021
▁프로토	-18022
▁빈곤	-18023
예약	-18024
▁능력치	-18025
▁폴란드	-18026
▁이후의	-18027
▁명박이	-18028
▁무렵	-18029
▁가도	-18030
업체가	-18031
배치	-18032
▁망치	-18033
▁꾸준한	-18034
▁싶을	-18035
▁이보다	-18036
▁통신사	-18037
▁비자	-18038
▁동맹국	-18039
▁버프	-18040
▁절차에	-18041
▁뺑	-18042
▁구한	-18043
▁떨고	-18044
는지는	-18045
▁통신은	-18046
▁확인하는	-18047
▁쑥	-18048
▁미얀마	-18049
▁처음에	-18050
했을때	-18051
▁주민들	-18052
▁지지도	-18053
▁정의당은	-18054
72	-18055
▁계란	-18056
▁성평등	-18057
▁프로필	-18058
▁던진	-18059
▁바보로	-18060
▁나오면서	-18061
정책이	-18062
고요	-18063
▁미세먼지는	-18064
분해	-18065
▁게임은	-18066
▁촛불집회	-18067
고속	-18068
례가	-18069
▁비춰	-18070
번이나	-18071
▁콜라보	-18072
바퀴	-18073
입을	-18074
▁꼬박	-18075
▁지방은	-18076
▁말든	-18077
▁조현병	-18078
▁가라앉	-18079
▁명예를	-18080
연봉	-18081
▁얘는	-18082
▁LPG	-18083
▁목표는	-18084
▁신문은	-18085
번을	-18086
스피	-18087
▁전성	-18088
▁끝으로	-18089
▁제임스	-18090
▁메모	-18091
▁노리고	-18092
▁떠나라	-18093
▁주장은	-18094
▁시작된다	-18095
못차	-18096
▁공유하는	-18097
▁끔찍한	-18098
▁뚱	-18099
▁내려와	-18100
마시고	-18101
▁맞지만	-18102
▁보고서는	-18103
▁해대	-18104
69	-18105
개월을	-18106
▁비용은	-18107
▁과목	-18108
▁이용하면	-18109
▁본선	-18110
▁환상	-18111
▁절실	-18112
▁바라고	-18113
거리며	-18114
▁지지하고	-18115
의미	-18116
▁아메리카	-18117
▁검찰을	-18118
▁섬유	-18119
▁일기	-18120
▁갑시다	-18121
권리	-18122
되도	-18123
▁지원하기	-18124
/32	-18125
▁양해	-18126
▁벌어지는	-18127
▁테슬	-18128
▁변형	-18129
심리	-18130
▁1∼	-18131
▁이뤘	-18132
▁자의	-18133
드릴	-18134
직은	-18135
▁돌리는	-18136
▁화제가	-18137
▁법원의	-18138
▁훅	-18139
그림	-18140
경화	-18141
▁동굴	-18142
▁당당히	-18143
▁추가적인	-18144
할때는	-18145
▁활발한	-18146
▁동일하게	-18147
▁이곳에서	-18148
▁발생하고	-18149
매일	-18150
우로	-18151
▁높아질	-18152
자신	-18153
▁문어벙	-18154
▁비아	-18155
▁se	-18156
▁불통	-18157
에게만	-18158
▁언제든	-18159
▁맞았다	-18160
▁행진	-18161
▁똥을	-18162
▁한국전쟁	-18163
▁2018.10	-18164
▁분석하고	-18165
▁지디넷	-18166
▁가방	-18167
▁브리핑에서	-18168
▁정권바뀌	-18169
▁해지	-18170
▁녹취	-18171
스도	-18172
▁섀	-18173
▁끼워	-18174
▁운영해	-18175
기관을	-18176
▁인도적	-18177
▁떡밥	-18178
▁저희가	-18179
▁경찰을	-18180
▁선정했다	-18181
▁바라보고	-18182
▁일으키는	-18183
▁부산대	-18184
▁현명한	-18185
ᄌᄅ	-18186
▁돌리고	-18187
▁제법	-18188
▁지랄을	-18189
▁리비아	-18190
▁채널을	-18191
위권	-18192
플래	-18193
▁얘기는	-18194
▁생기고	-18195
살다	-18196
토지	-18197
품으로	-18198
▁차이는	-18199
▁학과	-18200
▁서로의	-18201
▁봐서	-18202
▁컨소시엄	-18203
급의	-18204
oth	-18205
▁강풍	-18206
▁고혈	-18207
▁더는	-18208
▁지문	-18209
▁만나면	-18210
▁아쿠	-18211
▁연도	-18212
▁될것이다	-18213
▁하하	-18214
▁성형	-18215
▁갭	-18216
랭크	-18217
▁정신과	-18218
▁이천	-18219
▁걱정이다	-18220
죄는	-18221
▁일주	-18222
군다나	-18223
▁강구	-18224
▁해달라고	-18225
▁어플	-18226
IG	-18227
▁재인아	-18228
▁교역	-18229
▁쪽발이	-18230
이구	-18231
▁생각좀	-18232
▁마련을	-18233
▁특별법	-18234
항에	-18235
▁1988	-18236
을거	-18237
▁CM	-18238
▁알겠지만	-18239
란시스	-18240
스톱	-18241
▁남성은	-18242
▁나눴	-18243
▁줄어드는	-18244
▁반려견	-18245
▁엄한	-18246
▁친인척	-18247
▁빨갱이들이	-18248
것냐	-18249
▁예상하고	-18250
▁조건이	-18251
로와	-18252
▁필요는	-18253
▁중이라고	-18254
▁맞냐	-18255
▁경고했다	-18256
▁개최된	-18257
▁생각한	-18258
▁호도	-18259
버거	-18260
▁1991	-18261
▁심각하다	-18262
▁펼쳐진다	-18263
▁댓글로	-18264
▁탄핵이	-18265
▁임직	-18266
▁림종석	-18267
쓰레기들	-18268
시행	-18269
▁반란	-18270
▁중이며	-18271
▁외제	-18272
▁정황이	-18273
▁버틸	-18274
▁금리가	-18275
▁몰수	-18276
▁민관	-18277
▁시가총액은	-18278
▁호칭	-18279
비즈	-18280
▁좋겠네	-18281
▁찾아볼	-18282
▁최선의	-18283
노무	-18284
휴가	-18285
▁확립	-18286
키고	-18287
▁끌었다	-18288
▁유우	-18289
▁결성	-18290
▁점검을	-18291
넘은	-18292
▁나타난다	-18293
▁남아있는	-18294
PM	-18295
▁합산	-18296
▁처먹고	-18297
▁AK	-18298
한마디	-18299
▁좌파들은	-18300
탱크	-18301
▁아베는	-18302
▁영화는	-18303
갑질	-18304
▁상공	-18305
▁트라우	-18306
▁만만치	-18307
없다는	-18308
▁깨고	-18309
▁수구꼴통	-18310
▁필요로	-18311
▁대기업이	-18312
▁강동	-18313
▁줄기	-18314
▁이용객	-18315
니케이션	-18316
져야지	-18317
발사	-18318
전에는	-18319
▁폴리	-18320
냅니다	-18321
▁마산	-18322
▁판에	-18323
▁각국	-18324
신저	-18325
▁다친	-18326
▁무너지	-18327
▁무역협	-18328
▁일본여행	-18329
▁땜	-18330
▁자유로운	-18331
자면	-18332
지역으로	-18333
▁지식재산	-18334
▁현지에서	-18335
nam	-18336
▁친한	-18337
▁작용할	-18338
▁범인	-18339
▁감안해	-18340
▁2025	-18341
ᄏᄏᄏᄏᄏᄏᄏᄏᄏ	-18342
황교	-18343
▁네오	-18344
테니까	-18345
▁나와도	-18346
▁새벽에	-18347
ax	-18348
▁절차가	-18349
▁북한한테	-18350
어머니	-18351
▁남지	-18352
▁서쪽	-18353
▁수료	-18354
▁무죄를	-18355
▁입에서	-18356
분권	-18357
지엄	-18358
▁돌연	-18359
▁사측	-18360
▁정의용	-18361
▁주민이	-18362
▁예상보다	-18363
지역을	-18364
▁너네가	-18365
▁이윤택	-18366
▁있었으면	-18367
▁서울역	-18368
▁일본한테	-18369
▁조립	-18370
등장	-18371
▁행보를	-18372
미니	-18373
▁성수	-18374
▁이면	-18375
▁받아들일	-18376
▁내신	-18377
했겠지	-18378
▁내용이다	-18379
일드	-18380
▁교육은	-18381
▁대명	-18382
▁쌍둥이	-18383
될까	-18384
▁짬	-18385
▁버렸다	-18386
▁쓰게	-18387
▁민주당에	-18388
span	-18389
▁본다면	-18390
▁수단으로	-18391
▁일고	-18392
ake	-18393
▁심하다	-18394
▁미국한테	-18395
내년	-18396
동과	-18397
ave	-18398
▁밝힐	-18399
▁한결	-18400
티아	-18401
▁03	-18402
▁미혼	-18403
▁점거	-18404
▁일어나지	-18405
화에서는	-18406
▁돼지고	-18407
▁코메디	-18408
의혹	-18409
▁형이	-18410
절로	-18411
▁비난을	-18412
▁언론과	-18413
▁판정을	-18414
부탁	-18415
▁기를	-18416
▁실컷	-18417
▁통계청	-18418
▁공간으로	-18419
▁특검을	-18420
▁정상회담에서	-18421
▁가능하게	-18422
▁말고는	-18423
▁0.5%	-18424
계와	-18425
▁tr	-18426
▁이용하고	-18427
▁훔쳐	-18428
▁인프라를	-18429
▁권위	-18430
▁구속영장	-18431
▁방에	-18432
▁태백	-18433
▁협업을	-18434
창을	-18435
▁여자도	-18436
회사의	-18437
▁Yo	-18438
▁특기	-18439
▁룸	-18440
▁행적	-18441
▁도둑질	-18442
관세	-18443
매가	-18444
▁중소기업의	-18445
▁판단해	-18446
죽여	-18447
▁연초	-18448
▁SKT	-18449
▁이런데도	-18450
▁안건	-18451
.30	-18452
▁개념이	-18453
▁NA	-18454
▁열악한	-18455
둘이	-18456
▁요금제	-18457
▁처치	-18458
▁지디넷코리아	-18459
▁진단했다	-18460
▁개는	-18461
▁이듬	-18462
숭이	-18463
▁현실화	-18464
등신	-18465
▁현장의	-18466
▁줄어들고	-18467
▁만이다	-18468
▁러시아의	-18469
▁부사장은	-18470
애가	-18471
▁프로그램이	-18472
메가	-18473
▁쪽빠리	-18474
▁조짐	-18475
▁무혐의	-18476
▁모지리	-18477
▁적폐로	-18478
▁낙찰	-18479
포장	-18480
▁나름대로	-18481
▁의식을	-18482
▁거라	-18483
▁맞는거	-18484
▁처리를	-18485
▁것일	-18486
▁굴러	-18487
모르고	-18488
▁만나볼	-18489
▁문화체육관광부	-18490
분도	-18491
▁개똥	-18492
▁어두운	-18493
▁왔는데	-18494
▁이가	-18495
지않게	-18496
▁하던지	-18497
▁기준에	-18498
▁올라오	-18499
▁나경원이	-18500
▁어버	-18501
봤습니다	-18502
▁직원들은	-18503
▁핑크	-18504
▁시신을	-18505
▁어처구니	-18506
되기를	-18507
▁순수한	-18508
▁안되니	-18509
▁알고리즘에	-18510
▁(1	-18511
▁차량의	-18512
▁트랜	-18513
▁별거	-18514
▁강하다	-18515
▁많으면	-18516
▁컨센서스는	-18517
▁기록했는데	-18518
남이	-18519
▁들지	-18520
83	-18521
▁하겠습니다	-18522
피를	-18523
▁신앙	-18524
하는거다	-18525
▁취한	-18526
▁터미널	-18527
▁얻기	-18528
▁회원들이	-18529
▁맥락	-18530
▁집어넣	-18531
CG	-18532
▁형량	-18533
▁신한은행	-18534
▁고추	-18535
이제는	-18536
징글	-18537
▁모를까	-18538
▁의견제시	-18539
▁겪어	-18540
▁오죽하면	-18541
강의	-18542
▁욱일	-18543
▁수당	-18544
▁꾸려	-18545
▁끝장	-18546
▁않으니	-18547
있어요	-18548
▁손실을	-18549
천이	-18550
▁약세	-18551
▁미련	-18552
▁무력화	-18553
▁크리에	-18554
년이상	-18555
▁할수있는	-18556
▁기가막	-18557
루는	-18558
▁수꼴	-18559
▁코치	-18560
단말	-18561
▁지침	-18562
▁사실에	-18563
▁부엉	-18564
▁정서	-18565
▁자기자본	-18566
▁게임에	-18567
민들	-18568
▁사주	-18569
▁싫어요	-18570
▁뽑아서	-18571
▁비교해보면	-18572
취재단	-18573
염병	-18574
시키들	-18575
In	-18576
▁쉬는	-18577
▁되도	-18578
▁이통	-18579
▁인성이	-18580
▁동아리	-18581
▁크리	-18582
▁파트너십	-18583
▁꾸며	-18584
▁반해	-18585
▁공격에	-18586
중간	-18587
다닌	-18588
▁고스톱	-18589
▁예쁜	-18590
▁김주	-18591
▁국민에	-18592
▁안정적	-18593
▁기자간담회에서	-18594
▁폭넓	-18595
▁지진이	-18596
▁갯	-18597
기에서	-18598
▁위주의	-18599
▁죽음의	-18600
▁힌	-18601
▁못하니	-18602
▁보는데	-18603
▁시절에	-18604
▁잘먹고	-18605
▁기대되는	-18606
▁침범	-18607
▁정으니	-18608
▁모르지	-18609
▁이듬해	-18610
▁훈훈	-18611
▁적폐다	-18612
자유한국당	-18613
▁모름	-18614
▁스타일은	-18615
▁사라진다	-18616
▁한우	-18617
▁소비자의	-18618
▁선언했다	-18619
여고	-18620
당초	-18621
▁경신	-18622
▁기록해	-18623
▁물가는	-18624
▁바미당	-18625
▁낳은	-18626
▁넘이	-18627
▁나스	-18628
▁개돼지들아	-18629
▁대사는	-18630
박을	-18631
형태	-18632
▁잠수함	-18633
▁판타지	-18634
▁홍발정	-18635
▁포트폴리오	-18636
▁적으로	-18637
리라고	-18638
▁구축해	-18639
▁따르는	-18640
▁목적은	-18641
▁라면서	-18642
▁공격하는	-18643
▁굽신	-18644
지사는	-18645
▁정보는	-18646
연은	-18647
▁본인들이	-18648
▁순차적으로	-18649
▁영감	-18650
▁좋다는	-18651
▁득실	-18652
받아라	-18653
▁거리는	-18654
집으로	-18655
▁전력을	-18656
▁정찰	-18657
▁고객들의	-18658
▁sns	-18659
▁구축하고	-18660
▁그라	-18661
나들	-18662
▁실감	-18663
▁분식회계	-18664
▁판단하고	-18665
놓으면	-18666
반의	-18667
▁하기로	-18668
파워	-18669
년전에	-18670
콜릿	-18671
▁용이	-18672
▁좌표	-18673
▁북한군	-18674
▁사지	-18675
▁않아요	-18676
헌날	-18677
..!	-18678
다닐	-18679
▁수치가	-18680
▁이라크	-18681
베이스	-18682
▁주변에서	-18683
▁없으니까	-18684
기사를	-18685
▁아이는	-18686
▁투자자들의	-18687
쇼를	-18688
▁권역	-18689
▁싸지	-18690
▁그러다가	-18691
죽을	-18692
▁리버	-18693
▁청계	-18694
▁제공하기	-18695
▁자체적으로	-18696
▁라이벌	-18697
▁우즈	-18698
▁의무화	-18699
▁내세워	-18700
▁그놈	-18701
ound	-18702
▁거예요	-18703
보내고	-18704
▁물가가	-18705
▁빔	-18706
▁상장기업	-18707
트릭	-18708
▁제출했다	-18709
▁발라	-18710
노선	-18711
상인	-18712
▁글쎄	-18713
간접	-18714
▁구치	-18715
▁음식점	-18716
▁있을때	-18717
▁인디	-18718
사회주의	-18719
▁만났다	-18720
▁기준금리	-18721
▁빠르고	-18722
사기꾼	-18723
▁수준은	-18724
▁분석하여	-18725
▁지붕	-18726
▁보잉	-18727
▁사로잡	-18728
▁8%	-18729
▁올해의	-18730
▁개나소나	-18731
▁희생자	-18732
▁갤러	-18733
▁나카	-18734
▁확정된	-18735
ian	-18736
▁밝히는	-18737
영웅	-18738
▁시선	-18739
▁정동영	-18740
▁깐	-18741
(),	-18742
▁집값은	-18743
미네	-18744
▁밝히지	-18745
▁숨기고	-18746
▁거제	-18747
▁낸다	-18748
하더만	-18749
▁때문인지	-18750
▁봉인	-18751
▁예로	-18752
하시면	-18753
▁야근	-18754
▁제왕	-18755
▁좌파는	-18756
▁com	-18757
회담을	-18758
▁인천국제공항	-18759
▁해명했다	-18760
▁가능하다는	-18761
▁마신	-18762
▁간판	-18763
▁95%	-18764
▁교섭단체	-18765
▁게시판	-18766
▁안팔	-18767
▁횡단	-18768
▁골로	-18769
▁하차	-18770
▁금감원은	-18771
▁가드	-18772
▁구하기	-18773
▁진행되며	-18774
기대	-18775
▁어쩐	-18776
지지율	-18777
▁말하며	-18778
그나	-18779
▁넣는	-18780
▁휘말	-18781
지않아	-18782
▁일평균	-18783
▁어때	-18784
▁용도로	-18785
▁이틀간	-18786
▁주문했다	-18787
루미늄	-18788
▁위협을	-18789
안다	-18790
문제로	-18791
한거지	-18792
▁성차별	-18793
개나	-18794
▁ᅩ	-18795
▁+1	-18796
캠퍼스	-18797
▁호구로	-18798
▁환경단체	-18799
▁숟가락	-18800
▁피아노	-18801
▁폴더블	-18802
▁르노삼성	-18803
▁사라지는	-18804
▁파크	-18805
▁실리콘	-18806
▁둬	-18807
터의	-18808
ext	-18809
▁EN	-18810
▁브레이크	-18811
현황	-18812
▁안함	-18813
▁잡힌	-18814
왔다고	-18815
▁매력적인	-18816
▁형님	-18817
▁영등포	-18818
▁측면이	-18819
▁클라	-18820
내로남불	-18821
▁쾌적한	-18822
****	-18823
될지	-18824
있지만	-18825
대통령은	-18826
▁적다	-18827
도르	-18828
화탄	-18829
▁뿜	-18830
ence	-18831
▁선량한	-18832
▁퀸	-18833
▁알기	-18834
▁저럴	-18835
장악	-18836
▁먹튀	-18837
▁부족하다	-18838
af	-18839
▁죽이기	-18840
련의	-18841
이기에	-18842
▁순방	-18843
오른	-18844
▁현상을	-18845
▁응용	-18846
▁법인세	-18847
거늘	-18848
이라는데	-18849
▁롯데백화점	-18850
▁지나친	-18851
▁글로	-18852
▁목표주가는	-18853
까고	-18854
감소	-18855
▁죽을때까지	-18856
▁상장주식수	-18857
▁카타	-18858
자리를	-18859
▁LS	-18860
▁한가지	-18861
▁선물을	-18862
▁방출	-18863
▁창설	-18864
▁굴복	-18865
▁저지르고	-18866
▁텅	-18867
폰을	-18868
민석	-18869
▁지금보다	-18870
▁파렴치한	-18871
▁엄격한	-18872
력발전소	-18873
▁울고	-18874
▁한계를	-18875
▁세일	-18876
▁정치적인	-18877
▁생각해보면	-18878
진행	-18879
마리가	-18880
임은	-18881
▁개최한	-18882
▁의견제시일자	-18883
할만한	-18884
남은	-18885
▁가지는	-18886
▁전환을	-18887
▁모리	-18888
▁1992	-18889
▁꿈도	-18890
즈니	-18891
▁교복	-18892
▁가정의	-18893
▁했을까	-18894
▁천만	-18895
▁취해	-18896
▁1993	-18897
▁외국인과	-18898
조기	-18899
▁공기가	-18900
▁동탄	-18901
▁원화	-18902
▁이제부터	-18903
▁105	-18904
하기전에	-18905
▁처음엔	-18906
▁개정을	-18907
크래프트	-18908
▁인사가	-18909
[...]
