<unk>	0
<endofline>	0
<endoftext>	0
▁이	-0
▁있	-1
으로	-2
▁대	-3
..	-4
▁사	-5
에서	-6
▁그	-7
▁1	-8
▁지	-9
▁아	-10
▁기	-11
▁수	-12
▁하	-13
▁한	-14
▁2	-15
▁가	-16
▁전	-17
▁정	-18
했다	-19
▁시	-20
▁보	-21
하는	-22
▁자	-23
▁나	-24
▁다	-25
니다	-26
▁것	-27
하고	-28
▁일	-29
▁제	-30
▁있다	-31
▁국	-32
▁인	-33
이다	-34
▁공	-35
▁중	-36
▁주	-37
▁등	-38
▁경	-39
▁안	-40
▁미	-41
▁부	-42
▁고	-43
ᄏᄏ	-44
...	-45
▁모	-46
▁오	-47
▁문	-48
▁없	-49
▁위	-50
▁개	-51
▁어	-52
▁해	-53
▁조	-54
▁상	-55
▁3	-56
들이	-57
▁내	-58
▁유	-59
▁비	-60
▁말	-61
▁여	-62
▁무	-63
▁소	-64
▁서	-65
한다	-66
▁20	-67
▁마	-68
▁우	-69
▁관	-70
▁의	-71
▁만	-72
▁연	-73
▁최	-74
▁진	-75
▁않	-76
라고	-77
지만	-78
는데	-79
▁바	-80
▁세	-81
▁생	-82
▁영	-83
▁5	-84
▁신	-85
▁선	-86
▁더	-87
까지	-88
▁거	-89
▁구	-90
▁스	-91
▁도	-92
▁발	-93
▁있는	-94
▁방	-95
▁현	-96
▁4	-97
▁강	-98
▁동	-99
▁통	-100
습니다	-101
00	-102
▁때	-103
면서	-104
▁성	-105
▁저	-106
▁김	-107
▁장	-108
▁‘	-109
에게	-110
▁당	-111
▁불	-112
▁남	-113
다고	-114
▁실	-115
▁되	-116
▁반	-117
▁한국	-118
▁예	-119
▁노	-120
들은	-121
▁재	-122
▁북	-123
▁적	-124
▁많	-125
▁알	-126
▁못	-127
▁원	-128
다는	-129
하게	-130
부터	-131
▁“	-132
▁같	-133
▁아니	-134
▁분	-135
▁결	-136
▁사람	-137
▁차	-138
▁201	-139
▁추	-140
▁받	-141
▁매	-142
▁올	-143
▁대한	-144
라는	-145
▁좋	-146
!!	-147
▁특	-148
▁잘	-149
었다	-150
▁6	-151
▁또	-152
▁계	-153
적으로	-154
▁참	-155
▁우리	-156
▁교	-157
된다	-158
▁따	-159
적인	-160
해서	-161
들어	-162
▁후	-163
▁평	-164
에는	-165
▁감	-166
▁할	-167
▁확	-168
▁7	-169
▁국민	-170
▁살	-171
▁미국	-172
▁지난	-173
통령	-174
▁역	-175
▁입	-176
▁단	-177
하다	-178
▁출	-179
▁과	-180
▁열	-181
▁서울	-182
▁일본	-183
▁배	-184
▁ᄏᄏ	-185
▁건	-186
▁하는	-187
▁설	-188
▁물	-189
▁회	-190
하면	-191
▁피	-192
▁10	-193
리고	-194
하지	-195
▁외	-196
▁밝	-197
대로	-198
▁작	-199
하기	-200
이나	-201
▁민	-202
▁중국	-203
▁집	-204
▁화	-205
▁파	-206
??	-207
▁대통령	-208
▁박	-209
▁투	-210
▁포	-211
▁게	-212
▁달	-213
▁생각	-214
▁에	-215
▁8	-216
....	-217
▁북한	-218
▁청	-219
으면	-220
▁판	-221
▁한다	-222
▁요	-223
▁너	-224
들의	-225
▁문재	-226
▁맞	-227
~~	-228
▁행	-229
▁것으로	-230
▁왜	-231
보다	-232
▁정부	-233
▁운	-234
▁처	-235
이라	-236
▁본	-237
▁프	-238
▁두	-239
▁때문	-240
▁위해	-241
▁앞	-242
▁9	-243
▁직	-244
▁S	-245
▁함	-246
▁증	-247
▁문제	-248
▁새	-249
리는	-250
▁카	-251
▁쓰	-252
▁애	-253
▁양	-254
▁나라	-255
해야	-256
▁종	-257
▁초	-258
▁명	-259
▁이런	-260
▁총	-261
▁높	-262
▁금	-263
되는	-264
▁필	-265
▁간	-266
▁누	-267
▁심	-268
▁A	-269
이고	-270
▁언	-271
▁타	-272
▁삼	-273
▁트	-274
▁점	-275
▁통해	-276
▁죽	-277
▁법	-278
▁밝혔	-279
▁이번	-280
▁검	-281
자는	-282
▁같은	-283
▁목	-284
▁치	-285
들을	-286
▁및	-287
▁하고	-288
에도	-289
이라고	-290
입니다	-291
▁임	-292
▁뭐	-293
▁산	-294
에서는	-295
▁합	-296
▁데	-297
▁돈	-298
▁활	-299
▁지금	-300
▁로	-301
▁돌	-302
지는	-303
나라	-304
▁학	-305
▁코	-306
▁드	-307
▁이상	-308
기를	-309
▁독	-310
▁약	-311
▁가능	-312
▁19	-313
▁호	-314
▁업	-315
됐다	-316
▁변	-317
▁대표	-318
▁밝혔다	-319
레이	-320
렇게	-321
겠다	-322
▁니	-323
▁리	-324
▁넘	-325
▁손	-326
▁근	-327
▁속	-328
▁경우	-329
▁들어	-330
자가	-331
▁아이	-332
▁사용	-333
▁했다	-334
▁-	-335
▁문재인	-336
인데	-337
▁함께	-338
▁협	-339
▁0	-340
▁(	-341
▁하나	-342
니까	-343
▁경제	-344
▁기업	-345
ᄏᄏᄏᄏ	-346
▁C	-347
▁그러	-348
▁말했다	-349
▁환	-350
▁것이	-351
▁뉴	-352
▁뒤	-353
▁힘	-354
스트	-355
▁체	-356
▁다른	-357
▁편	-358
▁관련	-359
▁광	-360
▁사진	-361
▁각	-362
으며	-363
았다	-364
시간	-365
▁버	-366
▁했	-367
사를	-368
세요	-369
▁얼	-370
하며	-371
▁걸	-372
지고	-373
▁크	-374
▁줄	-375
▁먹	-376
▁진짜	-377
장은	-378
▁진행	-379
비스	-380
▁라	-381
▁없는	-382
000	-383
▁좀	-384
▁없다	-385
▁때문에	-386
▁날	-387
▁지역	-388
▁취	-389
▁시작	-390
이지	-391
▁친	-392
가는	-393
▁군	-394
▁이어	-395
▁L	-396
▁필요	-397
▁완	-398
▁폭	-399
▁위한	-400
도록	-401
처럼	-402
▁이후	-403
기도	-404
▁태	-405
네요	-406
▁12	-407
성이	-408
▁눈	-409
기가	-410
▁순	-411
▁세계	-412
였다	-413
합니다	-414
▁국가	-415
위원	-416
▁국내	-417
리를	-418
▁자신	-419
▁메	-420
장을	-421
▁영화	-422
▁지원	-423
▁사업	-424
▁난	-425
▁K	-426
▁11	-427
▁M	-428
▁관계	-429
기업	-430
▁이용	-431
장이	-432
▁규	-433
▁아닌	-434
는다	-435
▁정치	-436
▁표	-437
▁그냥	-438
▁너무	-439
▁충	-440
기에	-441
▁기술	-442
▁디	-443
▁가장	-444
민국	-445
▁절	-446
▁T	-447
▁와	-448
▁I	-449
어서	-450
▁따라	-451
▁그런	-452
▁잡	-453
▁온	-454
라도	-455
▁빨	-456
▁모두	-457
▁는	-458
▁큰	-459
▁은	-460
이는	-461
▁들	-462
▁홍	-463
▁제공	-464
주의	-465
▁사실	-466
▁투자	-467
만원	-468
▁그래	-469
▁음	-470
리가	-471
▁기자	-472
▁네	-473
기는	-474
▁끝	-475
해라	-476
▁토	-477
▁30	-478
▁그리고	-479
▁패	-480
인이	-481
▁막	-482
▁'	-483
▁아니라	-484
▁찾	-485
▁정도	-486
억원	-487
▁민주	-488
하면서	-489
▁야	-490
▁많이	-491
사는	-492
▁현재	-493
회의	-494
거나	-495
사가	-496
▁된다	-497
▁대해	-498
▁항	-499
▁이제	-500
▁준	-501
▁늘	-502
▁창	-503
▁상황	-504
▁될	-505
▁채	-506
▁많은	-507
력을	-508
▁망	-509
▁200	-510
▁담	-511
▁삼성	-512
▁등을	-513
지를	-514
▁플	-515
같은	-516
▁시간	-517
▁B	-518
▁프로	-519
▁논	-520
▁인간	-521
려고	-522
▁다시	-523
▁벌	-524
▁대한민국	-525
▁싶	-526
상을	-527
▁하지만	-528
▁서비스	-529
▁몰	-530
▁를	-531
▁글	-532
▁게임	-533
▁피해	-534
▁베	-535
▁보고	-536
들에게	-537
▁핵	-538
▁개발	-539
▁브	-540
▁15	-541
▁자유	-542
구나	-543
하여	-544
▁복	-545
▁식	-546
한테	-547
▁느	-548
▁나오	-549
▁사회	-550
다가	-551
▁허	-552
▁G	-553
성을	-554
▁연구	-555
er	-556
▁모든	-557
▁정말	-558
▁철	-559
▁것이다	-560
▁책	-561
▁좌	-562
▁며	-563
는거	-564
럼프	-565
되고	-566
▁천	-567
▁수준	-568
▁권	-569
▁올해	-570
시아	-571
▁ᄏᄏᄏᄏ	-572
▁승	-573
▁번	-574
in	-575
▁모르	-576
정부	-577
▁D	-578
레기	-579
이트	-580
▁빠	-581
20	-582
▁최근	-583
▁예정	-584
▁지난해	-585
▁있어	-586
졌다	-587
▁머	-588
on	-589
▁것은	-590
▁P	-591
▁백	-592
▁형	-593
정은	-594
으니	-595
▁O	-596
.1	-597
▁좋은	-598
▁시장	-599
르면	-600
▁엄	-601
▁존	-602
▁이날	-603
▁용	-604
▁설명	-605
▁트럼프	-606
▁계획	-607
!!!	-608
▁볼	-609
▁최고	-610
지도	-611
▁다양	-612
▁커	-613
이가	-614
들도	-615
▁이유	-616
▁"	-617
▁떨	-618
▁이미	-619
▁질	-620
화를	-621
▁결과	-622
▁만들	-623
▁별	-624
▁아무	-625
▁특히	-626
▁악	-627
▁을	-628
▁의원	-629
▁정신	-630
▁2018	-631
▁경찰	-632
▁효	-633
▁갈	-634
▁모습	-635
▁열린	-636
▁것을	-637
▁운영	-638
▁병	-639
시키	-640
주는	-641
아서	-642
▁100	-643
▁계속	-644
▁블	-645
이라는	-646
▁곳	-647
▁하지	-648
▁오후	-649
▁만들어	-650
▁.	-651
하겠	-652
▁낮	-653
에서도	-654
▁기사	-655
지가	-656
사람	-657
▁있을	-658
▁된	-659
인가	-660
있는	-661
▁여러	-662
▁아직	-663
▁무슨	-664
▁레	-665
▁어떻	-666
했다고	-667
▁캐	-668
들과	-669
▁접	-670
들아	-671
로운	-672
리아	-673
▁전문	-674
▁페	-675
▁범	-676
▁기록	-677
▁탄	-678
▁농	-679
▁떠	-680
▁18	-681
▁얼마	-682
an	-683
▁다양한	-684
▁키	-685
놓고	-686
▁싸	-687
▁있었	-688
뉴스	-689
▁발표	-690
▁조사	-691
▁답	-692
▁갖	-693
▁보면	-694
랜드	-695
▁황	-696
야지	-697
.0	-698
▁월	-699
▁따르면	-700
▁증가	-701
했습니다	-702
▁역시	-703
▁ᄏᄏᄏ	-704
인지	-705
▁어떻게	-706
정을	-707
▁제품	-708
어나	-709
▁길	-710
▁교육	-711
▁오전	-712
댓글	-713
력이	-714
▁추가	-715
▁기대	-716
▁극	-717
▁최대	-718
▁향	-719
센터	-720
마트	-721
▁대상	-722
co	-723
▁우리나라	-724
▁다음	-725
▁폐	-726
▁판매	-727
,,	-728
▁내용	-729
것도	-730
▁E	-731
▁떨어	-732
▁정권	-733
▁기준	-734
▁정책	-735
▁세금	-736
자의	-737
▁클	-738
▁먼	-739
인다	-740
▁몇	-741
학교	-742
▁현대	-743
시스	-744
가지	-745
라이	-746
▁공격	-747
세먼	-748
수가	-749
▁13	-750
▁정상	-751
▁응	-752
사업	-753
자를	-754
▁결국	-755
▁발생	-756
한다고	-757
▁나타	-758
▁참여	-759
▁돌아	-760
경제	-761
▁측	-762
▁보여	-763
이터	-764
▁축	-765
▁25	-766
▁장관	-767
▁지지	-768
▁테	-769
▁14	-770
으나	-771
밖에	-772
▁받아	-773
▁확인	-774
거리	-775
▁당시	-776
▁오늘	-777
▁16	-778
원이	-779
▁뉴스	-780
▁공개	-781
제로	-782
.2	-783
▁사이	-784
▁팔	-785
▁자기	-786
▁급	-787
▁50	-788
명이	-789
is	-790
▁처음	-791
▁:	-792
▁있습니다	-793
▁있다고	-794
▁전국	-795
▁사건	-796
▁이야	-797
▁N	-798
▁국회	-799
▁정보	-800
대가	-801
▁욕	-802
보고	-803
▁씨	-804
▁첫	-805
소리	-806
▁댓글	-807
▁바로	-808
▁또한	-809
▁n	-810
▁F	-811
▁탈	-812
▁이렇게	-813
.5	-814
▁면	-815
없이	-816
없는	-817
하는데	-818
▁언론	-819
기로	-820
▁귀	-821
▁이라고	-822
이스	-823
▁중요	-824
도로	-825
도를	-826
한국	-827
도가	-828
▁여성	-829
▁가격	-830
는지	-831
▁안전	-832
▁뭔	-833
▁문재앙	-834
▁좋아	-835
▁민주당	-836
▁믿	-837
▁이름	-838
▁부산	-839
진다	-840
해도	-841
시장	-842
위원회	-843
▁거래	-844
▁놈	-845
▁대비	-846
되어	-847
▁17	-848
수는	-849
▁산업	-850
운데	-851
▁후보	-852
▁어디	-853
하나	-854
▁해외	-855
▁잠	-856
하자	-857
▁알려	-858
드는	-859
▁높은	-860
치는	-861
인은	-862
▁밀	-863
▁제대로	-864
▁않고	-865
▁국제	-866
▁직접	-867
▁방송	-868
▁자체	-869
???	-870
▁고객	-871
▁마음	-872
▁오는	-873
▁검찰	-874
동안	-875
or	-876
▁일부	-877
▁그렇게	-878
▁분석	-879
▁전체	-880
▁청와	-881
▁이게	-882
▁미세먼	-883
▁출시	-884
이냐	-885
인의	-886
▁살아	-887
왔다	-888
▁않는	-889
돼지	-890
▁추진	-891
▁없이	-892
기술	-893
▁문화	-894
▁희	-895
▁암	-896
▁금융	-897
▁웃	-898
▁있다는	-899
▁확대	-900
▁풀	-901
ᄒᄒ	-902
en	-903
대표	-904
치를	-905
▁그는	-906
▁봐	-907
▁강화	-908
▁t	-909
▁일반	-910
어요	-911
▁사람이	-912
했던	-913
▁이해	-914
▁활용	-915
▁조국	-916
사의	-917
▁잘못	-918
▁되는	-919
▁혼	-920
▁R	-921
▁평가	-922
▁관심	-923
▁포함	-924
하네	-925
▁적용	-926
주고	-927
▁않은	-928
▁죄	-929
▁해야	-930
▁놀	-931
▁현지	-932
▁인터	-933
▁울	-934
이었	-935
▁이를	-936
▁관계자는	-937
▁수도	-938
말고	-939
▁나온	-940
▁어떤	-941
▁김정은	-942
▁상태	-943
스터	-944
▁골	-945
상이	-946
전에	-947
리에	-948
▁성장	-949
▁사고	-950
▁콘	-951
▁LG	-952
ar	-953
▁가족	-954
▁있고	-955
▁책임	-956
▁보내	-957
▁유지	-958
원은	-959
▁경기	-960
▁있는데	-961
▁능	-962
▁터	-963
인을	-964
▁스마트	-965
▁외국	-966
▁등의	-967
▁자동	-968
▁휴	-969
▁기존	-970
at	-971
▁해당	-972
▁해결	-973
▁영향	-974
▁그만	-975
▁쓰레기	-976
한당	-977
위를	-978
▁물론	-979
▁미래	-980
그램	-981
▁효과	-982
▁예상	-983
부분	-984
▁평화	-985
국민	-986
자들이	-987
▁청와대	-988
▁하면	-989
▁마련	-990
▁상승	-991
▁있도록	-992
▁새로운	-993
▁그러나	-994
더니	-995
ew	-996
▁s	-997
▁둘	-998
▁24	-999
▁가운데	-1000
▁판단	-1001
동을	-1002
▁앞으로	-1003
▁저런	-1004
식을	-1005
명을	-1006
겠지	-1007
▁등장	-1008
부는	-1009
▁얘	-1010
▁똑	-1011
▁적극	-1012
▁얼마나	-1013
▁얻	-1014
의를	-1015
▁완전	-1016
▁준비	-1017
▁생산	-1018
10	-1019
이며	-1020
▁쳐	-1021
시는	-1022
▁뿐	-1023
▁환경	-1024
▁전망	-1025
▁아니다	-1026
어야	-1027
리지	-1028
▁찾아	-1029
▁시민	-1030
▁예정이다	-1031
~~~	-1032
시켜	-1033
▁지속	-1034
com	-1035
▁듯	-1036
▁퍼	-1037
원을	-1038
▁소비	-1039
▁남북	-1040
▁조선	-1041
자들	-1042
이네	-1043
▁개인	-1044
어도	-1045
▁연합	-1046
▁어려	-1047
▁같이	-1048
이야	-1049
▁사랑	-1050
▁H	-1051
회담	-1052
수를	-1053
로벌	-1054
▁21	-1055
보면	-1056
했고	-1057
정권	-1058
▁등이	-1059
▁어느	-1060
대를	-1061
거지	-1062
하냐	-1063
개월	-1064
▁2017	-1065
▁인정	-1066
▁이에	-1067
회를	-1068
▁침	-1069
▁그렇	-1070
▁누가	-1071
시다	-1072
▁성공	-1073
ᄏᄏᄏ	-1074
는게	-1075
▁의미	-1076
잖아	-1077
연구	-1078
▁규모	-1079
렸다	-1080
▁스타	-1081
▁강조	-1082
.3	-1083
.....	-1084
치고	-1085
▁주요	-1086
▁러	-1087
▁알고	-1088
▁경쟁	-1089
자리	-1090
▁동안	-1091
▁압	-1092
▁송	-1093
▁몸	-1094
!!!!	-1095
산업	-1096
▁개선	-1097
▁찍	-1098
▁하루	-1099
▁방문	-1100
▁40	-1101
▁싫	-1102
▁왕	-1103
▁윤	-1104
▁내가	-1105
민주	-1106
▁결정	-1107
▁자신의	-1108
근혜	-1109
al	-1110
▁즐	-1111
기관	-1112
▁깨	-1113
라인	-1114
▁한편	-1115
▁주장	-1116
일까지	-1117
▁요구	-1118
▁쪽	-1119
▁영상	-1120
▁올라	-1121
▁먼저	-1122
▁매출	-1123
▁솔	-1124
마다	-1125
▁육	-1126
▁공동	-1127
▁지방	-1128
스는	-1129
▁갑	-1130
같이	-1131
▁뽑	-1132
▁내려	-1133
▁만나	-1134
파트	-1135
이버	-1136
혁신	-1137
ᅳᅳ	-1138
▁22	-1139
▁기본	-1140
▁23	-1141
▁제발	-1142
▁글로벌	-1143
문에	-1144
장에서	-1145
주시	-1146
려는	-1147
라며	-1148
▁참석	-1149
▁자한당	-1150
ᄏᄏᄏᄏᄏᄏᄏᄏ	-1151
▁작품	-1152
▁혐	-1153
▁’	-1154
▁다만	-1155
났다	-1156
린다	-1157
ᄍᄍ	-1158
이면	-1159
▁학생	-1160
▁미세먼지	-1161
▁건강	-1162
▁반대	-1163
▁엔	-1164
▁없어	-1165
▁않았	-1166
하라	-1167
에선	-1168
▁한번	-1169
▁분야	-1170
정보	-1171
▁전쟁	-1172
▁ᄏ	-1173
▁V	-1174
▁구성	-1175
제를	-1176
교육	-1177
되지	-1178
▁끌	-1179
리스	-1180
▁보인다	-1181
▁대통령이	-1182
▁대부분	-1183
있다	-1184
▁더불	-1185
러운	-1186
▁짓	-1187
▁쉽	-1188
은행	-1189
▁SK	-1190
▁선거	-1191
하지만	-1192
안을	-1193
▁p	-1194
되면	-1195
▁중심	-1196
스로	-1197
▁쇼	-1198
▁수사	-1199
▁위원	-1200
▁현실	-1201
▁목표	-1202
시에	-1203
거다	-1204
하던	-1205
▁기간	-1206
▁존재	-1207
▁부분	-1208
▁붙	-1209
▁차량	-1210
▁언제	-1211
▁여기	-1212
▁착	-1213
▁만든	-1214
문화	-1215
갱이	-1216
▁여자	-1217
▁제주	-1218
▁26	-1219
▁받고	-1220
▁꼭	-1221
▁선택	-1222
▁숨	-1223
지역	-1224
▁또는	-1225
▁있었다	-1226
▁기다	-1227
▁매우	-1228
▁당신	-1229
일부터	-1230
▁최저	-1231
▁것도	-1232
정도	-1233
이었다	-1234
▁이러	-1235
한다는	-1236
▁당연	-1237
가서	-1238
es	-1239
▁m	-1240
스를	-1241
▁말고	-1242
ews	-1243
▁2016	-1244
대한	-1245
▁27	-1246
▁시스	-1247
자인	-1248
▁아니고	-1249
자로	-1250
전을	-1251
을까	-1252
▁더불어	-1253
▁워	-1254
▁대학	-1255
▁에서	-1256
▁관리	-1257
▁외교	-1258
.4	-1259
▁OO	-1260
▁홈	-1261
▁넘어	-1262
림픽	-1263
조사	-1264
▁팀	-1265
중에	-1266
▁빼	-1267
▁수출	-1268
▁이동	-1269
▁맡	-1270
▁지나	-1271
가가	-1272
▁28	-1273
르는	-1274
정이	-1275
▁그래서	-1276
▁지적	-1277
▁어린	-1278
▁W	-1279
이오	-1280
▁택	-1281
▁과거	-1282
세를	-1283
릭터	-1284
통신	-1285
▁아주	-1286
▁TV	-1287
50	-1288
▁만큼	-1289
▁시스템	-1290
가고	-1291
▁OOO	-1292
▁회사	-1293
▁가지고	-1294
▁특별	-1295
▁비교	-1296
▁설명했다	-1297
이라도	-1298
▁선보	-1299
▁더욱	-1300
서는	-1301
▁노동	-1302
개발	-1303
▁컨	-1304
▁누구	-1305
▁방법	-1306
▁여행	-1307
점을	-1308
것이	-1309
▁개최	-1310
▁제작	-1311
▁브랜드	-1312
.6	-1313
▁뉴시스	-1314
18	-1315
지막	-1316
▁상대	-1317
▁비롯	-1318
▁연합뉴스	-1319
무원	-1320
▁상당	-1321
▁모델	-1322
▁프로그램	-1323
▁c	-1324
it	-1325
▁히	-1326
▁똥	-1327
▁기능	-1328
ot	-1329
겠습니다	-1330
▁△	-1331
명의	-1332
텐츠	-1333
▁영업	-1334
▁보다	-1335
▁설치	-1336
.7	-1337
반도	-1338
▁크게	-1339
한국당	-1340
단체	-1341
▁좌파	-1342
아니	-1343
^^	-1344
▁대구	-1345
장의	-1346
▁캐릭터	-1347
▁조금	-1348
▁의견	-1349
▁즉	-1350
▁풍	-1351
운동	-1352
▁학교	-1353
▁엄청	-1354
▁대통령은	-1355
▁같다	-1356
▁그럼	-1357
ᅲᅲ	-1358
▁관광	-1359
30	-1360
.8	-1361
▁상품	-1362
▁말이	-1363
▁앞서	-1364
▁까	-1365
스럽	-1366
로는	-1367
▁절대	-1368
▁기반	-1369
나는	-1370
▁정부가	-1371
▁합니다	-1372
트를	-1373
▁위험	-1374
▁않는다	-1375
▁배우	-1376
▁뜻	-1377
동산	-1378
le	-1379
he	-1380
▁범죄	-1381
▁역할	-1382
▁아닌가	-1383
스가	-1384
아야	-1385
▁활동	-1386
마라	-1387
▁징	-1388
▁보도	-1389
▁역사	-1390
▁2019	-1391
▁가치	-1392
▁라고	-1393
▁불법	-1394
▁잔	-1395
▁없고	-1396
▁있으며	-1397
보를	-1398
▁거의	-1399
▁엘	-1400
전자	-1401
▁U	-1402
텐데	-1403
▁도움	-1404
▁네이버	-1405
▁석	-1406
▁써	-1407
▁뛰	-1408
▁기관	-1409
정한	-1410
▁케	-1411
새끼	-1412
▁문제가	-1413
▁티	-1414
르고	-1415
▁행사	-1416
▁도시	-1417
▁치료	-1418
▁딸	-1419
금을	-1420
▁이는	-1421
▁마지막	-1422
.9	-1423
이션	-1424
더라	-1425
▁쓸	-1426
하겠다	-1427
해서는	-1428
했는데	-1429
▁업무	-1430
이를	-1431
년간	-1432
▁반영	-1433
머니	-1434
되었다	-1435
▁감소	-1436
▁국회의	-1437
▁...	-1438
세계	-1439
▁계획이다	-1440
▁카드	-1441
식이	-1442
▁인사	-1443
▁긴	-1444
▁뇌	-1445
원에	-1446
스크	-1447
▁소리	-1448
▁삶	-1449
정책	-1450
▁정의	-1451
▁통신	-1452
▁이건	-1453
▁러시아	-1454
스타	-1455
▁KT	-1456
대에	-1457
다니	-1458
▁보수	-1459
사회	-1460
▁박근혜	-1461
▁위치	-1462
▁노력	-1463
이지만	-1464
▁주변	-1465
없다	-1466
물을	-1467
▁뭘	-1468
▁news	-1469
▁내년	-1470
▁궁	-1471
▁생활	-1472
▁부모	-1473
관계	-1474
▁듣	-1475
▁짱	-1476
▁29	-1477
▁꼴	-1478
▁때문이다	-1479
▁격	-1480
▁전략	-1481
과의	-1482
봐라	-1483
원의	-1484
▁혁신	-1485
▁고려	-1486
▁공연	-1487
지지	-1488
구만	-1489
▁사람들이	-1490
하니	-1491
▁맛	-1492
▁거짓	-1493
▁있지만	-1494
려면	-1495
▁데이터	-1496
도는	-1497
보는	-1498
▁수익	-1499
▁각각	-1500
▁꼬	-1501
가를	-1502
나요	-1503
▁라이	-1504
▁해도	-1505
▁겨	-1506
▁빨리	-1507
▁등에	-1508
▁쿠	-1509
장에	-1510
ou	-1511
19	-1512
어난	-1513
▁사라	-1514
▁하락	-1515
▁유럽	-1516
리즈	-1517
▁우려	-1518
▁슬	-1519
▁미친	-1520
▁세상	-1521
▁이벤	-1522
▁도입	-1523
▁근데	-1524
▁공식	-1525
▁적폐	-1526
▁전기	-1527
▁재앙	-1528
▁대응	-1529
먹고	-1530
▁아파트	-1531
▁드러	-1532
▁틀	-1533
됩니다	-1534
▁업체	-1535
이익	-1536
이란	-1537
▁인천	-1538
▁자리	-1539
▁AI	-1540
▁하는데	-1541
화가	-1542
▁최초	-1543
▁전부	-1544
▁경험	-1545
이상	-1546
▁품	-1547
다면	-1548
식으로	-1549
▁퇴	-1550
▁이뤄	-1551
▁이야기	-1552
겠네	-1553
▁발전	-1554
▁멀	-1555
관리	-1556
바일	-1557
▁구조	-1558
디어	-1559
70	-1560
대는	-1561
스의	-1562
▁협력	-1563
▁/	-1564
▁서로	-1565
▁기념	-1566
업체	-1567
▁주민	-1568
주세요	-1569
▁자유한국당	-1570
▁헤	-1571
▁통일	-1572
▁광주	-1573
▁구속	-1574
선을	-1575
당이	-1576
▁요즘	-1577
▁구매	-1578
▁선정	-1579
▁자동차	-1580
▁비슷	-1581
▁루	-1582
지원	-1583
▁그런데	-1584
립니다	-1585
▁바람	-1586
롯데	-1587
▁억	-1588
▁얼굴	-1589
▁봉	-1590
▁넣	-1591
▁못한	-1592
▁되어	-1593
▁집중	-1594
▁과정	-1595
▁남자	-1596
▁구축	-1597
이드	-1598
▁대체	-1599
▁봤	-1600
장관	-1601
▁찬	-1602
▁빨갱이	-1603
분기	-1604
하는거	-1605
re	-1606
▁핵심	-1607
▁견	-1608
21	-1609
▁공산	-1610
▁아직도	-1611
▁힘들	-1612
▁그대로	-1613
▁보호	-1614
▁중소	-1615
간다	-1616
임금	-1617
▁비판	-1618
시고	-1619
▁아베	-1620
되었	-1621
권을	-1622
▁정부는	-1623
▁60	-1624
▁부동산	-1625
이니	-1626
▁대상으로	-1627
시설	-1628
대의	-1629
▁받은	-1630
▁참가	-1631
▁합의	-1632
ic	-1633
▁공감	-1634
르게	-1635
▁나라가	-1636
▁색	-1637
▁제외	-1638
▁보유	-1639
▁걱	-1640
부가	-1641
지로	-1642
기고	-1643
▁사람들	-1644
▁않았다	-1645
▁31	-1646
제가	-1647
▁영국	-1648
▁여러분	-1649
▁해라	-1650
▁사기	-1651
▁~	-1652
▁대신	-1653
▁필요한	-1654
원에서	-1655
이어	-1656
인트	-1657
▁비핵	-1658
▁..	-1659
▁?	-1660
영화	-1661
조건	-1662
▁나는	-1663
▁오른	-1664
▁평균	-1665
이자	-1666
ion	-1667
▁낙	-1668
▁소개	-1669
▁199	-1670
랫폼	-1671
▁플레이	-1672
▁확보	-1673
▁그래도	-1674
()	-1675
부를	-1676
▁공급	-1677
▁h	-1678
▁과학	-1679
▁newsis	-1680
▁친구	-1681
▁제시	-1682
▁모습을	-1683
▁감독	-1684
▁이재	-1685
당은	-1686
▁모바일	-1687
한거	-1688
▁팬	-1689
▁빌	-1690
▁여론	-1691
대통령	-1692
적이	-1693
▁조작	-1694
▁무엇	-1695
▁많다	-1696
세대	-1697
▁교수	-1698
▁됐다	-1699
만큼	-1700
감을	-1701
오는	-1702
했지만	-1703
년에	-1704
▁경영	-1705
▁2015	-1706
▁전했다	-1707
사일	-1708
프로	-1709
▁슈	-1710
▁꾸	-1711
▁롯데	-1712
히려	-1713
▁강조했다	-1714
▁콘텐츠	-1715
투자	-1716
선거	-1717
▁처벌	-1718
▁자연	-1719
▁나가	-1720
약을	-1721
▁표현	-1722
장과	-1723
▁딱	-1724
▁밤	-1725
▁새끼	-1726
▁주인	-1727
▁술	-1728
내고	-1729
▁노조	-1730
와서	-1731
그룹	-1732
▁우리가	-1733
▁선수	-1734
▁흔	-1735
▁펼	-1736
▁감사	-1737
영상	-1738
환경	-1739
가능	-1740
▁시행	-1741
▁경기도	-1742
▁해서	-1743
란다	-1744
▁덕	-1745
▁탄핵	-1746
▁스마트폰	-1747
국가	-1748
▁전시	-1749
km	-1750
▁코스	-1751
▁건설	-1752
▁ᄒᄒ	-1753
이기	-1754
▁직원	-1755
서를	-1756
▁짜	-1757
▁돼	-1758
▁의혹	-1759
으면서	-1760
▁한반도	-1761
▁부족	-1762
씨는	-1763
▁보는	-1764
지않	-1765
▁놓	-1766
▁최종	-1767
기사	-1768
▁어렵	-1769
이랑	-1770
▁강원	-1771
▁되고	-1772
더라도	-1773
▁젊	-1774
▁지난달	-1775
▁논의	-1776
▁신청	-1777
하거나	-1778
▁밥	-1779
▁하다	-1780
▁말을	-1781
▁인해	-1782
▁언급	-1783
▁헌	-1784
▁등으로	-1785
▁혜	-1786
▁나서	-1787
▁혈	-1788
이크	-1789
▁최소	-1790
▁출신	-1791
훈련	-1792
▁지켜	-1793
▁흐	-1794
▁가진	-1795
▁오히려	-1796
▁애플	-1797
▁친일	-1798
▁탑	-1799
프트	-1800
리면	-1801
▁서비스를	-1802
▁기억	-1803
위에	-1804
▁갤	-1805
카오	-1806
▁운동	-1807
▁정도로	-1808
BS	-1809
▁헬	-1810
사고	-1811
▁자료	-1812
▁인도	-1813
▁강력	-1814
▁대표는	-1815
소년	-1816
▁능력	-1817
▁따른	-1818
거래	-1819
▁끼	-1820
보니	-1821
하는게	-1822
▁청년	-1823
하기로	-1824
던데	-1825
▁있게	-1826
달러	-1827
▁실제	-1828
▁일이	-1829
▁이전	-1830
두고	-1831
▁받을	-1832
▁스스로	-1833
회사	-1834
▁현지시간	-1835
한데	-1836
▁70	-1837
▁가까	-1838
▁꿈	-1839
▁연결	-1840
▁규제	-1841
▁부담	-1842
물이	-1843
▁전투	-1844
▁그게	-1845
▁땅	-1846
했다는	-1847
▁전자	-1848
▁무역	-1849
때문에	-1850
▁플랫폼	-1851
▁괜	-1852
업을	-1853
겠다는	-1854
수록	-1855
▁우선	-1856
계를	-1857
▁혐의	-1858
▁수입	-1859
▁인공	-1860
내는	-1861
▁전문가	-1862
라면	-1863
▁달리	-1864
우는	-1865
▁혹	-1866
▁사과	-1867
지에	-1868
게임	-1869
▁재판	-1870
지면	-1871
▁공공	-1872
▁괴	-1873
▁북미	-1874
언론	-1875
▁음악	-1876
드시	-1877
▁공무원	-1878
받고	-1879
▁졸	-1880
ing	-1881
▁입장	-1882
준다	-1883
▁얘기	-1884
▁없었	-1885
하다고	-1886
▁정확	-1887
음을	-1888
▁가능성이	-1889
므로	-1890
▁그리	-1891
냈다	-1892
▁이거	-1893
▁중앙	-1894
▁밝혀	-1895
▁알아	-1896
▁인터넷	-1897
▁일자리	-1898
대체	-1899
▁행동	-1900
▁다니	-1901
▁확실	-1902
▁시즌	-1903
▁사망	-1904
▁숙	-1905
▁대책	-1906
▁차지	-1907
▁읽	-1908
겠지만	-1909
▁사는	-1910
▁조성	-1911
▁국민들	-1912
조선	-1913
▁실시	-1914
드를	-1915
▁유명	-1916
▁못하고	-1917
▁J	-1918
일이	-1919
▁프랑	-1920
트남	-1921
▁스토	-1922
▁안정	-1923
▁움	-1924
▁시리즈	-1925
▁발견	-1926
도시	-1927
▁니들	-1928
▁그동안	-1929
▁빈	-1930
▁촉	-1931
▁택시	-1932
...)	-1933
▁신경	-1934
▁국무	-1935
▁됐	-1936
▁서민	-1937
▁온라인	-1938
▁성과	-1939
▁쉬	-1940
▁프리	-1941
▁않을	-1942
as	-1943
▁중요한	-1944
▁뻔	-1945
▁강남	-1946
▁ᄍᄍ	-1947
난다	-1948
자들은	-1949
웨이	-1950
수도	-1951
▁안보	-1952
▁광고	-1953
▁제일	-1954
▁·	-1955
▁국방	-1956
비를	-1957
▁되었	-1958
소를	-1959
갔다	-1960
▁신규	-1961
개의	-1962
▁고용	-1963
▁먹고	-1964
▁소속	-1965
학생	-1966
▁곧	-1967
▁업계	-1968
문을	-1969
이라며	-1970
▁두고	-1971
▁가지	-1972
▁나온다	-1973
너지	-1974
▁뒷	-1975
▁아니냐	-1976
▁덧	-1977
▁발언	-1978
▁재미	-1979
와의	-1980
▁되었다	-1981
▁가는	-1982
▁걱정	-1983
정상	-1984
회에서	-1985
▁좋다	-1986
▁이라며	-1987
▁국민의	-1988
▁인상	-1989
원으로	-1990
▁관람	-1991
▁액	-1992
▁의료	-1993
촬영	-1994
▁결혼	-1995
▁이벤트	-1996
어라	-1997
▁조직	-1998
▁충분	-1999
▁가능하다	-2000
▁공간	-2001
▁독일	-2002
▁비핵화	-2003
▁소재	-2004
▁겁	-2005
▁칼	-2006
했을	-2007
▁녹	-2008
▁받는	-2009
▁전혀	-2010
▁사람은	-2011
▁대단	-2012
성과	-2013
건가	-2014
점이	-2015
▁b	-2016
만에	-2017
▁논란	-2018
▁항공	-2019
주택	-2020
▁원내	-2021
▁꺼	-2022
▁대형	-2023
회가	-2024
인들	-2025
항공	-2026
민주당	-2027
▁않아	-2028
▁분위	-2029
건데	-2030
▁나오는	-2031
치가	-2032
▁갖고	-2033
롭게	-2034
▁영향을	-2035
중한	-2036
▁한다는	-2037
▁미국의	-2038
▁행복	-2039
▁없애	-2040
▁대화	-2041
▁한다고	-2042
위가	-2043
▁+	-2044
▁독립	-2045
놈들	-2046
▁못하는	-2047
▁비용	-2048
▁원래	-2049
▁이루	-2050
▁묻	-2051
▁국정	-2052
증권	-2053
방송	-2054
리의	-2055
사로	-2056
▁기획	-2057
반기	-2058
하다는	-2059
▁챙	-2060
▁푸	-2061
▁잃	-2062
▁참고	-2063
것이다	-2064
(...)	-2065
▁전년	-2066
▁레이	-2067
▁움직	-2068
▁아마	-2069
▁맨	-2070
▁,	-2071
▁아니면	-2072
▁잡아	-2073
▁이하	-2074
포츠	-2075
▁바뀌	-2076
▁지구	-2077
주가	-2078
율이	-2079
▁일단	-2080
▁가능한	-2081
▁밖에	-2082
▁젊은	-2083
명박	-2084
년부터	-2085
▁응원	-2086
사와	-2087
et	-2088
▁80	-2089
것은	-2090
▁시절	-2091
▁체험	-2092
▁쓴	-2093
위는	-2094
어가	-2095
으로는	-2096
▁만에	-2097
번째	-2098
거야	-2099
하시	-2100
▁최저임금	-2101
▁염	-2102
▁맞는	-2103
▁오래	-2104
▁w	-2105
려라	-2106
하기도	-2107
????	-2108
▁수요	-2109
▁처리	-2110
▁카카오	-2111
12	-2112
▁쥐	-2113
▁미국이	-2114
▁베트남	-2115
▁실제로	-2116
▁방향	-2117
......	-2118
해주	-2119
▁북한이	-2120
▁가져	-2121
려서	-2122
겠다고	-2123
국이	-2124
서비스	-2125
▁000	-2126
기간	-2127
장으로	-2128
성은	-2129
▁주는	-2130
▁높아	-2131
▁전달	-2132
▁예산	-2133
제품	-2134
량을	-2135
▁개돼지	-2136
▁쉽게	-2137
▁신고	-2138
▁던	-2139
▁국회의원	-2140
▁대변	-2141
ent	-2142
▁가입	-2143
▁납	-2144
▁무조건	-2145
▁내부	-2146
▁동물	-2147
▁시키	-2148
자들의	-2149
차를	-2150
▁아버	-2151
체인	-2152
▁뭐가	-2153
것을	-2154
▁덧붙	-2155
자기	-2156
▁f	-2157
▁비해	-2158
▁여전	-2159
▁블록	-2160
▁우리는	-2161
▁평창	-2162
▁스킬	-2163
▁그의	-2164
▁반드시	-2165
▁중인	-2166
▁각종	-2167
페이지	-2168
▁느낌	-2169
▁모르는	-2170
▁잇	-2171
기의	-2172
사에	-2173
▁싱	-2174
▁바른	-2175
▁교통	-2176
▁증거	-2177
▁멋	-2178
▁맥	-2179
생활	-2180
리카	-2181
량이	-2182
▁안되	-2183
▁희망	-2184
▁벗	-2185
행을	-2186
▁대기업	-2187
▁아침	-2188
▁하이	-2189
그래	-2190
▁하면서	-2191
▁한심	-2192
▁그림	-2193
회는	-2194
자와	-2195
러스	-2196
▁종목	-2197
국의	-2198
▁으로	-2199
▁섬	-2200
▁그룹	-2201
건지	-2202
지방	-2203
도의	-2204
만이	-2205
우리	-2206
▁공유	-2207
문제	-2208
40	-2209
▁혜택	-2210
▁앱	-2211
▁선동	-2212
▁세월	-2213
플레이	-2214
▁반면	-2215
▁있던	-2216
디오	-2217
▁국민이	-2218
▁어쩌	-2219
하도록	-2220
▁동시에	-2221
ed	-2222
겠냐	-2223
임을	-2224
oto	-2225
11	-2226
▁위해서	-2227
▁2014	-2228
봐야	-2229
▁인물	-2230
▁추천	-2231
▁본격	-2232
▁만드는	-2233
▁흥	-2234
▁영상을	-2235
▁인생	-2236
5%	-2237
▁않다	-2238
▁역할을	-2239
▁반도	-2240
▁지급	-2241
체가	-2242
시민	-2243
수의	-2244
▁주인공	-2245
▁전용	-2246
▁정부의	-2247
▁부정	-2248
▁대전	-2249
▁향후	-2250
보다는	-2251
▁스트	-2252
▁변화	-2253
▁행정	-2254
하세요	-2255
▁민간	-2256
안전	-2257
▁특징	-2258
▁달러	-2259
▁500	-2260
▁아시아	-2261
아가	-2262
▁제조	-2263
▁제기	-2264
▁지도	-2265
생각	-2266
▁한국당	-2267
▁자세	-2268
▁일을	-2269
▁지하	-2270
라마	-2271
▁정상회담	-2272
▁무능	-2273
▁지키	-2274
▁출연	-2275
회에	-2276
레스	-2277
▁인권	-2278
었는데	-2279
hoto	-2280
▁겪	-2281
▁하늘	-2282
들고	-2283
▁사례	-2284
▁달라	-2285
이라면	-2286
▁전환	-2287
씨가	-2288
▁공정	-2289
▁활성	-2290
▁우수	-2291
▁중심으로	-2292
일을	-2293
단을	-2294
▁사전	-2295
▁캠	-2296
▁요청	-2297
▁통합	-2298
▁수상	-2299
▁끊	-2300
단이	-2301
▁종합	-2302
▁보이	-2303
▁유치	-2304
▁예술	-2305
▁형태	-2306
▁앉	-2307
▁디지	-2308
▁진출	-2309
▁혼자	-2310
과학	-2311
경찰	-2312
지능	-2313
라우	-2314
▁훨	-2315
끼리	-2316
들만	-2317
▁깊	-2318
id	-2319
리기	-2320
▁니들이	-2321
▁도대체	-2322
60	-2323
▁무시	-2324
▁회복	-2325
했으며	-2326
▁아무리	-2327
▁보기	-2328
화폐	-2329
▁전에	-2330
▁d	-2331
▁검토	-2332
일본	-2333
▁보니	-2334
▁앵	-2335
▁제한	-2336
자에게	-2337
▁주목	-2338
▁곡	-2339
당한	-2340
텔레	-2341
할수	-2342
▁있어서	-2343
규모	-2344
촛불	-2345
사에서	-2346
▁그걸	-2347
▁심각	-2348
▁맞아	-2349
금융	-2350
▁중소기업	-2351
▁태풍	-2352
관이	-2353
차가	-2354
▁분명	-2355
el	-2356
▁o	-2357
▁군사	-2358
른다	-2359
am	-2360
아이	-2361
▁독자	-2362
등학교	-2363
가리	-2364
나마	-2365
우고	-2366
▁기상	-2367
▁시설	-2368
하겠습니다	-2369
어를	-2370
해보	-2371
▁#	-2372
▁경남	-2373
,,,	-2374
움을	-2375
럭시	-2376
▁X	-2377
▁자주	-2378
심히	-2379
▁지금까지	-2380
~~~~	-2381
▁냉	-2382
▁받았	-2383
▁순간	-2384
▁어찌	-2385
▁안타	-2386
▁어린이	-2387
▁나라를	-2388
▁ᄉ	-2389
▁이명박	-2390
▁Y	-2391
일에	-2392
▁줄어	-2393
▁기술을	-2394
▁은행	-2395
▁맘	-2396
만한	-2397
▁원내대표	-2398
들에	-2399
▁들어가	-2400
▁주택	-2401
▁뿌	-2402
과는	-2403
▁장애	-2404
▁거짓말	-2405
자동	-2406
▁탓	-2407
il	-2408
▁다르	-2409
▁안되는	-2410
실을	-2411
▁멍	-2412
▁국민을	-2413
▁대통령의	-2414
▁나와	-2415
▁돈을	-2416
▁회담	-2417
▁제재	-2418
▁되면	-2419
▁보통	-2420
▁있으면	-2421
80	-2422
▁노래	-2423
인들이	-2424
▁벌어	-2425
▁photo	-2426
▁장면	-2427
▁쓰는	-2428
▁홈페이지	-2429
▁반응	-2430
//	-2431
BC	-2432
▁라는	-2433
지말고	-2434
▁자식	-2435
아라	-2436
▁이사	-2437
▁담당	-2438
▁흑	-2439
▁작은	-2440
이에	-2441
▁자체가	-2442
;;	-2443
▁도로	-2444
▁할인	-2445
▁변호	-2446
▁힘을	-2447
▁법무	-2448
로부터	-2449
부에	-2450
▁현장	-2451
코리아	-2452
▁신뢰	-2453
다운	-2454
하였다	-2455
성에	-2456
▁300	-2457
이팅	-2458
되면서	-2459
정신	-2460
안이	-2461
▁받았다	-2462
▁많아	-2463
▁자신이	-2464
▁주식	-2465
▁설립	-2466
▁인터뷰	-2467
것들	-2468
▁홍보	-2469
▁무기	-2470
▁건물	-2471
▁계약	-2472
구가	-2473
▁이젠	-2474
▁미사일	-2475
▁아프	-2476
미래	-2477
▁가짜	-2478
▁운전	-2479
▁소득	-2480
▁74	-2481
▁연기	-2482
그러	-2483
▁싶다	-2484
▁반도체	-2485
▁독재	-2486
나고	-2487
▁여름	-2488
병원	-2489
▁이익	-2490
▁항상	-2491
료를	-2492
년을	-2493
▁서울시	-2494
▁가서	-2495
위로	-2496
상에	-2497
),	-2498
▁살인	-2499
▁나도	-2500
▁프랑스	-2501
나가	-2502
세가	-2503
▁아님	-2504
적을	-2505
▁나쁜	-2506
▁사무	-2507
▁특검	-2508
▁털	-2509
▁이래	-2510
전쟁	-2511
안에	-2512
▁중이다	-2513
▁유일	-2514
▁문제를	-2515
시킨	-2516
인으로	-2517
▁마찬	-2518
▁지정	-2519
▁단순	-2520
▁과정에서	-2521
▁늦	-2522
▁여전히	-2523
올림픽	-2524
▁대출	-2525
▁휘	-2526
▁국민들이	-2527
먹는	-2528
▁90	-2529
구를	-2530
▁이와	-2531
▁왼	-2532
▁그녀	-2533
가의	-2534
om	-2535
관광	-2536
▁전해	-2537
▁빅	-2538
▁시간이	-2539
--	-2540
관에서	-2541
▁머리	-2542
▁있지	-2543
▁들고	-2544
명은	-2545
▁이번에	-2546
▁되지	-2547
▁외국인	-2548
격을	-2549
▁당연히	-2550
▁상위	-2551
져야	-2552
비가	-2553
13	-2554
▁근로	-2555
▁경우가	-2556
▁솔직	-2557
▁너희	-2558
▁역대	-2559
시키고	-2560
어버	-2561
가족	-2562
지게	-2563
라리	-2564
랍니다	-2565
라서	-2566
▁변경	-2567
▁국토	-2568
▁투표	-2569
▁여러분의	-2570
▁장기	-2571
▁ᄌ	-2572
▁파악	-2573
▁소중한	-2574
조작	-2575
▁의해	-2576
▁보험	-2577
차는	-2578
▁판결	-2579
인간	-2580
▁실시간	-2581
ac	-2582
이로	-2583
▁채용	-2584
▁인공지능	-2585
을때	-2586
▁영업이익	-2587
▁번째	-2588
▁통한	-2589
▁연속	-2590
어로	-2591
▁덧붙였다	-2592
▁나타났다	-2593
년대	-2594
▁면서	-2595
었던	-2596
▁익	-2597
였던	-2598
▁단체	-2599
▁아래	-2600
화된	-2601
교통	-2602
줘야	-2603
▁끌어	-2604
▁괜찮	-2605
발전	-2606
▁모양	-2607
▁나올	-2608
▁나왔	-2609
쳤다	-2610
▁성능	-2611
▁봄	-2612
워크	-2613
해야지	-2614
▁국립	-2615
▁자랑	-2616
무현	-2617
▁가상	-2618
▁탐	-2619
▁개정	-2620
▁더불어민주당	-2621
▁콜	-2622
▁프로젝	-2623
▁바꾸	-2624
느냐	-2625
▁전통	-2626
거냐	-2627
분이	-2628
많은	-2629
▁남성	-2630
▁실패	-2631
▁관련해	-2632
▁집값	-2633
▁근무	-2634
▁회의	-2635
▁있으니	-2636
▁의원은	-2637
감이	-2638
▁사실상	-2639
▁있기	-2640
.5%	-2641
▁왔	-2642
▁폴	-2643
▁디자인	-2644
25	-2645
보가	-2646
시키는	-2647
▁고민	-2648
▁마찬가지	-2649
할때	-2650
일은	-2651
문재	-2652
보험	-2653
▁쌓	-2654
▁주고	-2655
▁타이	-2656
▁옮	-2657
법을	-2658
▁촛불	-2659
▁호텔	-2660
▁어려운	-2661
▁싶은	-2662
▁좌빨	-2663
▁당장	-2664
▁방침	-2665
▁북한의	-2666
▁훨씬	-2667
▁바란다	-2668
▁하자	-2669
▁옆	-2670
분에	-2671
정치	-2672
▁정은	-2673
드로	-2674
워서	-2675
▁제보를	-2676
▁빛	-2677
15	-2678
▁내놓	-2679
▁사법	-2680
차피	-2681
▁전라도	-2682
수로	-2683
▁올림픽	-2684
▁뜨	-2685
▁엄마	-2686
주를	-2687
▁없을	-2688
범죄	-2689
▁벤	-2690
리로	-2691
북한	-2692
본부	-2693
▁옛	-2694
▁갤럭시	-2695
국은	-2696
려야	-2697
▁일으	-2698
▁기다립니다	-2699
▁!	-2700
▁기온	-2701
단은	-2702
▁썩	-2703
▁포기	-2704
▁<	-2705
지의	-2706
▁컴	-2707
의도	-2708
▁문제는	-2709
▁쌍	-2710
▁찌	-2711
받는	-2712
▁체결	-2713
▁낮은	-2714
▁대해서	-2715
▁아예	-2716
▁바라	-2717
▁시험	-2718
▁것이라고	-2719
▁한미	-2720
▁이상의	-2721
정에	-2722
▁인근	-2723
▁니가	-2724
▁굴	-2725
▁장난	-2726
▁그때	-2727
메라	-2728
▁비중	-2729
▁열심히	-2730
▁편의	-2731
▁일본의	-2732
▁기록했다	-2733
년생	-2734
드가	-2735
▁조건	-2736
기와	-2737
▁지들	-2738
심을	-2739
무리	-2740
제는	-2741
▁35	-2742
조차	-2743
▁[	-2744
함을	-2745
▁느끼	-2746
▁02	-2747
되며	-2748
대학	-2749
점에서	-2750
▁사회적	-2751
▁사람들은	-2752
년이	-2753
▁기준으로	-2754
▁대중	-2755
▁음식	-2756
나게	-2757
▁l	-2758
슬람	-2759
▁취업	-2760
▁앵커	-2761
▁유통	-2762
mm	-2763
▁철저	-2764
듯이	-2765
▁중단	-2766
에만	-2767
▁분양	-2768
▁본인	-2769
▁기레기	-2770
▁하며	-2771
▁디지털	-2772
연합	-2773
▁자율	-2774
▁평양	-2775
적이고	-2776
월부터	-2777
체를	-2778
▁2013	-2779
▁밑	-2780
▁아름	-2781
진짜	-2782
▁흡	-2783
▁텔레	-2784
▁ᄏᄏᄏᄏᄏ	-2785
▁한국의	-2786
상은	-2787
▁페이스	-2788
▁불편	-2789
▁무료	-2790
▁작년	-2791
▁방어	-2792
▁애니	-2793
▁사실을	-2794
▁까지	-2795
▁블랙	-2796
▁k	-2797
▁알려졌다	-2798
률이	-2799
▁거쳐	-2800
▁작업	-2801
▁금지	-2802
▁돼지	-2803
▁했는데	-2804
공항	-2805
▁위반	-2806
▁없다는	-2807
멤버	-2808
▁같은데	-2809
▁통과	-2810
▁알바	-2811
▁사형	-2812
▁the	-2813
선이	-2814
까요	-2815
영업	-2816
▁권력	-2817
▁타고	-2818
받은	-2819
평화	-2820
▁이끌	-2821
▁세월호	-2822
▁대북	-2823
준표	-2824
부의	-2825
평가	-2826
케팅	-2827
▁단계	-2828
리어	-2829
▁촬영	-2830
▁걷	-2831
▁작성	-2832
▁궁금	-2833
▁꽃	-2834
지금	-2835
대학교	-2836
▁꼽	-2837
▁울산	-2838
st	-2839
▁자살	-2840
사진	-2841
마디	-2842
▁이러한	-2843
▁특수	-2844
▁상당히	-2845
히는	-2846
▁굳	-2847
하려	-2848
▁성폭	-2849
포인트	-2850
▁IT	-2851
▁이유가	-2852
▁조용	-2853
tt	-2854
▁문죄	-2855
나서	-2856
▁하기	-2857
▁잊	-2858
▁집단	-2859
▁이용해	-2860
▁때는	-2861
▁뮤	-2862
▁비롯해	-2863
▁제목	-2864
▁차별	-2865
▁완전히	-2866
▁방식	-2867
▁아는	-2868
▁남아	-2869
▁수가	-2870
▁왼쪽	-2871
수준	-2872
▁좋겠다	-2873
▁유튜	-2874
중앙	-2875
▁도와	-2876
업계	-2877
▁쓰고	-2878
랐다	-2879
▁에어	-2880
▁고통	-2881
▁개혁	-2882
▁시청	-2883
질을	-2884
▁요금	-2885
▁거기	-2886
▁1000	-2887
사건	-2888
▁화재	-2889
니스	-2890
개를	-2891
▁ᅳ	-2892
▁지랄	-2893
트로	-2894
▁빠져	-2895
▁인기	-2896
▁필요하다	-2897
▁→	-2898
이도	-2899
상의	-2900
여서	-2901
▁ᅲᅲ	-2902
▁제보	-2903
▁팩	-2904
▁관람객	-2905
▁없었다	-2906
▁구체	-2907
▁임명	-2908
에서의	-2909
▁주로	-2910
복지	-2911
산을	-2912
성장	-2913
성도	-2914
▁흘	-2915
▁일본이	-2916
un	-2917
▁원하는	-2918
▁2000	-2919
관은	-2920
스러운	-2921
▁놓고	-2922
▁민족	-2923
▁중간	-2924
리오	-2925
▁바탕	-2926
온다	-2927
관을	-2928
▁인증	-2929
▁첨	-2930
격이	-2931
노동	-2932
정의	-2933
시대	-2934
▁깔	-2935
이런	-2936
▁비슷한	-2937
▁약속	-2938
만의	-2939
▁생각이	-2940
▁피해를	-2941
........	-2942
▁바다	-2943
▁의심	-2944
▁최악	-2945
▁불구	-2946
▁보이는	-2947
▁만들고	-2948
▁옥	-2949
▁수행	-2950
으로도	-2951
▁넓	-2952
▁무서	-2953
▁예방	-2954
바로	-2955
▁창업	-2956
▁소방	-2957
운드	-2958
▁마을	-2959
라스	-2960
리티	-2961
▁제출	-2962
▁사업을	-2963
명으로	-2964
▁증권	-2965
▁저렇게	-2966
▁지금은	-2967
▁관한	-2968
노조	-2969
스토	-2970
▁강한	-2971
학과	-2972
▁일어나	-2973
▁낫	-2974
프라	-2975
▁설정	-2976
시스템	-2977
도에	-2978
▁이유로	-2979
▁위협	-2980
한다면	-2981
▁로봇	-2982
루킹	-2983
▁비롯한	-2984
▁안된다	-2985
▁블록체인	-2986
▁차단	-2987
▁묘	-2988
▁불러	-2989
질이	-2990
▁보안	-2991
▁홍콩	-2992
루션	-2993
kr	-2994
자에	-2995
▁a	-2996
▁측은	-2997
▁등록	-2998
품을	-2999
인과	-3000
▁없다고	-3001
전이	-3002
분을	-3003
리스트	-3004
받아	-3005
스코	-3006
억원을	-3007
ol	-3008
ᅮᅮ	-3009
청은	-3010
▁정보를	-3011
▁밖	-3012
▁사람을	-3013
로서	-3014
▁화제	-3015
여행	-3016
▁북한에	-3017
▁드라마	-3018
시가	-3019
노총	-3020
▁부문	-3021
▁주가	-3022
▁둔	-3023
▁대해서는	-3024
▁맞춰	-3025
▁갔	-3026
ch	-3027
▁점을	-3028
and	-3029
▁있나	-3030
▁시켜	-3031
▁동일	-3032
▁불안	-3033
▁구글	-3034
▁삭	-3035
주기	-3036
▁샤	-3037
소가	-3038
▁불과	-3039
▁내용을	-3040
▁올려	-3041
ig	-3042
지어	-3043
▁매년	-3044
▁어제	-3045
▁획	-3046
▁전세계	-3047
▁이유는	-3048
▁겸	-3049
▁늘어	-3050
.3%	-3051
▁주사	-3052
▁주의	-3053
▁어차피	-3054
든지	-3055
▁장비	-3056
.2%	-3057
▁헛	-3058
▁그나마	-3059
▁삼성전자	-3060
▁매일	-3061
▁비가	-3062
▁난민	-3063
▁도움이	-3064
ttp	-3065
니아	-3066
.1%	-3067
소득	-3068
율은	-3069
▁마라	-3070
▁상대로	-3071
계획	-3072
▁대법	-3073
▁연출	-3074
▁이란	-3075
▁훈련	-3076
▁버스	-3077
지면서	-3078
▁몬	-3079
▁노무현	-3080
▁인한	-3081
▁투입	-3082
16	-3083
▁그러면서	-3084
▁상장	-3085
▁확정	-3086
하라고	-3087
다른	-3088
200	-3089
▁앞에서	-3090
▁◇	-3091
▁없음	-3092
▁월급	-3093
▁평생	-3094
▁회장	-3095
▁아들	-3096
▁교수는	-3097
▁살펴	-3098
▁황교	-3099
별로	-3100
에게는	-3101
▁ᅳᅳ	-3102
▁비행	-3103
17	-3104
거든	-3105
만을	-3106
▁세종	-3107
.4%	-3108
님이	-3109
해요	-3110
지사	-3111
▁초반	-3112
▁적이	-3113
▁우주	-3114
연금	-3115
://	-3116
복을	-3117
▁마이	-3118
년까지	-3119
▁사태	-3120
었고	-3121
▁옷	-3122
▁아이템	-3123
▁이달	-3124
지마라	-3125
▁점검	-3126
▁점점	-3127
리와	-3128
리한	-3129
▁최고의	-3130
나면	-3131
▁스포츠	-3132
회견	-3133
▁멤버	-3134
▁보상	-3135
▁덜	-3136
같다	-3137
트워크	-3138
▁고양	-3139
▁종교	-3140
▁198	-3141
▁쏟	-3142
▁슈퍼	-3143
▁36	-3144
▁솔직히	-3145
▁싫어	-3146
▁나왔다	-3147
의원	-3148
협회	-3149
겼다	-3150
국제	-3151
▁오픈	-3152
주시면	-3153
▁마법	-3154
▁나이	-3155
.”	-3156
▁오르	-3157
.7%	-3158
부와	-3159
▁전날	-3160
▁정당	-3161
티브	-3162
▁본다	-3163
NS	-3164
▁강제	-3165
▁폐지	-3166
▁바랍니다	-3167
▁소통	-3168
화에	-3169
▁불가능	-3170
▁경북	-3171
▁남편	-3172
▁추정	-3173
서울	-3174
전문	-3175
우스	-3176
▁의사	-3177
버스	-3178
▁앞두고	-3179
▁인식	-3180
▁바꿔	-3181
력은	-3182
▁든	-3183
▁33	-3184
트는	-3185
▁상황에서	-3186
▁특정	-3187
나라는	-3188
▁습	-3189
.6%	-3190
▁나머	-3191
▁공부	-3192
▁갑자기	-3193
공사	-3194
▁뉴욕	-3195
▁중국이	-3196
▁비난	-3197
나오	-3198
▁시간을	-3199
▁IC	-3200
던가	-3201
▁시대	-3202
하려고	-3203
▁상관	-3204
▁아이폰	-3205
일보	-3206
▁대선	-3207
▁전남	-3208
▁힘든	-3209
제에	-3210
▁말도	-3211
아닌	-3212
▁소설	-3213
▁난리	-3214
으로서	-3215
▁미국은	-3216
진이	-3217
▁조치	-3218
▁낸	-3219
.8%	-3220
▁2012	-3221
▁실적	-3222
.9%	-3223
▁접근	-3224
으로써	-3225
▁페이스북	-3226
▁겨울	-3227
▁협상	-3228
▁홍준표	-3229
▁진단	-3230
▁척	-3231
▁살고	-3232
▁선언	-3233
ro	-3234
▁필요가	-3235
카드	-3236
▁부터	-3237
▁열고	-3238
석이	-3239
보호	-3240
하였	-3241
▁거지	-3242
예술	-3243
▁최초로	-3244
▁총선	-3245
▁대기	-3246
말로	-3247
▁바탕으로	-3248
액은	-3249
율을	-3250
▁주도	-3251
세금	-3252
▁갈등	-3253
▁일정	-3254
수사	-3255
▁하여	-3256
보자	-3257
▁입장을	-3258
▁센	-3259
활동	-3260
하려는	-3261
▁부탁	-3262
▁전화	-3263
▁e	-3264
▁기타	-3265
하겠다는	-3266
▁y	-3267
▁혐의로	-3268
▁김영	-3269
▁프리미	-3270
어진	-3271
▁엉	-3272
▁화장	-3273
것들이	-3274
▁기자회견	-3275
중국	-3276
22	-3277
▁이기	-3278
▁날씨	-3279
▁강력한	-3280
▁소비자	-3281
정상회담	-3282
▁년	-3283
아치	-3284
트가	-3285
▁발사	-3286
으니까	-3287
▁꾸준	-3288
▁사퇴	-3289
▁레벨	-3290
▁제도	-3291
▁뭔가	-3292
▁에너지	-3293
▁배경	-3294
▁스페	-3295
받습니다	-3296
군이	-3297
▁측면	-3298
▁카메라	-3299
▁유튜브	-3300
▁일본은	-3301
ad	-3302
▁다들	-3303
져서	-3304
단의	-3305
대책	-3306
▁사장	-3307
▁검사	-3308
인에	-3309
▁완성	-3310
▁희생	-3311
▁말아	-3312
▁차라리	-3313
▁제공한다	-3314
수수	-3315
▁생긴	-3316
▁피해자	-3317
▁판단되는	-3318
문이	-3319
소에	-3320
▁협의	-3321
▁끝까지	-3322
▁인구	-3323
▁거부	-3324
▁셀	-3325
심이	-3326
바리	-3327
▁의무	-3328
기준	-3329
▁유저	-3330
▁이들은	-3331
▁작가	-3332
▁가면	-3333
▁of	-3334
▁저지	-3335
▁여의도	-3336
▁텔레콤	-3337
▁경찰은	-3338
▁공감언론	-3339
▁중국의	-3340
▁가슴	-3341
▁마케팅	-3342
▁업종	-3343
▁721	-3344
▁시각	-3345
▁검색	-3346
량은	-3347
점으로	-3348
▁달성	-3349
실에서	-3350
ay	-3351
▁알았	-3352
▁가만	-3353
단계	-3354
▁보내주시면	-3355
주면	-3356
▁창출	-3357
섰다	-3358
▁바이오	-3359
▁것에	-3360
▁닭	-3361
▁가치나	-3362
▁이제는	-3363
▁화면	-3364
▁임금	-3365
▁인수	-3366
▁사진영상	-3367
▁짱깨	-3368
▁시도	-3369
▁조정	-3370
▁삼성전	-3371
요일	-3372
▁임대	-3373
▁누군	-3374
제도	-3375
▁뉴시스가	-3376
▁안에	-3377
▁화제성이	-3378
▁월드	-3379
리게	-3380
군요	-3381
▁수술	-3382
▁홀	-3383
▁이걸	-3384
없고	-3385
▁7470	-3386
▁반영하겠습니다	-3387
▁사진영상부	-3388
▁제보받습니다	-3389
▁라며	-3390
▁문서	-3391
▁꽤	-3392
▁충분히	-3393
▁내일	-3394
점은	-3395
▁가정	-3396
▁고위	-3397
▁것입니다	-3398
▁다행	-3399
▁보장	-3400
▁제안	-3401
▁불쌍	-3402
▁바른미래	-3403
▁돈이	-3404
▁나중에	-3405
▁기여	-3406
▁남한	-3407
▁선생	-3408
웨어	-3409
ᄏᄏᄏᄏᄏᄏᄏᄏᄏᄏᄏᄏᄏᄏᄏᄏ	-3410
▁자꾸	-3411
▁애들	-3412
▁목숨	-3413
지마	-3414
im	-3415
▁수도권	-3416
계가	-3417
▁소환	-3418
▁일베	-3419
▁이야기를	-3420
▁그럴	-3421
경기	-3422
야한다	-3423
지와	-3424
철수	-3425
▁고생	-3426
▁Q	-3427
▁재밌	-3428
▁지적했다	-3429
▁부끄	-3430
직원	-3431
개가	-3432
▁종북	-3433
아요	-3434
로를	-3435
부모	-3436
▁나경	-3437
이게	-3438
▁웹	-3439
▁느껴	-3440
상공	-3441
▁32	-3442
▁바이	-3443
▁않으면	-3444
▁장관은	-3445
▁눈에	-3446
▁파괴	-3447
개혁	-3448
▁처음으로	-3449
적이다	-3450
▁여기에	-3451
▁열리는	-3452
▁조합	-3453
▁승리	-3454
▁매수	-3455
▁니네	-3456
▁재산	-3457
▁모르고	-3458
군의	-3459
대비	-3460
▁짧	-3461
▁공기	-3462
▁의견을	-3463
역을	-3464
▁있네	-3465
▁엑	-3466
▁현대차	-3467
▁있다면	-3468
▁둘러	-3469
▁뛰어	-3470
만명	-3471
▁차례	-3472
구조	-3473
대에서	-3474
▁생명	-3475
터리	-3476
▁기초	-3477
14	-3478
▁어디서	-3479
곳에	-3480
수있	-3481
▁초기	-3482
▁낳	-3483
iv	-3484
이즈	-3485
▁듣고	-3486
자동차	-3487
▁무너	-3488
▁나무	-3489
▁결과를	-3490
▁민주주의	-3491
▁관심을	-3492
▁생각한다	-3493
▁관심이	-3494
스티	-3495
▁과연	-3496
▁전망이다	-3497
▁말씀	-3498
▁야당	-3499
▁김성	-3500
▁순매	-3501
▁아울	-3502
▁한국은	-3503
▁자본	-3504
▁촉구	-3505
▁만약	-3506
▁선발	-3507
▁g	-3508
▁셈	-3509
▁비싸	-3510
기만	-3511
▁늘어나	-3512
▁보이고	-3513
▁별로	-3514
▁전반	-3515
▁따로	-3516
▁돌려	-3517
▁아닐	-3518
혁명	-3519
▁그저	-3520
▁여기서	-3521
▁제품을	-3522
협력	-3523
리자	-3524
▁물건	-3525
▁바보	-3526
하다가	-3527
부로	-3528
▁만족	-3529
▁활성화	-3530
▁ᆢ	-3531
▁굉	-3532
▁빚	-3533
▁출발	-3534
▁나선	-3535
▁상황이	-3536
가면	-3537
상으로	-3538
▁파트	-3539
▁압박	-3540
▁혹은	-3541
냐고	-3542
▁상황을	-3543
▁말하는	-3544
경영	-3545
시를	-3546
▁검증	-3547
▁다이	-3548
▁애초	-3549
률은	-3550
▁v	-3551
▁밝혔습니다	-3552
규직	-3553
재단	-3554
▁공장	-3555
ST	-3556
▁휴대	-3557
리며	-3558
▁베이	-3559
▁사용할	-3560
▁탑재	-3561
▁깜	-3562
▁즐길	-3563
▁한마디	-3564
▁긍	-3565
▁태양	-3566
건설	-3567
▁수십	-3568
."	-3569
▁진심	-3570
▁드루킹	-3571
깝다	-3572
▁생각하는	-3573
▁없는데	-3574
ᄏᄏᄏᄏᄏ	-3575
▁근거	-3576
▁새로	-3577
▁실험	-3578
▁안하고	-3579
▁했던	-3580
▁매국	-3581
▁화이팅	-3582
이들	-3583
▁빠르게	-3584
90	-3585
지기	-3586
▁생각해	-3587
▁병원	-3588
감독	-3589
이번	-3590
▁있음	-3591
구요	-3592
▁수는	-3593
잡고	-3594
▁토론	-3595
▁하게	-3596
국에	-3597
주행	-3598
▁디스	-3599
까지는	-3600
▁효율	-3601
▁제거	-3602
ED	-3603
▁수소	-3604
▁빠른	-3605
기자	-3606
▁선물	-3607
었다고	-3608
라우드	-3609
▁이들	-3610
▁쏟아	-3611
스와	-3612
억원으로	-3613
▁프리미엄	-3614
▁중에	-3615
▁청소년	-3616
▁것이라는	-3617
▁왔다	-3618
고를	-3619
▁일제	-3620
▁흉	-3621
▁이때	-3622
▁맺	-3623
스럽게	-3624
▁자녀	-3625
24	-3626
위원장	-3627
의견	-3628
진을	-3629
▁분노	-3630
▁밝히	-3631
▁물어	-3632
▁굉장	-3633
▁멍청	-3634
▁목소	-3635
달라고	-3636
▁더러운	-3637
▁따라서	-3638
▁문재인이	-3639
▁방안을	-3640
한게	-3641
▁진실	-3642
▁우리의	-3643
▁CE	-3644
좋은	-3645
▁아울러	-3646
ct	-3647
▁국회에서	-3648
▁엄청난	-3649
▁딜	-3650
▁자금	-3651
시킬	-3652
▁당선	-3653
대회	-3654
▁걍	-3655
▁정신차	-3656
▁직업	-3657
거라	-3658
▁유엔	-3659
▁통계	-3660
▁관광객	-3661
하겠다고	-3662
▁취소	-3663
▁우승	-3664
▁수석	-3665
아버	-3666
▁김경	-3667
▁발표했다	-3668
▁in	-3669
▁넘는	-3670
▁교체	-3671
▁마치	-3672
일까	-3673
년도	-3674
력과	-3675
▁대통령과	-3676
▁주장했다	-3677
▁손해	-3678
메이션	-3679
▁쏘	-3680
▁반복	-3681
▁활동을	-3682
재앙	-3683
상도	-3684
▁마무리	-3685
▁어머니	-3686
▁취급	-3687
▁폭발	-3688
▁심지어	-3689
▁기업이	-3690
▁미리	-3691
▁이름을	-3692
▁지속적으로	-3693
▁영웅	-3694
▁전면	-3695
▁미국과	-3696
드의	-3697
▁안내	-3698
말이	-3699
▁중구	-3700
▁예비	-3701
▁깨끗	-3702
▁주제로	-3703
▁규모의	-3704
▁이탈	-3705
▁어쩔	-3706
▁포함한	-3707
▁놈들	-3708
▁PC	-3709
▁했지만	-3710
▁게다가	-3711
그리고	-3712
▁회원	-3713
▁다가	-3714
▁비상	-3715
▁진보	-3716
▁컬	-3717
▁뭐냐	-3718
▁발굴	-3719
▁먹는	-3720
싶다	-3721
▁100%	-3722
▁제공하는	-3723
▁봐도	-3724
▁과학기술	-3725
OO	-3726
▁사상	-3727
▁높다	-3728
▁인간이	-3729
▁이것	-3730
▁짐	-3731
▁SNS	-3732
시켰	-3733
▁38	-3734
▁좋아하는	-3735
간의	-3736
▁해야지	-3737
이의	-3738
▁45	-3739
▁확장	-3740
▁넥	-3741
▁것과	-3742
▁투기	-3743
▁사용하는	-3744
▁영어	-3745
▁연계	-3746
▁대규모	-3747
널드	-3748
▁공모	-3749
▁10%	-3750
▁개념	-3751
▁믿고	-3752
▁채널	-3753
있고	-3754
▁이슈	-3755
▁박정	-3756
▁입니다	-3757
▁기능을	-3758
▁케이	-3759
2018	-3760
ow	-3761
▁맨날	-3762
▁몰아	-3763
▁설계	-3764
▁청문	-3765
자도	-3766
▁들이	-3767
▁동네	-3768
▁대표가	-3769
▁도착	-3770
▁있었던	-3771
▁생각을	-3772
대중	-3773
받을	-3774
▁있어야	-3775
자고	-3776
기지	-3777
▁50%	-3778
습니까	-3779
▁돌아가	-3780
▁전북	-3781
말을	-3782
▁프로젝트	-3783
주민	-3784
▁나누	-3785
는거지	-3786
▁화웨이	-3787
력으로	-3788
용이	-3789
▁불구하고	-3790
주로	-3791
▁못했다	-3792
상황	-3793
▁확산	-3794
9%	-3795
▁집행	-3796
▁진정한	-3797
속도로	-3798
▁간첩	-3799
▁못할	-3800
▁팔아	-3801
▁있는지	-3802
그냥	-3803
▁돕	-3804
트리	-3805
▁없어서	-3806
피해	-3807
선언	-3808
▁십	-3809
▁네트워크	-3810
▁하네	-3811
▁위안	-3812
통일	-3813
파크	-3814
월에	-3815
▁중국은	-3816
▁북한은	-3817
자나	-3818
종의	-3819
▁2011	-3820
▁풀어	-3821
▁류	-3822
▁주사파	-3823
▁유니	-3824
▁34	-3825
해야한다	-3826
▁덕분에	-3827
▁군대	-3828
▁부과	-3829
간에	-3830
▁자영업	-3831
▁디자	-3832
비는	-3833
▁등은	-3834
해진	-3835
유의	-3836
▁직장	-3837
먹을	-3838
▁긍정	-3839
▁자신을	-3840
▁그랬	-3841
시오	-3842
져라	-3843
▁절반	-3844
▁CJ	-3845
▁졸업	-3846
ation	-3847
▁떼	-3848
▁김정	-3849
▁펼쳐	-3850
느라	-3851
▁물러	-3852
했으나	-3853
▁친일파	-3854
성의	-3855
▁자격	-3856
장애	-3857
▁한정	-3858
▁암호	-3859
▁완료	-3860
▁불가	-3861
▁이나라	-3862
▁새벽	-3863
▁방사	-3864
▁덮	-3865
하러	-3866
▁소송	-3867
▁보여주	-3868
▁하는거	-3869
마을	-3870
▁자세한	-3871
시티	-3872
▁배치	-3873
▁도널드	-3874
리도	-3875
▁ᄒ	-3876
▁하니	-3877
▁2010	-3878
식품	-3879
▁내고	-3880
▁싹	-3881
레이드	-3882
ag	-3883
▁곳이	-3884
▁솔루션	-3885
크로	-3886
구는	-3887
▁개발한	-3888
▁오랜	-3889
▁기반으로	-3890
TV	-3891
차례	-3892
▁남은	-3893
▁지지율	-3894
▁계열	-3895
신을	-3896
▁득	-3897
나무	-3898
▁방식으로	-3899
▁동해	-3900
▁있냐	-3901
▁정리	-3902
▁징역	-3903
▁라인	-3904
▁해석	-3905
▁앨	-3906
들한테	-3907
▁보조	-3908
▁빙	-3909
▁예상된다	-3910
자금	-3911
률을	-3912
▁ᄇ	-3913
▁브라	-3914
사항	-3915
▁2020	-3916
▁선고	-3917
신이	-3918
▁인재	-3919
▁생존	-3920
▁위치한	-3921
▁지원을	-3922
점에	-3923
진흥	-3924
가락	-3925
▁커피	-3926
▁나갈	-3927
▁페미	-3928
▁법무부	-3929
▁효과를	-3930
▁기회를	-3931
1%	-3932
▁주말	-3933
았던	-3934
ht	-3935
▁미군	-3936
▁2018.0	-3937
▁벽	-3938
▁묵	-3939
▁그가	-3940
면서도	-3941
▁다소	-3942
대한민국	-3943
구로	-3944
▁센터	-3945
▁한국경제	-3946
치지	-3947
▁종로	-3948
▁불매	-3949
ir	-3950
▁정작	-3951
7%	-3952
▁보였다	-3953
데이트	-3954
데이터	-3955
▁시작했다	-3956
▁굉장히	-3957
▁명예	-3958
신문	-3959
▁가고	-3960
체육	-3961
▁개편	-3962
▁흐름	-3963
시길	-3964
▁연예	-3965
▁똑같은	-3966
▁기회	-3967
세로	-3968
으로부터	-3969
▁반성	-3970
▁이루어	-3971
로남	-3972
▁이중	-3973
펀드	-3974
▁조심	-3975
▁실질	-3976
▁개판	-3977
▁가득	-3978
제한	-3979
▁떠나	-3980
던지	-3981
조원	-3982
도와	-3983
▁개요	-3984
그런	-3985
▁헌법	-3986
냄새	-3987
▁죽은	-3988
때는	-3989
▁트위	-3990
3%	-3991
웠다	-3992
▁ᄀ	-3993
가요	-3994
▁기업의	-3995
▁눈치	-3996
▁봐라	-3997
oo	-3998
▁폭염	-3999
▁철수	-4000
▁맹	-4001
▁나머지	-4002
ont	-4003
소는	-4004
▁선진	-4005
음이	-4006
▁스테	-4007
들이다	-4008
▁결론	-4009
▁발생한	-4010
▁집에	-4011
▁훌	-4012
로남불	-4013
위해	-4014
▁개소리	-4015
라지	-4016
비아	-4017
▁양심	-4018
▁미디어	-4019
▁확인할	-4020
▁그린	-4021
▁앞에	-4022
▁진행한다	-4023
▁부품	-4024
▁가해	-4025
▁파트너	-4026
▁씨는	-4027
전은	-4028
▁구입	-4029
▁획득	-4030
거운	-4031
호를	-4032
공원	-4033
▁무섭	-4034
해주는	-4035
자체	-4036
결과	-4037
▁효과가	-4038
▁소유	-4039
▁참고로	-4040
▁몬스터	-4041
▁일은	-4042
▁옳	-4043
▁대사	-4044
▁주문	-4045
▁AP	-4046
▁지배	-4047
▁수밖에	-4048
▁스타트	-4049
했으면	-4050
겁니다	-4051
▁지금도	-4052
쓰고	-4053
하네요	-4054
▁폰	-4055
순실	-4056
▁노선	-4057
줘라	-4058
마저	-4059
▁온갖	-4060
2%	-4061
▁진정	-4062
되기	-4063
▁처럼	-4064
보네	-4065
▁가까운	-4066
▁것처럼	-4067
타임	-4068
▁올리	-4069
▁집계	-4070
바이오	-4071
▁KBS	-4072
8%	-4073
▁가르	-4074
소에서	-4075
▁감옥	-4076
▁카페	-4077
있네	-4078
▁됩니다	-4079
▁150	-4080
▁아닙	-4081
▁아니라고	-4082
됐습니다	-4083
▁한달	-4084
봐도	-4085
▁바른미래당	-4086
▁누구나	-4087
▁방침이다	-4088
▁항목	-4089
ER	-4090
▁아무것도	-4091
▁인민	-4092
공단	-4093
었습니다	-4094
더만	-4095
포르	-4096
▁칭	-4097
ur	-4098
하는지	-4099
▁한국에	-4100
연구원	-4101
나다	-4102
▁스피	-4103
▁외부	-4104
형을	-4105
,,,,	-4106
먹은	-4107
▁한국인	-4108
▁임시	-4109
▁없네	-4110
▁메시	-4111
▁대한민국의	-4112
주도	-4113
▁위해서는	-4114
들로	-4115
포트	-4116
▁진입	-4117
▁실시간으로	-4118
▁http	-4119
는가	-4120
▁복지	-4121
▁GM	-4122
▁균	-4123
▁책임을	-4124
▁되는데	-4125
▁장관이	-4126
상에서	-4127
▁닥	-4128
▁꾸준히	-4129
▁도전	-4130
▁열어	-4131
▁부인	-4132
▁시원	-4133
구의	-4134
▁도망	-4135
▁사이트	-4136
▁몽	-4137
▁비밀	-4138
라가	-4139
▁프레	-4140
▁건축	-4141
▁벌써	-4142
▁업데이트	-4143
▁부회	-4144
▁원작	-4145
▁일어	-4146
▁수준으로	-4147
▁경고	-4148
놈이	-4149
▁메이	-4150
▁크리스	-4151
▁폐기	-4152
▁운행	-4153
▁환자	-4154
▁유플	-4155
가지고	-4156
▁정책을	-4157
▁시위	-4158
▁자산	-4159
▁알아서	-4160
▁이미지	-4161
분들	-4162
자원	-4163
▁금리	-4164
▁썼	-4165
와는	-4166
테크	-4167
▁객	-4168
▁넷	-4169
▁쌀	-4170
▁아쉬	-4171
▁적극적으로	-4172
지요	-4173
▁그것도	-4174
▁담배	-4175
▁동의	-4176
증을	-4177
▁애국	-4178
▁후반	-4179
상태	-4180
▁치매	-4181
공개	-4182
퓨터	-4183
▁일자	-4184
▁이라는	-4185
▁단지	-4186
▁생태	-4187
▁하는게	-4188
동이	-4189
▁넌	-4190
함이	-4191
▁위에	-4192
션을	-4193
▁연장	-4194
▁광화	-4195
4%	-4196
▁부르	-4197
리트	-4198
500	-4199
▁예측	-4200
▁관세	-4201
▁답답	-4202
▁잘못된	-4203
▁쇼핑	-4204
▁수치	-4205
▁나오고	-4206
▁폼	-4207
일로	-4208
안은	-4209
▁수원	-4210
▁관객	-4211
▁스토리	-4212
▁관련된	-4213
▁동아	-4214
남아	-4215
▁20%	-4216
▁돌파	-4217
▁상반기	-4218
▁허용	-4219
▁그렇지	-4220
▁식품	-4221
▁공항	-4222
▁예전	-4223
▁적은	-4224
us	-4225
ul	-4226
▁싱가	-4227
▁물리	-4228
▁찬성	-4229
▁중국에	-4230
▁동맹	-4231
▁이해가	-4232
이었던	-4233
▁서울대	-4234
▁겁니다	-4235
▁하나도	-4236
보기	-4237
▁남의	-4238
▁알게	-4239
▁띄	-4240
자유	-4241
6%	-4242
▁융	-4243
▁내리	-4244
▁회장은	-4245
▁고소	-4246
▁확실히	-4247
당을	-4248
▁공시	-4249
▁말로	-4250
▁수수	-4251
▁클라우드	-4252
▁마음을	-4253
▁애니메이션	-4254
▁보도했다	-4255
▁한일	-4256
▁이상한	-4257
▁신용	-4258
▁눈이	-4259
▁EU	-4260
▁손을	-4261
▁매매	-4262
▁주차	-4263
님의	-4264
▁새롭게	-4265
전에서	-4266
23	-4267
▁떡	-4268
▁토착	-4269
▁본인이	-4270
▁벨	-4271
▁수많은	-4272
당히	-4273
협의	-4274
방에	-4275
▁원칙	-4276
▁춘	-4277
내가	-4278
▁평소	-4279
▁사항	-4280
▁이재명	-4281
니티	-4282
▁통화	-4283
▁했다고	-4284
처리	-4285
▁멸	-4286
▁낭	-4287
▁판사	-4288
▁명의	-4289
▁한국이	-4290
있는데	-4291
▁구현	-4292
▁30%	-4293
▁그거	-4294
▁시작으로	-4295
군은	-4296
▁하반기	-4297
▁따뜻	-4298
만원을	-4299
▁모습이	-4300
▁영원	-4301
▁폐쇄	-4302
리그	-4303
졌습니다	-4304
▁나경원	-4305
100	-4306
안보	-4307
구에	-4308
▁연간	-4309
약품	-4310
스럽다	-4311
av	-4312
▁수준의	-4313
이기도	-4314
▁노인	-4315
▁정치적	-4316
▁혜택을	-4317
식에	-4318
▁나눠	-4319
▁기사를	-4320
▁떨어진	-4321
위의	-4322
만으로	-4323
▁공포	-4324
▁못해	-4325
▁리더	-4326
▁초청	-4327
▁달려	-4328
▁도쿄	-4329
ut	-4330
▁응원합니다	-4331
세기	-4332
친다	-4333
▁거리	-4334
▁상담	-4335
짜리	-4336
스러	-4337
▁모자	-4338
▁도움을	-4339
▁아닌데	-4340
▁화학	-4341
▁발표한	-4342
▁필수	-4343
이사	-4344
▁모집	-4345
겠네요	-4346
▁족	-4347
▁이외	-4348
▁말은	-4349
오고	-4350
▁해소	-4351
▁부여	-4352
기기	-4353
달라	-4354
▁밀어	-4355
▁뇌물	-4356
어는	-4357
▁데미	-4358
▁저녁	-4359
화로	-4360
책임	-4361
▁국민들은	-4362
▁시장에서	-4363
시마	-4364
▁이곳	-4365
▁제외한	-4366
▁못하게	-4367
▁마이크	-4368
▁오른쪽	-4369
시로	-4370
▁피부	-4371
▁인프라	-4372
부대	-4373
▁아동	-4374
▁정치인	-4375
▁상용	-4376
제공	-4377
판을	-4378
▁개막	-4379
▁바닥	-4380
호텔	-4381
▁상징	-4382
▁지상	-4383
경을	-4384
▁너네	-4385
놓은	-4386
상품	-4387
▁52	-4388
▁아냐	-4389
▁르	-4390
▁재무	-4391
뿐만	-4392
▁합리	-4393
▁37	-4394
절한	-4395
스에서	-4396
추고	-4397
▁비트	-4398
▁칠	-4399
할까	-4400
▁원전	-4401
▁추가로	-4402
▁정체	-4403
▁핑	-4404
▁똑같이	-4405
▁앞으로도	-4406
당의	-4407
▁관측	-4408
▁실무	-4409
▁=	-4410
▁소프트	-4411
▁정확한	-4412
▁이민	-4413
▁벗어나	-4414
정말	-4415
▁비서	-4416
▁유리	-4417
▁잡고	-4418
▁취재	-4419
▁엔진	-4420
▁기부	-4421
▁ᆞ	-4422
▁활용해	-4423
조정	-4424
▁보건	-4425
▁목적	-4426
▁콩	-4427
▁이다	-4428
▁공산주의	-4429
▁해주	-4430
▁크다	-4431
▁자리를	-4432
▁멈	-4433
용으로	-4434
하지말고	-4435
▁충남	-4436
걸로	-4437
주년	-4438
▁사람의	-4439
▁취임	-4440
사무	-4441
▁음주	-4442
▁반발	-4443
▁싸움	-4444
▁지들이	-4445
무기	-4446
▁탁	-4447
▁했습니다	-4448
질환	-4449
스케	-4450
▁의원이	-4451
▁하냐	-4452
사람이	-4453
▁받는다	-4454
▁캡	-4455
▁고발	-4456
시의	-4457
▁있을까	-4458
▁그러니	-4459
▁구간	-4460
▁대회	-4461
▁긴급	-4462
사랑	-4463
▁굳이	-4464
길을	-4465
이제	-4466
▁디스플레이	-4467
시험	-4468
류를	-4469
미가	-4470
로드	-4471
▁테러	-4472
▁캠페	-4473
자들을	-4474
▁질문	-4475
▁방안	-4476
▁지방선거	-4477
▁속에서	-4478
▁자율주행	-4479
▁제가	-4480
▁태극	-4481
32	-4482
려나	-4483
▁해양	-4484
▁섭	-4485
▁때려	-4486
▁없으면	-4487
▁펜	-4488
▁말한다	-4489
▁뻔뻔	-4490
▁코스닥	-4491
▁유사	-4492
돌아	-4493
표를	-4494
였습니다	-4495
▁결제	-4496
고가	-4497
▁등에서	-4498
▁코리아	-4499
▁노출	-4500
▁듀	-4501
힌다	-4502
▁마스크	-4503
▁아프리카	-4504
▁차이가	-4505
▁여야	-4506
▁시장에	-4507
▁실현	-4508
▁마약	-4509
▁유닛	-4510
▁이용할	-4511
▁방탄	-4512
▁악마	-4513
▁400	-4514
▁더이상	-4515
▁내용은	-4516
▁맑	-4517
▁그러면	-4518
▁완화	-4519
▁집권	-4520
▁애초에	-4521
▁그건	-4522
ᄃᄃ	-4523
▁이른	-4524
용을	-4525
즈아	-4526
미터	-4527
먼트	-4528
▁들여	-4529
하이	-4530
▁세금으로	-4531
라니	-4532
방을	-4533
사이	-4534
봤다	-4535
제의	-4536
인줄	-4537
▁정신병	-4538
치로	-4539
효과	-4540
낸다	-4541
▁계산	-4542
▁직후	-4543
민족	-4544
▁국산	-4545
▁삶을	-4546
파이	-4547
기다	-4548
▁준다	-4549
기구	-4550
▁사실이	-4551
▁받지	-4552
▁아버지	-4553
인도	-4554
겠나	-4555
▁특허	-4556
▁발매	-4557
▁표준	-4558
▁전기차	-4559
▁속도	-4560
▁클래	-4561
특별	-4562
▁논란이	-4563
▁북괴	-4564
▁뜯	-4565
▁간담	-4566
▁않게	-4567
▁황교안	-4568
▁제주도	-4569
▁속에	-4570
가격	-4571
▁박원	-4572
▁활용한	-4573
▁널	-4574
다시	-4575
보수	-4576
▁무식	-4577
르기	-4578
▁스타트업	-4579
▁늙	-4580
데이	-4581
▁동원	-4582
▁내용이	-4583
▁곤	-4584
된다고	-4585
바다	-4586
로가	-4587
▁트위터	-4588
였고	-4589
▁찾는	-4590
▁봐야	-4591
▁양아치	-4592
쓰레기	-4593
쇼핑	-4594
정부는	-4595
▁답변	-4596
명한	-4597
▁인간들	-4598
▁대우	-4599
▁천안	-4600
었지만	-4601
▁환영	-4602
검사	-4603
▁뽑아	-4604
▁대폭	-4605
▁걸쳐	-4606
▁km	-4607
미국	-4608
▁공사	-4609
▁축구	-4610
스에	-4611
▁것들이	-4612
▁하던	-4613
▁기소	-4614
▁맞춤	-4615
▁뭉	-4616
미세먼	-4617
서가	-4618
▁문재인은	-4619
▁감정	-4620
▁데이터를	-4621
▁모아	-4622
▁노트	-4623
▁리그	-4624
▁ᄏᄏᄏᄏᄏᄏ	-4625
▁IP	-4626
▁지식	-4627
▁저러	-4628
았고	-4629
따라	-4630
▁VR	-4631
▁점에서	-4632
서에	-4633
세력	-4634
▁블루	-4635
있게	-4636
▁충전	-4637
▁완벽	-4638
놈들이	-4639
래곤	-4640
너무	-4641
▁ᅲ	-4642
본다	-4643
▁좋지	-4644
▁아르	-4645
▁없습니다	-4646
▁강릉	-4647
▁한화	-4648
▁죽여	-4649
▁가격이	-4650
가로	-4651
조합	-4652
바이	-4653
리다	-4654
▁기사는	-4655
▁정은이	-4656
▁축하	-4657
▁구분	-4658
▁당부	-4659
인거	-4660
▁수용	-4661
봅니다	-4662
▁기아	-4663
건축	-4664
판에	-4665
▁경우도	-4666
▁옹	-4667
▁도둑	-4668
하길	-4669
프레	-4670
▁헐	-4671
▁....	-4672
▁담은	-4673
조를	-4674
▁먹을	-4675
▁39	-4676
▁딴	-4677
하는건	-4678
▁시장을	-4679
로지	-4680
링크	-4681
▁광화문	-4682
▁키워	-4683
em	-4684
▁상대적으로	-4685
▁정기	-4686
동물	-4687
으려고	-4688
정부가	-4689
▁경제가	-4690
지컬	-4691
았는데	-4692
▁상처	-4693
▁시스템을	-4694
월까지	-4695
▁갑질	-4696
▁한국을	-4697
PG	-4698
▁저렴	-4699
카이	-4700
▁내린	-4701
▁접수	-4702
운전	-4703
겠고	-4704
▁사회주의	-4705
▁가야	-4706
▁어렵다	-4707
▁수준이	-4708
▁흔들	-4709
▁동기	-4710
▁성과를	-4711
▁동반	-4712
▁보복	-4713
건을	-4714
되는데	-4715
▁사기꾼	-4716
공간	-4717
!!!!!!!!	-4718
▁싱가포르	-4719
▁커뮤	-4720
▁아나	-4721
▁보여주는	-4722
호가	-4723
고도	-4724
▁특성	-4725
▁이같이	-4726
▁to	-4727
모델	-4728
▁아름다운	-4729
벤처	-4730
▁횡	-4731
▁명칭	-4732
▁시작한	-4733
▁기계	-4734
향을	-4735
공동	-4736
cm	-4737
▁충북	-4738
▁일본에	-4739
산물	-4740
하고자	-4741
▁암호화폐	-4742
▁포인트	-4743
▁강원도	-4744
▁낼	-4745
▁빵	-4746
역시	-4747
머리	-4748
▁종료	-4749
법인	-4750
재산	-4751
권이	-4752
사인	-4753
▁뒤집	-4754
추행	-4755
그네	-4756
국을	-4757
쪽으로	-4758
▁죽을	-4759
▁예약	-4760
운영	-4761
피스	-4762
▁사이에	-4763
법이	-4764
긴다	-4765
▁경찰이	-4766
▁마음이	-4767
▁KB	-4768
!!!!!	-4769
▁뿐만	-4770
▁붕	-4771
▁한국에서	-4772
진핑	-4773
단지	-4774
▁하나로	-4775
▁기분	-4776
▁에이	-4777
TE	-4778
▁아웃	-4779
치기	-4780
지니	-4781
▁사람도	-4782
▁철저히	-4783
▁철도	-4784
▁등등	-4785
이라니	-4786
어야지	-4787
▁어이	-4788
총리	-4789
▁육성	-4790
됐다고	-4791
럽다	-4792
▁억울	-4793
▁조사를	-4794
▁검은	-4795
▁반려	-4796
▁고급	-4797
분의	-4798
▁진행된다	-4799
.0%	-4800
▁않도록	-4801
개로	-4802
▁장착	-4803
▁단독	-4804
건강	-4805
▁죽음	-4806
▁대표적인	-4807
키는	-4808
▁패션	-4809
없어	-4810
합시다	-4811
▁서해	-4812
▁197	-4813
식은	-4814
바람	-4815
▁수정	-4816
대상	-4817
▁신속	-4818
▁매국노	-4819
▁협박	-4820
▁대만	-4821
▁주력	-4822
▁프로그램을	-4823
세포	-4824
하니까	-4825
▁재정	-4826
에요	-4827
전략	-4828
회의에서	-4829
왜구	-4830
▁파업	-4831
▁숫	-4832
이든	-4833
▁후원	-4834
▁65	-4835
석을	-4836
▁정의당	-4837
종목	-4838
▁판문	-4839
▁인기를	-4840
▁훈	-4841
▁실업	-4842
▁응답	-4843
평균	-4844
▁금액	-4845
하신	-4846
▁가라	-4847
▁명이	-4848
35	-4849
▁and	-4850
우가	-4851
▁매력	-4852
▁길을	-4853
▁엠	-4854
▁행사를	-4855
▁게임을	-4856
우디	-4857
보내	-4858
▁종로구	-4859
▁성폭행	-4860
▁내로남불	-4861
▁심각한	-4862
▁옛날	-4863
훼손	-4864
▁튀	-4865
좌파	-4866
인듯	-4867
▁BM	-4868
OOO	-4869
▁강하게	-4870
▁우리나라는	-4871
▁창원	-4872
▁가만히	-4873
대출	-4874
인물	-4875
▁질환	-4876
▁주한	-4877
▁배출	-4878
▁자빠	-4879
▁인하	-4880
한번	-4881
▁남부	-4882
▁st	-4883
▁대놓고	-4884
▁운영하는	-4885
▁짜증	-4886
필요	-4887
▁신설	-4888
▁거주	-4889
나도	-4890
▁나쁘	-4891
▁남녀	-4892
▁그만큼	-4893
▁추세	-4894
▁핸	-4895
▁증가했다	-4896
▁만난	-4897
▁소녀	-4898
▁출마	-4899
▁밝힌	-4900
▁폭행	-4901
▁뒤에	-4902
▁법률	-4903
▁2008	-4904
▁니들은	-4905
문재인	-4906
~!	-4907
▁힘들어	-4908
▁나름	-4909
▁늘어난	-4910
▁파워	-4911
공장	-4912
▁시급	-4913
▁가까이	-4914
▁상호	-4915
지말	-4916
ce	-4917
▁주최	-4918
▁심사	-4919
▁건조	-4920
년전	-4921
▁지하철	-4922
▁분류	-4923
▁생겼	-4924
▁성격	-4925
일간	-4926
▁결합	-4927
▁시기	-4928
년에는	-4929
▁가치를	-4930
▁동료	-4931
▁최순실	-4932
▁간단	-4933
현실	-4934
▁비즈	-4935
▁개입	-4936
▁감안	-4937
▁향해	-4938
▁SU	-4939
▁이스	-4940
▁수록	-4941
▁기상청	-4942
▁열린다	-4943
▁ᄋ	-4944
▁런	-4945
고는	-4946
▁쪽바리	-4947
▁기술이	-4948
▁국민은	-4949
원전	-4950
▁할머니	-4951
▁영화를	-4952
▁재난	-4953
▁CEO	-4954
▁힐	-4955
▁하세요	-4956
▁상황에	-4957
당에	-4958
▁오브	-4959
제발	-4960
TA	-4961
구역	-4962
▁의미가	-4963
쟁이	-4964
▁원숭	-4965
개국	-4966
▁가을	-4967
▁재앙이	-4968
등급	-4969
들여	-4970
▁일상	-4971
리나	-4972
악한	-4973
▁컴퓨터	-4974
▁지역의	-4975
▁이내	-4976
ain	-4977
▁후에	-4978
▁친환경	-4979
▁지분	-4980
▁최신	-4981
석은	-4982
무를	-4983
단에	-4984
▁이탈리아	-4985
▁할수	-4986
싱턴	-4987
▁해체	-4988
▁죄다	-4989
▁2009	-4990
IP	-4991
▁보이지	-4992
▁신한	-4993
▁미술	-4994
히고	-4995
▁이럴	-4996
▁싸우	-4997
너스	-4998
나이	-4999
▁분리	-5000
▁검찰은	-5001
▁모두가	-5002
▁최악의	-5003
▁어울	-5004
진은	-5005
▁사진을	-5006
▁규정	-5007
▁지가	-5008
▁최대한	-5009
▁정식	-5010
유가	-5011
▁연락	-5012
▁훌륭	-5013
▁내세	-5014
거고	-5015
▁계획을	-5016
▁잠시	-5017
▁하시	-5018
장비	-5019
▁아빠	-5020
▁부사	-5021
27	-5022
▁이라	-5023
▁품질	-5024
▁운용	-5025
▁주거	-5026
▁누적	-5027
소로	-5028
▁힘이	-5029
▁생기	-5030
▁얻을	-5031
▁메인	-5032
▁현금	-5033
▁실망	-5034
▁의한	-5035
▁간다	-5036
▁충격	-5037
▁형성	-5038
.18	-5039
▁꼼	-5040
▁중요하다	-5041
▁등과	-5042
▁없지	-5043
▁외에도	-5044
일에는	-5045
▁초대	-5046
▁내는	-5047
▁하나의	-5048
기온	-5049
연을	-5050
요금	-5051
▁좁	-5052
팀은	-5053
▁48	-5054
▁j	-5055
재판	-5056
자산	-5057
▁거듭	-5058
▁방해	-5059
▁박정희	-5060
▁장사	-5061
▁다녀	-5062
▁향상	-5063
▁다운	-5064
▁개방	-5065
▁평가를	-5066
▁수립	-5067
▁~~	-5068
자들에게	-5069
시부터	-5070
os	-5071
대가리	-5072
▁입주	-5073
▁우리도	-5074
▁출범	-5075
보단	-5076
▁미국에	-5077
▁법을	-5078
ap	-5079
▁팩트	-5080
▁인류	-5081
▁집에서	-5082
▁가짜뉴스	-5083
무역	-5084
었을	-5085
▁질병	-5086
▁목소리	-5087
▁아이돌	-5088
um	-5089
▁ᄏᄏᄏᄏᄏᄏᄏᄏ	-5090
화점	-5091
▁똑같	-5092
▁패턴	-5093
삼성	-5094
▁종전	-5095
▁백악	-5096
▁이리	-5097
▁과정을	-5098
독교	-5099
▁글을	-5100
▁국민연금	-5101
권에	-5102
쳐서	-5103
▁지옥	-5104
학년	-5105
부문	-5106
28	-5107
ak	-5108
인터	-5109
▁매장	-5110
▁명령	-5111
▁저는	-5112
버린	-5113
서관	-5114
량의	-5115
씨의	-5116
▁단속	-5117
▁방문해	-5118
▁이행	-5119
▁포항	-5120
▁한심한	-5121
▁지역에	-5122
지에서	-5123
▁없지만	-5124
스테	-5125
▁선임	-5126
▁문빠	-5127
▁짱개	-5128
▁연방	-5129
께서	-5130
▁드론	-5131
▁핀	-5132
▁혐의를	-5133
▁가상화폐	-5134
트의	-5135
였는데	-5136
▁전개	-5137
▁올린	-5138
-0	-5139
▁어른	-5140
ub	-5141
인가요	-5142
케이션	-5143
▁재벌	-5144
선의	-5145
▁주행	-5146
▁나아	-5147
▁음성	-5148
▁물가	-5149
민주주의	-5150
▁안나	-5151
▁값	-5152
.)	-5153
▁비리	-5154
▁밟	-5155
▁St	-5156
분야	-5157
▁투자의견	-5158
연구소	-5159
▁실행	-5160
▁살려	-5161
계의	-5162
▁부활	-5163
▁신문	-5164
▁유출	-5165
▁진화	-5166
▁배달	-5167
▁가수	-5168
▁수준을	-5169
▁노예	-5170
▁비싼	-5171
▁탄생	-5172
럽게	-5173
▁김동	-5174
리즘	-5175
▁가끔	-5176
▁점유	-5177
▁단일	-5178
▁대처	-5179
▁가능성을	-5180
▁전주	-5181
센터에서	-5182
.......	-5183
▁강경	-5184
▁기가	-5185
▁마감	-5186
▁동남아	-5187
▁특별한	-5188
?!	-5189
▁위원장	-5190
.25	-5191
▁힘내	-5192
력에	-5193
▁결과가	-5194
▁와서	-5195
▁많은데	-5196
▁게시	-5197
▁축제	-5198
▁직전	-5199
▁문죄인	-5200
▁시장의	-5201
▁최적	-5202
▁근본	-5203
▁전형	-5204
▁낮아	-5205
▁반일	-5206
가구	-5207
▁이용한	-5208
▁시범	-5209
하려면	-5210
▁올랐다	-5211
▁생각하고	-5212
▁청구	-5213
▁테마	-5214
집단	-5215
대화	-5216
▁자극	-5217
원과	-5218
▁렌	-5219
▁고정	-5220
▁유도	-5221
단다	-5222
실이	-5223
님들	-5224
▁살해	-5225
▁참석한	-5226
▁지휘	-5227
▁나라는	-5228
차별	-5229
바닥	-5230
ob	-5231
▁쪼	-5232
겹다	-5233
시켜라	-5234
치게	-5235
▁옵	-5236
▁증가한	-5237
▁미투	-5238
▁선호	-5239
치료	-5240
▁사용자가	-5241
▁모여	-5242
▁이틀	-5243
버리	-5244
▁종류	-5245
두환	-5246
▁스위	-5247
▁편집	-5248
▁우려가	-5249
▁벌금	-5250
▁끌고	-5251
선수	-5252
적으로는	-5253
▁유명한	-5254
▁믿을	-5255
▁유일한	-5256
▁영역	-5257
▁상무	-5258
▁마찬가지로	-5259
브리	-5260
▁김대중	-5261
된다는	-5262
▁아무도	-5263
▁수백	-5264
▁기울	-5265
▁통제	-5266
▁55	-5267
▁시장은	-5268
▁쓰러	-5269
▁못한다	-5270
▁데뷔	-5271
▁그것	-5272
▁김현	-5273
▁넘게	-5274
▁위로	-5275
▁최소한	-5276
▁변호사	-5277
▁사건을	-5278
력의	-5279
뱅크	-5280
▁국내외	-5281
▁아내	-5282
▁냄새	-5283
EC	-5284
▁정도의	-5285
▁ICT	-5286
▁감동	-5287
▁삶의	-5288
식에서	-5289
▁앨범	-5290
▁위원장은	-5291
▁버전	-5292
▁43	-5293
▁뜻을	-5294
▁싶어	-5295
해주세요	-5296
박이	-5297
▁성향	-5298
수한	-5299
▁않나	-5300
문학	-5301
공자	-5302
당에서	-5303
는데요	-5304
▁대다	-5305
▁등급	-5306
▁자기가	-5307
5000	-5308
▁숲	-5309
▁좋을	-5310
부터는	-5311
▁코스피	-5312
▁만드	-5313
▁대통령을	-5314
▁가격은	-5315
▁때마다	-5316
▁문화재	-5317
▁미래를	-5318
미를	-5319
▁투자를	-5320
▁개성	-5321
고기	-5322
▁시진핑	-5323
▁조용히	-5324
▁그를	-5325
니가	-5326
▁점이	-5327
▁놈들이	-5328
▁공산당	-5329
사용	-5330
▁번역	-5331
▁뿐이다	-5332
▁대부분의	-5333
자치	-5334
▁가게	-5335
▁차이	-5336
지구	-5337
▁틀딱	-5338
년동안	-5339
해를	-5340
오면	-5341
기능	-5342
하긴	-5343
▁워싱턴	-5344
▁갖춘	-5345
대사	-5346
▁들어서	-5347
명에	-5348
▁거기에	-5349
▁문을	-5350
▁트럼프가	-5351
▁쫓	-5352
▁때까지	-5353
▁주관	-5354
▁노력을	-5355
▁교류	-5356
가야	-5357
잖아요	-5358
▁5000	-5359
▁소상공	-5360
란드	-5361
▁체포	-5362
▁국가가	-5363
판매	-5364
차로	-5365
▁포함해	-5366
▁모른다	-5367
▁않을까	-5368
▁짝	-5369
제재	-5370
▁개헌	-5371
▁피해가	-5372
▁이들이	-5373
▁두려	-5374
▁동영상	-5375
▁Z	-5376
으므로	-5377
비용	-5378
줬다	-5379
▁아닙니다	-5380
▁가동	-5381
▁54	-5382
▁지진	-5383
▁이벤트를	-5384
어리	-5385
▁것들	-5386
▁동생	-5387
▁저거	-5388
▁무죄	-5389
▁MBC	-5390
▁테스트	-5391
▁나섰다	-5392
26	-5393
속에	-5394
▁감염	-5395
▁살기	-5396
▁조치를	-5397
▁하지말고	-5398
▁보스	-5399
▁쉽지	-5400
거리는	-5401
▁충돌	-5402
▁서버	-5403
▁대한항공	-5404
▁챙겨	-5405
▁트렌	-5406
연히	-5407
,000	-5408
▁세대	-5409
▁앤	-5410
▁왠	-5411
물관	-5412
인들은	-5413
만간	-5414
▁등도	-5415
▁삽	-5416
▁최선을	-5417
마자	-5418
▁으	-5419
이던	-5420
정으로	-5421
시절	-5422
▁이로	-5423
▁지시	-5424
▁입고	-5425
▁세상을	-5426
평양	-5427
▁몰려	-5428
ter	-5429
▁올랐	-5430
▁이승	-5431
▁당연한	-5432
있어	-5433
▁반대로	-5434
▁목표로	-5435
▁맞다	-5436
▁액션	-5437
곳에서	-5438
청산	-5439
▁첨단	-5440
▁기대한다	-5441
▁계기로	-5442
▁스크	-5443
▁오염	-5444
▁인간의	-5445
▁발행	-5446
▁세상에	-5447
▁생각하면	-5448
하셨	-5449
▁취약	-5450
▁없으니	-5451
사람들	-5452
▁무장	-5453
빕니다	-5454
▁00	-5455
th	-5456
▁자원	-5457
▁정비	-5458
선에	-5459
▁하는지	-5460
증이	-5461
아파트	-5462
▁만들기	-5463
▁뛰어난	-5464
▁신체	-5465
▁조기	-5466
▁대변인은	-5467
▁묶	-5468
▁문슬람	-5469
▁키우	-5470
▁좃	-5471
으려	-5472
▁된다는	-5473
48	-5474
그리	-5475
쓰는	-5476
▁삭제	-5477
누리	-5478
▁세상이	-5479
었다는	-5480
해지	-5481
▁호주	-5482
▁닫	-5483
▁가즈아	-5484
▁샌	-5485
▁집안	-5486
▁저항	-5487
▁빨아	-5488
▁지능	-5489
▁총리	-5490
▁196	-5491
가에	-5492
했네	-5493
▁덤	-5494
▁120	-5495
▁공략	-5496
▁말한	-5497
▁관련한	-5498
▁연구원은	-5499
▁보자	-5500
▁나라냐	-5501
▁폭탄	-5502
생산	-5503
▁멘	-5504
관련	-5505
▁주주	-5506
▁그들의	-5507
라의	-5508
▁전일	-5509
▁다음달	-5510
▁메뉴	-5511
▁아니지만	-5512
▁성추행	-5513
▁끝에	-5514
▁상생	-5515
▁몰랐	-5516
바른	-5517
분간	-5518
▁이지	-5519
▁불리는	-5520
▁보유한	-5521
라운드	-5522
▁얻어	-5523
▁있으나	-5524
▁밴	-5525
이프	-5526
▁자리에서	-5527
사들이	-5528
▁임상	-5529
규제	-5530
▁스타일	-5531
▁근처	-5532
둥이	-5533
▁발동	-5534
계올림픽	-5535
▁식으로	-5536
어의	-5537
▁AR	-5538
계약	-5539
▁서초	-5540
답게	-5541
각을	-5542
시코	-5543
▁느낄	-5544
정보통신	-5545
▁문통	-5546
▁경우는	-5547
▁BMW	-5548
지다	-5549
▁표시	-5550
▁많고	-5551
▁경험을	-5552
▁연금	-5553
▁등장하는	-5554
거면	-5555
▁폼페	-5556
▁심판	-5557
▁겨우	-5558
▁거다	-5559
▁돈으로	-5560
▁SUV	-5561
▁지자체	-5562
외교	-5563
나와	-5564
▁기자가	-5565
▁안철수	-5566
▁The	-5567
▁추락	-5568
▁출근	-5569
▁지원하는	-5570
▁원인	-5571
▁부진	-5572
선은	-5573
▁보급	-5574
▁박사	-5575
▁미니	-5576
▁일하는	-5577
▁배터리	-5578
▁하겠다	-5579
▁오프	-5580
▁깊은	-5581
▁전원	-5582
▁탑승	-5583
드립니다	-5584
▁날아	-5585
국으로	-5586
▁셈이다	-5587
▁세워	-5588
▁명절	-5589
▁역사를	-5590
능력	-5591
미사일	-5592
겠죠	-5593
▁무능한	-5594
▁구성된	-5595
▁46	-5596
▁i	-5597
▁봉사	-5598
▁대법원	-5599
라엘	-5600
▁말이다	-5601
▁능력을	-5602
▁mm	-5603
놈의	-5604
치면	-5605
화는	-5606
▁북측	-5607
▁이정	-5608
▁전력	-5609
▁실내	-5610
▁평범	-5611
45	-5612
▁선도	-5613
▁미안	-5614
▁했고	-5615
보다도	-5616
조가	-5617
▁상품을	-5618
민이	-5619
▁예고	-5620
▁외교부	-5621
▁눈물	-5622
대전	-5623
▁th	-5624
▁치고	-5625
▁옮겨	-5626
▁줘	-5627
▁시장이	-5628
▁떨어지는	-5629
종을	-5630
지나	-5631
▁^^	-5632
▁진술	-5633
▁맞추	-5634
▁공약	-5635
▁나오면	-5636
▁닮	-5637
▁혼란	-5638
▁햇	-5639
▁적당히	-5640
물질	-5641
사이트	-5642
29	-5643
▁대해서도	-5644
▁크로	-5645
▁아이디어	-5646
▁후속	-5647
년의	-5648
셔서	-5649
하는것	-5650
▁실천	-5651
▁말했습니다	-5652
주지	-5653
수수색	-5654
▁600	-5655
▁내에서	-5656
수에	-5657
이너	-5658
▁패배	-5659
▁49	-5660
가라	-5661
▁알려진	-5662
▁올해는	-5663
해왔다	-5664
▁패키	-5665
▁제약	-5666
야말로	-5667
투표	-5668
▁양국	-5669
▁매출액	-5670
▁민노총	-5671
▁2007	-5672
?)	-5673
▁청원	-5674
▁즉시	-5675
▁걸어	-5676
화의	-5677
▁분위기	-5678
군을	-5679
▁약간	-5680
▁캐나다	-5681
권은	-5682
▁곳에	-5683
▁압도	-5684
▁In	-5685
oc	-5686
▁이정도	-5687
▁추석	-5688
우를	-5689
중인	-5690
▁씨가	-5691
▁편이다	-5692
▁NH	-5693
▁협업	-5694
▁인력	-5695
▁나타나	-5696
▁수집	-5697
▁성남	-5698
▁때도	-5699
네시아	-5700
▁모르겠다	-5701
▁갈수록	-5702
사기	-5703
미는	-5704
▁법인	-5705
로그	-5706
▁권한	-5707
▁저질	-5708
▁달창	-5709
▁받아야	-5710
의가	-5711
▁장애인	-5712
니터	-5713
었으면	-5714
▁주소	-5715
▁작용	-5716
▁여당	-5717
▁비트코	-5718
지수	-5719
해가	-5720
검찰	-5721
는건	-5722
쩝쩝	-5723
▁내내	-5724
AS	-5725
▁강간	-5726
▁그려	-5727
스포츠	-5728
▁북한을	-5729
▁콘텐츠를	-5730
▁r	-5731
▁한글	-5732
▁뮤지컬	-5733
는거다	-5734
▁극복	-5735
▁데려	-5736
OR	-5737
▁호구	-5738
▁필리	-5739
▁브리	-5740
▁국방부	-5741
화와	-5742
사실	-5743
하면서도	-5744
▁앉아	-5745
언을	-5746
님은	-5747
빨리	-5748
▁박원순	-5749
IN	-5750
▁맞지	-5751
▁다를	-5752
채널	-5753
▁싫다	-5754
스티벌	-5755
▁성인	-5756
▁조절	-5757
로도	-5758
▁탈출	-5759
▁학습	-5760
한건	-5761
버리고	-5762
▁위안부	-5763
▁폼페이오	-5764
▁명확	-5765
행정	-5766
▁44	-5767
차에	-5768
전거	-5769
▁아무런	-5770
▁활발	-5771
▁줄여	-5772
▁감사합니다	-5773
졌고	-5774
▁마스터	-5775
▁대학생	-5776
▁웨	-5777
테인	-5778
금지	-5779
▁47	-5780
임이	-5781
▁늘었다	-5782
▁에피	-5783
▁높이	-5784
▁증명	-5785
▁머물	-5786
는데도	-5787
▁참석해	-5788
▁문제다	-5789
호선	-5790
▁제로	-5791
▁대화를	-5792
목을	-5793
졌네	-5794
▁변동	-5795
▁지역에서	-5796
op	-5797
▁관계를	-5798
공업	-5799
▁생겨	-5800
싶은	-5801
천만	-5802
▁유치원	-5803
▁x	-5804
▁사장은	-5805
oT	-5806
▁재개	-5807
▁감시	-5808
▁GS	-5809
▁기자회견을	-5810
여자	-5811
▁골프	-5812
▁비교해	-5813
▁빗	-5814
▁났	-5815
대와	-5816
▁무리	-5817
▁뼈	-5818
▁이런거	-5819
▁공격을	-5820
▁내다	-5821
금은	-5822
▁구체적인	-5823
미술	-5824
▁떨어져	-5825
하지않	-5826
▁답이다	-5827
▁방법을	-5828
▁그에	-5829
▁괴롭	-5830
면을	-5831
짓을	-5832
▁민생	-5833
의료	-5834
법은	-5835
사도	-5836
▁업그	-5837
▁교환	-5838
정당	-5839
▁기름	-5840
없음	-5841
▁이슬람	-5842
형이	-5843
▁시내	-5844
▁부분이	-5845
해온	-5846
▁성적	-5847
▁좋았	-5848
▁체계	-5849
억달러	-5850
▁만남	-5851
▁만한	-5852
독재	-5853
▁분야에서	-5854
세는	-5855
▁상상	-5856
▁꿀	-5857
조리	-5858
아도	-5859
▁구라	-5860
▁흘러	-5861
직을	-5862
▁다루	-5863
▁붉	-5864
▁상황이다	-5865
유치	-5866
소프트	-5867
▁맞이	-5868
▁통상	-5869
▁참조	-5870
▁공화	-5871
▁선보인다	-5872
▁공공기관	-5873
▁않습니다	-5874
▁안타깝	-5875
▁압수수색	-5876
대고	-5877
▁뚜	-5878
같은데	-5879
▁복귀	-5880
▁찾은	-5881
▁문재앙이	-5882
있냐	-5883
▁조만간	-5884
▁나라의	-5885
▁버티	-5886
▁소모	-5887
▁대로	-5888
▁소형	-5889
▁개가	-5890
▁빅데이터	-5891
▁존경	-5892
겠어요	-5893
▁거론	-5894
▁여부를	-5895
신의	-5896
▁착용	-5897
▁복합	-5898
하더니	-5899
▁사건이	-5900
ab	-5901
▁연말	-5902
▁교회	-5903
▁연구개발	-5904
에게도	-5905
▁정권이	-5906
장판	-5907
▁챔	-5908
배우	-5909
▁축소	-5910
▁끝난	-5911
▁만날	-5912
당하고	-5913
▁방지	-5914
▁질문에	-5915
보복	-5916
▁풍부	-5917
저런	-5918
▁경찰에	-5919
함으로써	-5920
▁들어간	-5921
▁김정은이	-5922
▁복잡	-5923
▁찍어	-5924
▁CC	-5925
▁넘겨	-5926
화에서	-5927
▁이상이	-5928
▁혹시	-5929
▁능력이	-5930
▁말해	-5931
경이	-5932
▁소리를	-5933
매매	-5934
전기	-5935
▁정부와	-5936
▁공중	-5937
비로	-5938
▁3000	-5939
선동	-5940
▁나와서	-5941
▁아니지	-5942
▁토착왜구	-5943
▁이혼	-5944
▁동참	-5945
그럼	-5946
▁분석했다	-5947
▁나오지	-5948
▁이웃	-5949
▁김진	-5950
▁잠재	-5951
셔야	-5952
▁99	-5953
▁무려	-5954
새끼들	-5955
▁상식	-5956
▁검찰이	-5957
는거야	-5958
▁비중이	-5959
▁허위	-5960
팔이	-5961
공화	-5962
▁받게	-5963
▁보입니다	-5964
할듯	-5965
▁상태에서	-5966
▁플래	-5967
인들의	-5968
▁것이고	-5969
래도	-5970
인권	-5971
▁레드	-5972
▁호소	-5973
▁성우	-5974
▁연극	-5975
을텐데	-5976
▁나라에서	-5977
▁장르	-5978
36	-5979
▁앙	-5980
art	-5981
▁악화	-5982
▁다르다	-5983
▁75	-5984
명과	-5985
▁양산	-5986
▁그러니까	-5987
▁고마	-5988
까봐	-5989
▁좋다고	-5990
▁무서운	-5991
▁오지	-5992
▁뺏	-5993
미널	-5994
▁대한민국을	-5995
▁미개	-5996
▁부대	-5997
▁추구	-5998
▁김일	-5999
▁이딴	-6000
▁ᄉᄇ	-6001
▁베이징	-6002
▁일본을	-6003
▁쑈	-6004
▁비즈니스	-6005
▁대가리	-6006
▁진행하고	-6007
▁내에	-6008
▁씽	-6009
▁출석	-6010
대문	-6011
즈를	-6012
▁굿	-6013
▁뚫	-6014
씨를	-6015
▁같습니다	-6016
성애	-6017
1.	-6018
▁측정	-6019
됐고	-6020
▁커뮤니티	-6021
▁전두환	-6022
▁형사	-6023
▁미국에서	-6024
▁김경수	-6025
후보	-6026
애들	-6027
▁대박	-6028
▁유기	-6029
▁문제로	-6030
▁있어요	-6031
▁언제까지	-6032
▁부처	-6033
▁지금의	-6034
주에	-6035
▁긴장	-6036
치의	-6037
▁연봉	-6038
마가	-6039
▁야구	-6040
▁형태로	-6041
▁화려	-6042
하지마라	-6043
▁놔	-6044
했기	-6045
▁어떠	-6046
▁청문회	-6047
▁차원에서	-6048
▁있었는데	-6049
▁가맹	-6050
▁협약	-6051
▁신제품	-6052
▁개별	-6053
▁원자	-6054
▁특징이다	-6055
▁맵	-6056
아는	-6057
▁된다고	-6058
▁!!	-6059
▁다니는	-6060
미세먼지	-6061
▁다르게	-6062
▁최우	-6063
▁아쉽	-6064
▁행위	-6065
시즌	-6066
▁당사	-6067
▁싼	-6068
▁방사능	-6069
▁활약	-6070
이와	-6071
교회	-6072
▁드래곤	-6073
▁리포트	-6074
▁연휴	-6075
▁가로	-6076
▁귀족	-6077
▁시나	-6078
▁신임	-6079
▁북핵	-6080
이미	-6081
▁눈을	-6082
▁경우에는	-6083
▁끝나	-6084
▁영양	-6085
▁공직	-6086
▁합동	-6087
면에	-6088
▁신기	-6089
외로	-6090
등학생	-6091
▁보인	-6092
주년을	-6093
가스	-6094
▁자국	-6095
과정	-6096
▁개봉	-6097
해질	-6098
▁매각	-6099
▁맞춤형	-6100
ov	-6101
물에	-6102
▁설득	-6103
▁그래야	-6104
▁멜	-6105
▁59	-6106
설을	-6107
모리	-6108
서트	-6109
계에	-6110
▁기대된다	-6111
세에	-6112
▁분명히	-6113
▁삼성이	-6114
▁IoT	-6115
망을	-6116
▁기존의	-6117
▁전해졌다	-6118
▁태극기	-6119
▁대가	-6120
▁알려져	-6121
▁방탄소년	-6122
행위	-6123
ate	-6124
▁돈벌	-6125
▁남해	-6126
청장	-6127
공산	-6128
▁맞고	-6129
▁명복을	-6130
▁많았다	-6131
▁위기	-6132
법에	-6133
▁현장에서	-6134
▁출산	-6135
▁경쟁력	-6136
▁단기	-6137
실에	-6138
▁헛소리	-6139
▁이끌어	-6140
▁인도네시아	-6141
▁착각	-6142
▁0.0	-6143
▁노후	-6144
▁수준이다	-6145
▁유승	-6146
▁창작	-6147
▁https	-6148
▁조종	-6149
땜에	-6150
▁선박	-6151
때도	-6152
▁맞게	-6153
▁깡	-6154
축제	-6155
이라서	-6156
▁담아	-6157
▁배신	-6158
▁예를	-6159
▁힘들다	-6160
▁ᄒᄒᄒ	-6161
▁접속	-6162
▁김태	-6163
▁모니터	-6164
▁젤	-6165
▁석탄	-6166
▁이스라엘	-6167
▁끄	-6168
▁간편	-6169
▁사고가	-6170
▁당신이	-6171
▁판문점	-6172
▁사람들의	-6173
▁에피소	-6174
▁킹	-6175
----	-6176
▁저희	-6177
자연	-6178
함에	-6179
때문	-6180
주인	-6181
font	-6182
철도	-6183
▁더해	-6184
▁짤	-6185
했는지	-6186
위원장이	-6187
▁모른	-6188
금이	-6189
▁줄어들	-6190
▁필리핀	-6191
▁말에	-6192
▁농업	-6193
▁섞	-6194
▁법정	-6195
드라	-6196
동의	-6197
▁차세대	-6198
년은	-6199
IC	-6200
미디	-6201
일뿐	-6202
▁칸	-6203
▁쏠	-6204
▁북한과	-6205
▁자가	-6206
▁갱	-6207
od	-6208
▁씹	-6209
▁대리	-6210
움이	-6211
잡아	-6212
▁투명	-6213
▁멕	-6214
위원회는	-6215
수석	-6216
▁배틀	-6217
▁항의	-6218
▁부족한	-6219
▁단순히	-6220
▁무게	-6221
레벨	-6222
▁현재까지	-6223
▁1,	-6224
▁에어컨	-6225
▁중고	-6226
▁목소리를	-6227
▁대단한	-6228
▁영향으로	-6229
▁에휴	-6230
겠어	-6231
방이	-6232
▁않지만	-6233
상승	-6234
▁한강	-6235
정규직	-6236
▁의미를	-6237
니깐	-6238
떨어	-6239
▁쾌	-6240
▁전작	-6241
좋아	-6242
▁여자가	-6243
▁영하	-6244
▁중국과	-6245
금리	-6246
▁미쳤	-6247
시기	-6248
▁진행된	-6249
▁허가	-6250
르지	-6251
름이	-6252
▁청소	-6253
▁임직원	-6254
월드	-6255
▁중국에서	-6256
▁똑바로	-6257
▁제공할	-6258
선으로	-6259
▁오토	-6260
▁기온이	-6261
반대	-6262
▁이것이	-6263
▁외에	-6264
경쟁	-6265
▁국토교통	-6266
▁교육을	-6267
▁춘천	-6268
▁놈이	-6269
▁자리에	-6270
▁애들이	-6271
예요	-6272
▁감성	-6273
있나	-6274
▁섭취	-6275
▁호남	-6276
▁40%	-6277
▁시점	-6278
▁우파	-6279
37	-6280
▁수사를	-6281
▁극우	-6282
권의	-6283
▁쿨	-6284
물로	-6285
▁현재는	-6286
▁답이	-6287
▁광역	-6288
▁이득	-6289
▁통해서	-6290
▁베네	-6291
▁끝내	-6292
▁변화를	-6293
▁개인정보	-6294
▁0.5	-6295
▁연습	-6296
▁유입	-6297
▁법적	-6298
▁등이다	-6299
▁비례	-6300
활동을	-6301
▁소식	-6302
▁길이	-6303
▁유발	-6304
▁용산	-6305
▁우수한	-6306
▁왜곡	-6307
폭탄	-6308
아리	-6309
▁위의	-6310
▁참여한	-6311
▁도심	-6312
▁코인	-6313
▁기득	-6314
▁그렇다고	-6315
집니다	-6316
했지	-6317
다리	-6318
▁옹호	-6319
▁파견	-6320
▁윈	-6321
▁춤	-6322
포를	-6323
▁입학	-6324
▁계약을	-6325
▁앞둔	-6326
▁됨	-6327
▁중부	-6328
▁막아	-6329
▁국내에서	-6330
▁이모	-6331
).	-6332
▁듯한	-6333
▁끈	-6334
▁관계자	-6335
▁섹	-6336
▁떠오	-6337
든가	-6338
▁양성	-6339
▁어려워	-6340
없네	-6341
▁몰라	-6342
산이	-6343
치에	-6344
관에	-6345
공연	-6346
▁휴대폰	-6347
시면	-6348
▁학부모	-6349
▁새끼들	-6350
▁겉	-6351
▁유전	-6352
▁64	-6353
▁분기	-6354
해지는	-6355
종합	-6356
▁편의점	-6357
▁시가	-6358
▁의혹을	-6359
▁넣어	-6360
▁리얼	-6361
종석	-6362
하고는	-6363
원들이	-6364
▁브라질	-6365
하라는	-6366
▁빨갱	-6367
▁신선	-6368
시켜야	-6369
▁ᅮᅮ	-6370
▁보낸	-6371
가며	-6372
▁안돼	-6373
하시는	-6374
▁멀리	-6375
간담	-6376
▁채택	-6377
나간	-6378
▁작중	-6379
▁MS	-6380
책을	-6381
▁공격력	-6382
▁너도	-6383
▁빼앗	-6384
도한	-6385
▁폭력	-6386
▁평화를	-6387
▁체력	-6388
▁바라는	-6389
▁고성	-6390
▁인지	-6391
▁대한민국이	-6392
▁일도	-6393
트랙	-6394
▁유일하게	-6395
▁융합	-6396
마리	-6397
순환	-6398
▁넥슨	-6399
시까지	-6400
▁기독교	-6401
▁빕니다	-6402
실장	-6403
▁수요가	-6404
▁기회가	-6405
건이	-6406
▁심리	-6407
심한	-6408
▁라이브	-6409
▁이들의	-6410
되서	-6411
▁저기	-6412
런스	-6413
발을	-6414
ri	-6415
마이	-6416
▁게이	-6417
음에도	-6418
▁이동통신	-6419
▁반박	-6420
발이	-6421
입니까	-6422
레이션	-6423
▁나의	-6424
▁화장품	-6425
▁강요	-6426
▁난다	-6427
▁회장이	-6428
만은	-6429
택시	-6430
▁고향	-6431
.10	-6432
▁앞장	-6433
▁ᄏᄏᄏᄏᄏᄏᄏᄏᄏᄏᄏᄏ	-6434
▁이용하는	-6435
▁일방	-6436
▁영화는	-6437
▁확률	-6438
▁합격	-6439
▁작업을	-6440
▁롤	-6441
▁안에서	-6442
으론	-6443
▁들어가는	-6444
▁수수료	-6445
▁임기	-6446
관의	-6447
▁막을	-6448
▁해군	-6449
사업을	-6450
▁측면에서	-6451
▁경계	-6452
드리	-6453
est	-6454
모를	-6455
것같	-6456
▁문제인	-6457
▁집을	-6458
▁뒤로	-6459
▁이유를	-6460
시장에서	-6461
▁고려해	-6462
▁멍청한	-6463
체는	-6464
31	-6465
사태	-6466
▁당부했다	-6467
▁민주당은	-6468
▁이른바	-6469
▁태국	-6470
▁단축	-6471
▁예보	-6472
▁작품을	-6473
▁56	-6474
IA	-6475
여성	-6476
리라	-6477
▁해제	-6478
돈으로	-6479
▁매달	-6480
▁시작된	-6481
▁일어난	-6482
▁붕괴	-6483
ang	-6484
▁화이트	-6485
비에	-6486
▁연령	-6487
▁포장	-6488
▁무한	-6489
기들	-6490
▁이름이	-6491
▁사람들을	-6492
▁한테	-6493
▁급격	-6494
▁아카	-6495
많이	-6496
▁취득	-6497
▁아마존	-6498
아닌가	-6499
▁맞은	-6500
▁사유	-6501
빨갱이	-6502
▁파티	-6503
피언	-6504
우면	-6505
▁만들었다	-6506
▁같아	-6507
▁대체로	-6508
▁지속적인	-6509
▁낚	-6510
▁그것이	-6511
▁파이	-6512
▁일이다	-6513
▁쓰레	-6514
▁부상	-6515
▁증정	-6516
TS	-6517
▁덩	-6518
▁즉각	-6519
▁파리	-6520
▁소프트웨어	-6521
▁화가	-6522
▁세금을	-6523
미디어	-6524
보지	-6525
▁점차	-6526
등을	-6527
처벌	-6528
▁연주	-6529
▁57	-6530
▁몸을	-6531
ort	-6532
▁마크	-6533
▁진상	-6534
▁법이	-6535
▁뷰	-6536
진의	-6537
▁짧은	-6538
▁방영	-6539
회장	-6540
ers	-6541
▁특파	-6542
kg	-6543
단으로	-6544
▁삼성전자는	-6545
▁저게	-6546
▁올리고	-6547
▁입은	-6548
전의	-6549
아지	-6550
자식	-6551
▁모드	-6552
▁과기	-6553
▁유시민	-6554
▁한두	-6555
▁발휘	-6556
▁아이가	-6557
▁경쟁력을	-6558
화학	-6559
▁기도	-6560
ia	-6561
근데	-6562
▁풀이	-6563
었나	-6564
▁오리	-6565
▁상태로	-6566
▁58	-6567
▁보지	-6568
리면서	-6569
▁이어질	-6570
▁초과	-6571
▁살아남	-6572
▁만화	-6573
▁이것도	-6574
▁사랑을	-6575
▁배제	-6576
▁헝	-6577
▁도박	-6578
▁★	-6579
▁적자	-6580
거리가	-6581
피아	-6582
▁곳은	-6583
미군	-6584
▁제공하고	-6585
이블	-6586
▁방향으로	-6587
▁보면서	-6588
안하고	-6589
서의	-6590
일러	-6591
▁점수	-6592
▁비교적	-6593
하에	-6594
할지	-6595
3000	-6596
▁보여준다	-6597
▁갔다	-6598
▁죽어	-6599
▁존나	-6600
▁마세요	-6601
시켰다	-6602
▁5%	-6603
▁피의	-6604
▁올리는	-6605
았습니다	-6606
▁공개했다	-6607
▁버리고	-6608
▁세력	-6609
▁무선	-6610
▁인간들이	-6611
▁과학기술정보통신	-6612
▁언젠	-6613
▁발생하는	-6614
iz	-6615
합의	-6616
="	-6617
▁존중	-6618
▁서서	-6619
▁부작	-6620
▁여담	-6621
▁기원	-6622
미나	-6623
all	-6624
▁쉬운	-6625
▁라이온	-6626
님을	-6627
지며	-6628
▁고맙	-6629
▁쉴	-6630
▁똘	-6631
▁날이	-6632
▁적합	-6633
▁저장	-6634
▁성범죄	-6635
▁외무	-6636
▁우린	-6637
▁유의	-6638
▁본격적인	-6639
▁달하는	-6640
토리	-6641
▁선전	-6642
식의	-6643
▁대책을	-6644
베이	-6645
▁갖다	-6646
▁엿	-6647
▁무엇보다	-6648
▁적어도	-6649
신은	-6650
▁쉐	-6651
▁당한	-6652
▁출입	-6653
▁회계	-6654
▁최초의	-6655
▁갓	-6656
▁태양광	-6657
▁개그	-6658
받았다	-6659
▁입을	-6660
▁메르	-6661
▁본격적으로	-6662
로의	-6663
재생	-6664
▁분들	-6665
비리	-6666
▁폭망	-6667
재를	-6668
차량	-6669
▁ᄌᄅ	-6670
제약	-6671
▁자존	-6672
▁후손	-6673
▁스튜	-6674
▁아이들이	-6675
▁요리	-6676
▁42	-6677
법으로	-6678
▁상태다	-6679
▁오늘도	-6680
러리	-6681
▁적을	-6682
▁터키	-6683
주일	-6684
▁IM	-6685
▁사용자	-6686
▁하지마라	-6687
▁시민들이	-6688
무시	-6689
친구	-6690
▁공통	-6691
▁정규직	-6692
곳이	-6693
기획	-6694
▁웬	-6695
▁진실을	-6696
실험	-6697
▁부부	-6698
▁셋	-6699
AR	-6700
▁뭐라	-6701
ess	-6702
역사	-6703
▁경유	-6704
▁대미	-6705
▁해명	-6706
통을	-6707
▁협력을	-6708
▁같아요	-6709
▁김기	-6710
▁이용자	-6711
다음	-6712
레인	-6713
사람은	-6714
구먼	-6715
▁지원한다	-6716
▁클럽	-6717
단과	-6718
▁뽑은	-6719
▁아니야	-6720
▁책을	-6721
▁모를	-6722
▁유해	-6723
▁바람에	-6724
▁물고	-6725
IS	-6726
▁김성태	-6727
렀다	-6728
▁품목	-6729
해주고	-6730
아주	-6731
학을	-6732
년만에	-6733
▁담긴	-6734
LED	-6735
다는게	-6736
음악	-6737
적폐	-6738
통이	-6739
▁은퇴	-6740
만달러	-6741
▁서울경제	-6742
▁총리는	-6743
▁선진국	-6744
리네	-6745
만도	-6746
▁공무	-6747
▁승객	-6748
터테인	-6749
▁《	-6750
▁설명이다	-6751
졌다고	-6752
준비	-6753
▁좋고	-6754
▁재건축	-6755
▁BU	-6756
▁패널	-6757
▁이념	-6758
노트	-6759
역에서	-6760
▁대장	-6761
▁봤다	-6762
▁오로지	-6763
▁왜이	-6764
▁붙어	-6765
▁최강	-6766
ff	-6767
▁안다	-6768
▁당초	-6769
▁펴	-6770
▁이래서	-6771
▁정확히	-6772
▁성장을	-6773
▁면역	-6774
▁만들어서	-6775
▁높게	-6776
할거	-6777
▁출전	-6778
번호	-6779
▁경제를	-6780
▁탱	-6781
▁안팎	-6782
▁치열	-6783
으라고	-6784
▁추억	-6785
▁마음에	-6786
했냐	-6787
▁너는	-6788
▁멕시코	-6789
▁국가의	-6790
▁부채	-6791
▁빠진	-6792
▁Ch	-6793
out	-6794
▁받아들이	-6795
▁어리	-6796
▁치료를	-6797
▁뜬	-6798
▁기생	-6799
화하고	-6800
▁아닌가요	-6801
▁상당한	-6802
▁정착	-6803
▁중에서	-6804
▁의도	-6805
▁불매운동	-6806
▁찍은	-6807
그만	-6808
▁공연을	-6809
34	-6810
▁가능성도	-6811
상과	-6812
▁위원장이	-6813
▁발언을	-6814
▁나라에	-6815
▁아이들	-6816
인터넷	-6817
위한	-6818
여명이	-6819
가와	-6820
청이	-6821
▁특유의	-6822
▁빨간	-6823
▁70%	-6824
동에	-6825
▁정부에서	-6826
▁치킨	-6827
▁들었다	-6828
▁현황	-6829
해지고	-6830
▁영화가	-6831
▁기사가	-6832
▁회사가	-6833
▁대답	-6834
해진다	-6835
▁있어도	-6836
▁2006	-6837
내서	-6838
프를	-6839
▁경제적	-6840
▁방치	-6841
▁생각은	-6842
▁영원히	-6843
▁대변인	-6844
▁다름	-6845
▁800	-6846
페이	-6847
무슨	-6848
▁가구	-6849
적은	-6850
▁순매수	-6851
▁기록하며	-6852
▁시작한다	-6853
조직	-6854
(...).	-6855
▁환경을	-6856
스런	-6857
▁타입	-6858
▁하드	-6859
▁무릎	-6860
들이나	-6861
바라	-6862
스키	-6863
▁스티	-6864
▁느낀	-6865
▁데이	-6866
▁빼고	-6867
십니다	-6868
▁나를	-6869
▁산다	-6870
▁데리고	-6871
▁무료로	-6872
▁월드컵	-6873
▁국민들의	-6874
▁법원	-6875
▁워낙	-6876
▁민주화	-6877
▁바뀐	-6878
▁목표주가	-6879
행이	-6880
ᄏᄏᄏᄏᄏᄏ	-6881
▁프로모	-6882
디아	-6883
▁승인	-6884
수와	-6885
OU	-6886
자료	-6887
▁일시	-6888
대강	-6889
점검	-6890
▁이름으로	-6891
▁총괄	-6892
▁어려움을	-6893
▁1.	-6894
▁행동을	-6895
정부의	-6896
▁몰래	-6897
센서	-6898
재가	-6899
ore	-6900
통수	-6901
▁브리핑	-6902
▁생각합니다	-6903
쪽에	-6904
세상	-6905
▁미국을	-6906
▁한때	-6907
화한	-6908
▁도덕	-6909
▁의존	-6910
▁한남	-6911
▁자전거	-6912
▁처음부터	-6913
▁고유	-6914
▁*	-6915
▁체육	-6916
줘서	-6917
하자는	-6918
▁되기	-6919
▁이익을	-6920
▁포스코	-6921
▁간의	-6922
▁당일	-6923
▁놀라	-6924
▁괜히	-6925
og	-6926
▁픽	-6927
에서만	-6928
▁혐오	-6929
▁손에	-6930
놈들은	-6931
지자	-6932
▁ᄏᄏᄏᄏᄏᄏᄏ	-6933
트롤	-6934
실한	-6935
ist	-6936
▁주세요	-6937
위기	-6938
▁고령	-6939
유럽	-6940
▁위장	-6941
놀이	-6942
이건	-6943
(?)	-6944
됐던	-6945
▁시리아	-6946
▁군산	-6947
▁신세계	-6948
했다가	-6949
▁사드	-6950
▁자료를	-6951
투자증권	-6952
▁개의	-6953
▁나아가	-6954
▁학생들이	-6955
▁우울	-6956
즈는	-6957
▁보완	-6958
▁없나	-6959
▁안타까	-6960
▁가자	-6961
▁여론조사	-6962
일과	-6963
▁사진제공	-6964
▁미세먼지가	-6965
공격	-6966
키로	-6967
▁있었고	-6968
!"	-6969
별로는	-6970
▁80%	-6971
▁수급	-6972
▁거야	-6973
▁법안	-6974
은행은	-6975
▁MB	-6976
▁적극적인	-6977
▁의지를	-6978
았다고	-6979
▁쓰레기들	-6980
▁언제나	-6981
▁있었지만	-6982
▁오직	-6983
▁세부	-6984
▁아우	-6985
▁편리	-6986
▁황금	-6987
▁개인의	-6988
르크	-6989
▁추모	-6990
▁절대로	-6991
▁쓸데	-6992
소비	-6993
▁상향	-6994
▁마친	-6995
였지만	-6996
▁하다가	-6997
▁미쳐	-6998
자본	-6999
▁-2	-7000
▁걸린	-7001
했나	-7002
협정	-7003
▁조국이	-7004
▁아시	-7005
▁전설	-7006
▁의식	-7007
공무원	-7008
▁기획재	-7009
월에는	-7010
포럼	-7011
▁때가	-7012
▁추경	-7013
▁히로	-7014
▁가치가	-7015
▁자회사	-7016
이용	-7017
▁원내대표는	-7018
▁근접	-7019
▁&	-7020
▁재료	-7021
ong	-7022
▁”	-7023
▁속도를	-7024
▁한국과	-7025
▁신분	-7026
▁일부러	-7027
동맹	-7028
ard	-7029
▁시대에	-7030
▁독도	-7031
있음	-7032
▁저도	-7033
▁본인의	-7034
▁목적으로	-7035
세트	-7036
기념	-7037
▁u	-7038
테니	-7039
▁말할	-7040
길래	-7041
▁부패	-7042
▁해상	-7043
▁SBS	-7044
▁반대하는	-7045
▁큐	-7046
▁이노	-7047
▁훼손	-7048
▁대한민국은	-7049
▁밸	-7050
58	-7051
▁카풀	-7052
▁엘리	-7053
▁선보인	-7054
▁보관	-7055
▁)	-7056
▁출판	-7057
한것	-7058
▁훔	-7059
▁가속	-7060
▁틈	-7061
▁물을	-7062
▁민주당이	-7063
▁집어	-7064
▁랭	-7065
년째	-7066
▁흡수	-7067
체험	-7068
위에서	-7069
▁오버	-7070
NA	-7071
분석	-7072
통상	-7073
▁핸드	-7074
▁전무	-7075
▁경제는	-7076
▁멋진	-7077
부지	-7078
ml	-7079
▁남자가	-7080
ight	-7081
▁250	-7082
혔다	-7083
▁이상을	-7084
▁사이버	-7085
▁끔	-7086
▁퀘	-7087
서도	-7088
▁사냥	-7089
▁랜	-7090
협약	-7091
▁김치	-7092
▁문대통령	-7093
▁갈아	-7094
▁1.5	-7095
고한	-7096
스탄	-7097
▁가시	-7098
총장	-7099
팀이	-7100
▁반응을	-7101
▁직무	-7102
▁차기	-7103
나라가	-7104
▁재생	-7105
화하는	-7106
▁작곡	-7107
빌리티	-7108
▁르노	-7109
해줄	-7110
그래도	-7111
이네요	-7112
▁ᄍᄍᄍ	-7113
주식	-7114
38	-7115
99	-7116
▁곳에서	-7117
▁휴가	-7118
▁결과는	-7119
▁지연	-7120
▁자국민	-7121
▁후회	-7122
성으로	-7123
▁분열	-7124
▁죽이고	-7125
▁목숨을	-7126
▁안전한	-7127
▁알지	-7128
▁상임	-7129
대응	-7130
▁모색	-7131
▁제조업	-7132
박스	-7133
▁윤석	-7134
▁진행할	-7135
▁붉은	-7136
▁한심하다	-7137
벌레	-7138
타고	-7139
▁운운	-7140
▁빡	-7141
▁엔딩	-7142
▁2.	-7143
▁낫다	-7144
만원으로	-7145
체의	-7146
ep	-7147
▁현행	-7148
▁인용	-7149
▁평등	-7150
양이	-7151
놈은	-7152
서로	-7153
행사	-7154
버그	-7155
향이	-7156
▁접촉	-7157
설팅	-7158
ᅳᅳᅳᅳ	-7159
▁불리	-7160
▁근육	-7161
▁떠올	-7162
생명	-7163
▁공짜	-7164
▁어휴	-7165
▁충청	-7166
▁뭔지	-7167
아니라	-7168
▁의견이	-7169
▁김상	-7170
▁주변에	-7171
▁똑똑	-7172
앞에	-7173
▁뒤를	-7174
▁금강	-7175
억원의	-7176
▁토대로	-7177
서야	-7178
▁경상	-7179
▁이야기가	-7180
▁굶	-7181
▁김종	-7182
▁따뜻한	-7183
▁높여	-7184
인에게	-7185
▁단말	-7186
라이브	-7187
▁문제에	-7188
▁영혼	-7189
▁급증	-7190
▁그렇다	-7191
잘못	-7192
있으면	-7193
▁인건	-7194
▁노벨	-7195
OS	-7196
가게	-7197
▁시나리오	-7198
▁일대	-7199
▁고속도로	-7200
▁남북정상회담	-7201
▁어째	-7202
▁몰라도	-7203
ec	-7204
▁많아서	-7205
▁청주	-7206
▁싱글	-7207
는다고	-7208
▁대량	-7209
▁무사	-7210
▁기온은	-7211
▁진행했다	-7212
▁챔피언	-7213
저리	-7214
▁교사	-7215
▁전세	-7216
▁그들이	-7217
▁특파원	-7218
▁호흡	-7219
▁내용의	-7220
▁세계에서	-7221
▁장소	-7222
▁다수	-7223
▁자유당	-7224
ile	-7225
▁무지	-7226
정통	-7227
▁팝	-7228
▁나타냈다	-7229
에겐	-7230
▁살펴보면	-7231
▁입증	-7232
▁재활	-7233
▁규모가	-7234
▁공수	-7235
타를	-7236
▁타격	-7237
거임	-7238
▁옆에	-7239
▁표기	-7240
ww	-7241
회의를	-7242
▁수능	-7243
▁평범한	-7244
동생	-7245
▁윗	-7246
장난	-7247
▁태어나	-7248
▁2005	-7249
만들	-7250
▁등신	-7251
▁걸려	-7252
▁식민	-7253
▁점은	-7254
▁이주	-7255
▁느그	-7256
청문	-7257
▁북미정상회담	-7258
▁멀티	-7259
▁강남구	-7260
포구	-7261
▁짓을	-7262
▁CN	-7263
▁보유하고	-7264
파가	-7265
결을	-7266
▁정부에	-7267
러가	-7268
▁극단	-7269
▁궤	-7270
▁84	-7271
▁쓰지	-7272
▁아까	-7273
나갈	-7274
▁만들어진	-7275
TO	-7276
해졌다	-7277
▁건너	-7278
▁스페인	-7279
▁당하고	-7280
▁주지	-7281
▁벼	-7282
▁66	-7283
▁산불	-7284
▁찢	-7285
▁둘다	-7286
직한	-7287
▁지내	-7288
전으로	-7289
▁시상	-7290
해봐라	-7291
▁돋	-7292
농단	-7293
▁무관	-7294
▁DB	-7295
아님	-7296
▁육군	-7297
▁시간에	-7298
▁연관	-7299
▁이같은	-7300
론을	-7301
때까지	-7302
사카	-7303
▁펀	-7304
▁장악	-7305
▁줄어든	-7306
▁컸	-7307
인치	-7308
플러스	-7309
하겠지	-7310
▁지루	-7311
▁인터뷰에서	-7312
▁5.18	-7313
아트	-7314
조사를	-7315
지션	-7316
거리를	-7317
▁타이틀	-7318
.(	-7319
▁그렇고	-7320
▁적화	-7321
▁세계적인	-7322
대변	-7323
성한	-7324
▁로드	-7325
자다	-7326
▁청산	-7327
▁기업들이	-7328
▁어느정도	-7329
하지도	-7330
▁줬	-7331
▁가스	-7332
▁석유	-7333
로우	-7334
연한	-7335
평등	-7336
▁기업은	-7337
라스틱	-7338
▁중국을	-7339
▁25%	-7340
▁원을	-7341
병을	-7342
함과	-7343
문의	-7344
▁마주	-7345
▁했다는	-7346
▁비정규직	-7347
장도	-7348
▁상업	-7349
▁불이	-7350
는거냐	-7351
기나	-7352
청정	-7353
▁늘고	-7354
체계	-7355
▁제시한	-7356
▁말라	-7357
▁출처	-7358
▁참여하는	-7359
▁엘지	-7360
▁수영	-7361
▁집계됐다	-7362
▁BUY	-7363
▁41	-7364
▁핫	-7365
▁하나가	-7366
▁you	-7367
▁에라이	-7368
예산	-7369
▁금감	-7370
▁흠	-7371
▁업무를	-7372
▁나쁨	-7373
▁FC	-7374
천만원	-7375
동네	-7376
▁참으로	-7377
공을	-7378
아웃	-7379
▁초등학교	-7380
▁그간	-7381
▁해킹	-7382
▁쓰면	-7383
▁둘이	-7384
▁킬	-7385
을듯	-7386
▁사업에	-7387
▁아이를	-7388
▁무대	-7389
▁신호	-7390
수하고	-7391
▁것인가	-7392
▁심한	-7393
말은	-7394
▁인기가	-7395
마켓	-7396
▁주재	-7397
▁방법이	-7398
▁안정적인	-7399
즈의	-7400
▁전직	-7401
▁하는짓	-7402
▁개발을	-7403
장기	-7404
현대	-7405
드러	-7406
▁몇몇	-7407
▁사우디	-7408
▁대통령님	-7409
▁제휴	-7410
번에	-7411
▁아닐까	-7412
▁나은	-7413
관과	-7414
▁한데	-7415
▁다시는	-7416
▁변신	-7417
감한	-7418
돼야	-7419
조치	-7420
▁박살	-7421
▁정상적인	-7422
▁이전에	-7423
▁나가는	-7424
▁인스타	-7425
▁일본에서	-7426
▁수리	-7427
▁쟁	-7428
▁뿌리	-7429
트라	-7430
▁막기	-7431
▁돈은	-7432
▁자치	-7433
버렸	-7434
▁벤처	-7435
사한	-7436
▁정권의	-7437
▁작동	-7438
▁특이	-7439
▁탓에	-7440
▁합법	-7441
등록	-7442
▁목사	-7443
▁쫄	-7444
시간이	-7445
물의	-7446
▁링크	-7447
▁지역은	-7448
넘들	-7449
오지	-7450
▁농협	-7451
▁1%	-7452
▁이자	-7453
▁분야의	-7454
▁추적	-7455
▁투쟁	-7456
천원	-7457
▁현재의	-7458
까지도	-7459
드에	-7460
▁거대한	-7461
AN	-7462
▁LTE	-7463
▁vs	-7464
▁시는	-7465
그릇	-7466
39	-7467
▁코미디	-7468
하기는	-7469
망이	-7470
누가	-7471
▁해당하는	-7472
집을	-7473
길이	-7474
세이	-7475
▁그들은	-7476
▁국정원	-7477
문재앙	-7478
하지는	-7479
▁이재용	-7480
▁뭐하냐	-7481
▁겹	-7482
▁시민단체	-7483
▁댄	-7484
타기	-7485
▁GB	-7486
▁타임	-7487
작을	-7488
..?	-7489
▁녀	-7490
수익	-7491
으로만	-7492
▁손가락	-7493
▁이해찬	-7494
▁사용한	-7495
▁임신	-7496
▁심의	-7497
www	-7498
▁진행되는	-7499
▁콤	-7500
▁발효	-7501
▁바람이	-7502
▁문학	-7503
▁운영하고	-7504
▁찔	-7505
▁더블	-7506
부에서	-7507
▁보좌	-7508
▁미중	-7509
▁치명	-7510
국인	-7511
물은	-7512
▁고등학교	-7513
일리	-7514
▁차지했다	-7515
▁쪽팔	-7516
저히	-7517
▁가난	-7518
▁실종	-7519
폐기	-7520
▁교도	-7521
▁너무나	-7522
▁소셜	-7523
ass	-7524
▁좋은데	-7525
아직	-7526
럽고	-7527
소한	-7528
있지	-7529
▁개통	-7530
마블	-7531
리는데	-7532
▁사이에서	-7533
보도	-7534
▁잘하고	-7535
인사	-7536
▁여성이	-7537
▁스트레스	-7538
▁논리	-7539
무사	-7540
▁전망했다	-7541
장치	-7542
▁어르	-7543
하루	-7544
소의	-7545
▁평가했다	-7546
AP	-7547
▁다스	-7548
건의	-7549
배가	-7550
편의	-7551
▁한다면	-7552
▁내수	-7553
▁견제	-7554
ity	-7555
▁얻은	-7556
▁지지하는	-7557
▁베스트	-7558
▁아니라는	-7559
버려	-7560
▁행사는	-7561
▁순위	-7562
▁봅니다	-7563
해양	-7564
▁특혜	-7565
버리는	-7566
▁주가가	-7567
▁회피	-7568
▁내륙	-7569
내기	-7570
▁털어	-7571
안과	-7572
▁장학	-7573
▁지닌	-7574
▁했으면	-7575
▁에너	-7576
▁지디	-7577
▁제품은	-7578
▁부담을	-7579
▁매도	-7580
▁이처럼	-7581
▁결코	-7582
▁문화를	-7583
~!!	-7584
▁참석했다	-7585
▁우리나라가	-7586
2000	-7587
아나	-7588
▁몸에	-7589
▁돌입	-7590
▁끌려	-7591
봤자	-7592
수산	-7593
▁짖	-7594
되어야	-7595
후에	-7596
▁저작	-7597
스카	-7598
▁결승	-7599
▁활용할	-7600
▁일러	-7601
▁ᄊ	-7602
▁창의	-7603
▁후보자	-7604
▁이번에는	-7605
▁체감	-7606
▁패스트	-7607
▁했을	-7608
▁원숭이	-7609
▁역량을	-7610
▁하노	-7611
▁정치를	-7612
디션	-7613
▁그리스	-7614
▁전략을	-7615
정도로	-7616
▁잉	-7617
▁발달	-7618
워라	-7619
▁발전을	-7620
▁안될	-7621
▁과기정통	-7622
▁어깨	-7623
▁이어지는	-7624
▁전파	-7625
▁상세	-7626
▁동일한	-7627
▁공매	-7628
터를	-7629
▁일관	-7630
심의	-7631
▁스케	-7632
▁()	-7633
▁신형	-7634
▁트리	-7635
연대	-7636
▁댓	-7637
▁700	-7638
▁지표	-7639
란히	-7640
▁후쿠	-7641
▁IS	-7642
▁느낌이	-7643
▁좀비	-7644
렉스	-7645
선에서	-7646
당과	-7647
▁날려	-7648
>>	-7649
할것	-7650
기면	-7651
▁노동자	-7652
▁다크	-7653
기록	-7654
▁죽이	-7655
액을	-7656
▁re	-7657
▁보존	-7658
▁엑스	-7659
저기	-7660
▁예수	-7661
▁하려고	-7662
연이	-7663
▁후보가	-7664
▁없게	-7665
▁분들이	-7666
▁조명	-7667
▁만든다	-7668
▁절차를	-7669
건으로	-7670
55	-7671
타는	-7672
▁등장한다	-7673
▁규모로	-7674
▁그녀의	-7675
▁건립	-7676
▁고양이	-7677
유를	-7678
▁적발	-7679
▁않아도	-7680
▁고기	-7681
호는	-7682
들에게는	-7683
풀이	-7684
▁청약	-7685
▁90%	-7686
▁객관	-7687
▁좋아요	-7688
▁나설	-7689
▁프레임	-7690
▁기업을	-7691
▁당분간	-7692
전화	-7693
▁든다	-7694
▁고도	-7695
▁고작	-7696
협상	-7697
▁해운	-7698
승을	-7699
▁문자	-7700
▁사립	-7701
▁모으	-7702
호의	-7703
▁두번째	-7704
▁컬러	-7705
▁적폐청산	-7706
모가	-7707
▁괜찮은	-7708
▁건강한	-7709
ive	-7710
▁고대	-7711
▁엮	-7712
▁후보는	-7713
▁조현	-7714
집에	-7715
300	-7716
한테는	-7717
▁달고	-7718
▁안가	-7719
▁크루	-7720
▁합시다	-7721
▁보게	-7722
▁쌍용	-7723
▁분위기를	-7724
▁자위	-7725
▁썩은	-7726
액이	-7727
▁운전자	-7728
▁연동	-7729
▁재배	-7730
▁주기	-7731
if	-7732
▁일각	-7733
▁고인의	-7734
부장	-7735
해준	-7736
▁차가	-7737
공정	-7738
▁맡은	-7739
죄로	-7740
▁비판했다	-7741
관계를	-7742
인한	-7743
라라	-7744
▁논문	-7745
▁이니	-7746
▁가볍	-7747
시간에	-7748
개선	-7749
내려	-7750
▁2022	-7751
▁중재	-7752
▁발급	-7753
▁들은	-7754
심사	-7755
▁침해	-7756
▁주어	-7757
▁이성	-7758
IST	-7759
▁관여	-7760
▁방위	-7761
▁미치	-7762
▁무역전쟁	-7763
질의	-7764
▁ᄇᄉ	-7765
▁배려	-7766
▁편안	-7767
▁또라이	-7768
▁찬양	-7769
▁곰	-7770
▁즐기는	-7771
▁정답	-7772
▁독특	-7773
▁수면	-7774
▁숨겨	-7775
▁훌륭한	-7776
▁의뢰	-7777
▁▷	-7778
▁가이드	-7779
심은	-7780
▁진심으로	-7781
?"	-7782
▁지디넷	-7783
참에	-7784
▁세트	-7785
▁실수	-7786
▁노하	-7787
▁위험한	-7788
▁기본적으로	-7789
▁국적	-7790
술을	-7791
청에	-7792
▁중반	-7793
▁급여	-7794
▁산업혁명	-7795
▁당첨	-7796
드와	-7797
▁꼬라지	-7798
렉시	-7799
▁당신은	-7800
마스	-7801
어린	-7802
마크	-7803
패스	-7804
다니는	-7805
력도	-7806
역이	-7807
▁업그레이드	-7808
됐으며	-7809
▁요구하는	-7810
되자	-7811
조국	-7812
▁것인지	-7813
느니	-7814
▁체제	-7815
▁전형적인	-7816
▁대해선	-7817
▁철회	-7818
리케이션	-7819
DP	-7820
▁놀고	-7821
▁독립운동	-7822
때마다	-7823
▁테크	-7824
▁개소	-7825
▁관계가	-7826
었지	-7827
▁페스티벌	-7828
▁이산	-7829
▁하라	-7830
▁서류	-7831
맙시다	-7832
렸습니다	-7833
▁셰	-7834
▁소득주도	-7835
수있는	-7836
▁칭찬	-7837
아니냐	-7838
줌마	-7839
▁목포	-7840
▁유플러	-7841
▁클리어	-7842
▁멀쩡	-7843
날이	-7844
▁소화	-7845
수엘	-7846
▁종족	-7847
▁화성	-7848
▁기록한	-7849
세의	-7850
해놓고	-7851
ON	-7852
▁철거	-7853
▁회사는	-7854
▁진료	-7855
▁점도	-7856
▁전라	-7857
▁가려	-7858
▁중독	-7859
▁수업	-7860
▁중심의	-7861
▁고객이	-7862
속도	-7863
▁계속해서	-7864
▁용인	-7865
▁경기를	-7866
▁거기서	-7867
▁미래에	-7868
▁스탠	-7869
▁없냐	-7870
▁가량	-7871
계층	-7872
▁스펙	-7873
▁하향	-7874
▁김용	-7875
▁조금씩	-7876
▁꿈을	-7877
▁봤는데	-7878
▁퀘스트	-7879
▁77	-7880
▁무상	-7881
▁텐	-7882
▁그래픽	-7883
▁(20	-7884
▁덱	-7885
▁주체	-7886
인상	-7887
▁외치	-7888
▁간호	-7889
▁걸로	-7890
▁교수가	-7891
▁지디넷코리아	-7892
▁대상이	-7893
▁마시고	-7894
▁것만	-7895
놨다	-7896
▁산하	-7897
▁가족이	-7898
▁대거	-7899
ver	-7900
▁라디오	-7901
▁생길	-7902
▁잠깐	-7903
▁유플러스	-7904
▁정권을	-7905
주사	-7906
▁is	-7907
▁나면	-7908
시와	-7909
▁가전	-7910
▁조언	-7911
담을	-7912
▁못하면	-7913
알고	-7914
▁매입	-7915
러워	-7916
▁카운	-7917
▁기재	-7918
▁올렸다	-7919
▁없었던	-7920
▁기자간담	-7921
▁어지	-7922
pr	-7923
▁미션	-7924
▁드디어	-7925
▁누굴	-7926
▁소리가	-7927
주차	-7928
▁보증	-7929
인증	-7930
타워	-7931
▁땡	-7932
▁자체를	-7933
▁웃기	-7934
▁츠	-7935
▁믿는	-7936
실히	-7937
▁알파	-7938
▁한계	-7939
방향	-7940
▁뜯어	-7941
▁최후	-7942
▁우습	-7943
거는	-7944
▁사실은	-7945
부산	-7946
▁자한당은	-7947
▁무인	-7948
▁기관은	-7949
▁전부터	-7950
▁이러니	-7951
▁말만	-7952
었네	-7953
▁68	-7954
역에	-7955
▁어떻게든	-7956
겠는데	-7957
부품	-7958
▁생성	-7959
▁죄를	-7960
▁세포	-7961
▁흥미	-7962
▁착한	-7963
nd	-7964
▁웅	-7965
▁선보였다	-7966
운용	-7967
▁지역을	-7968
▁안드로	-7969
▁감소했다	-7970
기온은	-7971
▁찰	-7972
▁수주	-7973
배를	-7974
▁소년	-7975
▁것이란	-7976
▁작전	-7977
종이	-7978
▁차를	-7979
빠진	-7980
▁전쟁을	-7981
CC	-7982
▁그야말로	-7983
▁각성	-7984
소재	-7985
아니고	-7986
▁청와대는	-7987
▁개발에	-7988
▁씌	-7989
▁말자	-7990
▁퓨	-7991
▁야외	-7992
버렸다	-7993
▁그것을	-7994
▁대충	-7995
▁자기들	-7996
▁사죄	-7997
▁유력	-7998
▁ᄍ	-7999
▁적용해	-8000
▁깨끗한	-8001
▁미만	-8002
▁이어지고	-8003
▁합류	-8004
▁디젤	-8005
살인	-8006
▁목록	-8007
순위	-8008
▁적절한	-8009
▁패러	-8010
▁낭비	-8011
▁이번엔	-8012
▁납치	-8013
▁정황	-8014
▁성폭력	-8015
▁한명	-8016
최고	-8017
시킨다	-8018
▁부분을	-8019
전환	-8020
▁변화가	-8021
령을	-8022
▁사용해	-8023
▁넘어서	-8024
▁조선일보	-8025
되게	-8026
▁오리지	-8027
▁둘째	-8028
▁달라고	-8029
봉사	-8030
▁지어	-8031
건가요	-8032
▁180	-8033
▁깎	-8034
▁막말	-8035
▁여성의	-8036
▁53	-8037
▁마리	-8038
▁용서	-8039
▁듀얼	-8040
그래서	-8041
▁목소리가	-8042
것들은	-8043
▁협조	-8044
▁뭐라고	-8045
▁76	-8046
▁합병	-8047
ill	-8048
▁답했다	-8049
▁포르	-8050
▁보일	-8051
들인	-8052
더블	-8053
국에서	-8054
티스트	-8055
ue	-8056
▁제어	-8057
▁살아라	-8058
인민	-8059
▁마치고	-8060
▁해안	-8061
▁아니냐는	-8062
▁아트	-8063
▁85	-8064
평을	-8065
▁이윤	-8066
▁주제	-8067
▁결정을	-8068
에다	-8069
▁남겨	-8070
▁사랑하는	-8071
▁퇴직	-8072
▁생기는	-8073
▁가계	-8074
감정	-8075
▁51	-8076
원도	-8077
▁공천	-8078
어디	-8079
▁양측	-8080
▁6·	-8081
▁행복한	-8082
▁IB	-8083
▁제정신	-8084
▁들어갈	-8085
▁일찍	-8086
▁방향을	-8087
▁경매	-8088
▁기대하고	-8089
충들	-8090
▁없기	-8091
▁층	-8092
모로	-8093
자들과	-8094
일의	-8095
▁유용	-8096
▁현실을	-8097
▁협상을	-8098
▁언론이	-8099
▁추측	-8100
▁출동	-8101
▁이마트	-8102
니지	-8103
▁두산	-8104
소나	-8105
▁내릴	-8106
만들어	-8107
▁인사를	-8108
니즘	-8109
▁눌	-8110
▁해주세요	-8111
ik	-8112
▁퀄	-8113
▁작성한	-8114
▁의결	-8115
▁안하는	-8116
▁일본과	-8117
▁진행하는	-8118
▁무엇을	-8119
지인	-8120
▁시대를	-8121
▁여부	-8122
▁올바른	-8123
▁체크	-8124
▁모조리	-8125
▁쇠	-8126
▁속도가	-8127
부처	-8128
▁죽는	-8129
▁나선다	-8130
▁메시지를	-8131
▁박영	-8132
▁카드를	-8133
▁저리	-8134
▁단어	-8135
닉스	-8136
태를	-8137
▁배상	-8138
▁에스	-8139
우리나라	-8140
▁익숙	-8141
▁사업은	-8142
▁영업이익은	-8143
PS	-8144
여개	-8145
▁플레이어	-8146
ps	-8147
▁갚	-8148
▁SW	-8149
즈가	-8150
분양	-8151
▁신입	-8152
▁영입	-8153
▁헤어	-8154
▁줄이고	-8155
장한	-8156
▁발생할	-8157
였다고	-8158
했다면	-8159
▁무식한	-8160
?????	-8161
거든요	-8162
▁ᄂ	-8163
▁서울의	-8164
장인	-8165
여야	-8166
고등학교	-8167
▁쟤	-8168
백화점	-8169
유산	-8170
▁뭐하는	-8171
▁국민들을	-8172
▁부분은	-8173
46	-8174
▁참여할	-8175
▁민주노총	-8176
▁방북	-8177
▁그지	-8178
분은	-8179
례를	-8180
타령	-8181
▁정밀	-8182
나의	-8183
▁오를	-8184
대도	-8185
업자	-8186
라를	-8187
학의	-8188
▁함부로	-8189
▁걸고	-8190
▁정지	-8191
▁2004	-8192
점과	-8193
▁아닌지	-8194
▁계기가	-8195
▁컨센서	-8196
터테인먼트	-8197
▁주제에	-8198
정권이	-8199
▁기어	-8200
▁!!!	-8201
▁점령	-8202
▁일환	-8203
▁들을	-8204
에너지	-8205
▁수천	-8206
OC	-8207
▁매체	-8208
▁대외	-8209
▁드는	-8210
▁벤츠	-8211
▁수비	-8212
감사	-8213
▁탈원전	-8214
▁선사	-8215
▁자유롭게	-8216
▁대단하다	-8217
▁안희	-8218
▁매출이	-8219
낙연	-8220
▁내달	-8221
▁쩝쩝	-8222
자한당	-8223
▁구멍	-8224
안타	-8225
추진	-8226
▁공익	-8227
▁어이가	-8228
▁잡을	-8229
▁권고	-8230
▁등장인물	-8231
▁한층	-8232
▁꼴통	-8233
▁팽	-8234
살이	-8235
▁두번	-8236
용품	-8237
▁좌좀	-8238
▁군인	-8239
▁국민에게	-8240
▁개설	-8241
감은	-8242
▁정보통신	-8243
▁스웨	-8244
▁노사	-8245
▁문화체육	-8246
프로그램	-8247
▁유승민	-8248
▁서초구	-8249
프가	-8250
▁백악관	-8251
▁정신을	-8252
마나	-8253
▁검찰에	-8254
▁ᅵ	-8255
되었고	-8256
▁만세	-8257
▁범죄자	-8258
ack	-8259
▁입법	-8260
▁정도는	-8261
▁매출은	-8262
▁김해	-8263
현재	-8264
▁진영	-8265
▁진행한	-8266
▁이후에	-8267
도안	-8268
류가	-8269
PC	-8270
▁임원	-8271
▁대표하는	-8272
ᄒᄒᄒ	-8273
▁88	-8274
하기에	-8275
▁증권사	-8276
영화제	-8277
보로	-8278
▁2002	-8279
▁크고	-8280
꺼다	-8281
▁on	-8282
▁포럼	-8283
▁부담이	-8284
▁란	-8285
▁얻고	-8286
▁적절	-8287
근로	-8288
-1	-8289
▁살짝	-8290
59	-8291
▁미치는	-8292
▁돌아가는	-8293
알바	-8294
▁한참	-8295
▁감상	-8296
▁전공	-8297
▁중계	-8298
▁0.1	-8299
▁정도가	-8300
▁거절	-8301
▁했으나	-8302
▁보내고	-8303
가다	-8304
▁시사	-8305
▁서울시장	-8306
▁뭐야	-8307
가도	-8308
▁할아버	-8309
▁하더라도	-8310
▁머리를	-8311
▁잘하는	-8312
▁위대한	-8313
▁도중	-8314
▁동성애	-8315
▁다리	-8316
▁많네	-8317
▁중동	-8318
▁식당	-8319
▁알아야	-8320
▁양반	-8321
▁마련했다	-8322
▁가격을	-8323
▁연애	-8324
▁공시했다	-8325
▁입장에서	-8326
▁열었다	-8327
▁찾을	-8328
▁기능이	-8329
▁때부터	-8330
▁사람들에게	-8331
판이	-8332
▁해야한다	-8333
▁기득권	-8334
당하게	-8335
▁흰	-8336
▁존재한다	-8337
▁론	-8338
▁일러스트	-8339
▁아키	-8340
▁펀드	-8341
정과	-8342
해져	-8343
▁퇴출	-8344
전한	-8345
▁이후로	-8346
▁징계	-8347
오늘	-8348
▁커지고	-8349
▁하락했다	-8350
싸움	-8351
▁사람에게	-8352
pan	-8353
보건	-8354
중이	-8355
군에	-8356
▁마인	-8357
▁주장하는	-8358
▁온다	-8359
▁고속	-8360
김정은	-8361
실로	-8362
▁넓은	-8363
모두	-8364
html	-8365
▁아들이	-8366
▁뻥	-8367
▁유료	-8368
▁응급	-8369
▁끔찍	-8370
신청	-8371
▁쏴	-8372
쓴다	-8373
췄다	-8374
▁마이크로	-8375
면적	-8376
▁Lv	-8377
▁이제와서	-8378
▁6.25	-8379
▁의혹이	-8380
▁고스	-8381
▁미래가	-8382
▁다섯	-8383
▁전수	-8384
▁보다는	-8385
**	-8386
▁전문가들은	-8387
▁마시	-8388
▁전사	-8389
▁종이	-8390
▁오랫	-8391
▁린	-8392
인데요	-8393
▁헬조선	-8394
가면서	-8395
▁당신의	-8396
경은	-8397
▁기업에	-8398
내야	-8399
지난	-8400
▁주한미군	-8401
▁라이온봇	-8402
마의	-8403
▁도발	-8404
▁연구를	-8405
▁자유민주주의	-8406
박물관	-8407
▁권리	-8408
으러	-8409
▁선출	-8410
▁눈길을	-8411
카페	-8412
▁젠	-8413
▁어떠한	-8414
편이	-8415
▁내렸다	-8416
되나	-8417
보드	-8418
▁얼굴을	-8419
▁하긴	-8420
▁완전한	-8421
트럼프	-8422
줄이	-8423
경북	-8424
방에서	-8425
▁비용을	-8426
테고	-8427
▁무력	-8428
가량	-8429
▁모습이다	-8430
▁형태의	-8431
받지	-8432
▁참여해	-8433
▁절차	-8434
▁경비	-8435
▁땐	-8436
▁굽	-8437
리포	-8438
▁방식을	-8439
▁죽일	-8440
케이	-8441
았지만	-8442
▁해보	-8443
▁발의	-8444
▁수호	-8445
▁스튜디오	-8446
았네	-8447
하더라도	-8448
▁줄었다	-8449
▁나베	-8450
사람들이	-8451
▁늙은	-8452
▁살아야	-8453
▁곳으로	-8454
프리	-8455
▁명품	-8456
▁원활	-8457
▁하라고	-8458
▁방면	-8459
▁성능을	-8460
마를	-8461
잡이	-8462
▁철강	-8463
신고	-8464
▁감싸	-8465
▁발표된	-8466
▁곽	-8467
▁웹툰	-8468
▁말까지	-8469
▁베네수엘	-8470
▁기반의	-8471
물고	-8472
▁분쟁	-8473
곳을	-8474
▁2017-	-8475
▁한가	-8476
▁면접	-8477
체제	-8478
▁무시하고	-8479
마는	-8480
▁가능성	-8481
▁보며	-8482
▁맞서	-8483
▁면제	-8484
▁되면서	-8485
ions	-8486
pl	-8487
하우스	-8488
▁음식을	-8489
▁향한	-8490
▁하야	-8491
▁늘려	-8492
▁골드	-8493
ID	-8494
모든	-8495
▁오늘은	-8496
교수	-8497
▁컨트롤	-8498
르트	-8499
▁강연	-8500
▁횟	-8501
▁윌	-8502
▁덴	-8503
47	-8504
▁기후	-8505
십시오	-8506
▁방법으로	-8507
▁운항	-8508
▁기념촬영	-8509
민의	-8510
▁물류	-8511
▁기기	-8512
토록	-8513
▁어르신	-8514
33	-8515
▁한진	-8516
자체가	-8517
미의	-8518
▁대부분이	-8519
▁60%	-8520
쪽은	-8521
▁자동으로	-8522
▁약한	-8523
▁가벼	-8524
49	-8525
▁서울중앙	-8526
중공업	-8527
▁안달	-8528
▁유전자	-8529
▁곳곳에	-8530
▁한국당은	-8531
▁비행기	-8532
네들	-8533
▁초고	-8534
▁매번	-8535
▁핑계	-8536
보증	-8537
▁안심	-8538
▁캘	-8539
▁결의	-8540
▁스트레	-8541
▁좌우	-8542
▁거래를	-8543
▁옵션	-8544
받는다	-8545
▁택배	-8546
비의	-8547
▁홀로	-8548
▁있음을	-8549
▁외면	-8550
▁충분한	-8551
▁오피스	-8552
▁수학	-8553
▁3.	-8554
▁이낙연	-8555
작업	-8556
보안	-8557
▁이미지를	-8558
아시아	-8559
▁이름은	-8560
▁그럼에도	-8561
인식	-8562
인당	-8563
▁겨냥	-8564
▁배송	-8565
▁남을	-8566
▁부실	-8567
청원	-8568
▁후진	-8569
▁불확	-8570
▁사고를	-8571
▁67	-8572
▁맘대로	-8573
이코	-8574
▁큰일	-8575
▁부르는	-8576
시간을	-8577
▁지원할	-8578
▁이상으로	-8579
▁부모가	-8580
▁김포	-8581
▁스크린	-8582
▁평화의	-8583
래프트	-8584
▁마지막으로	-8585
▁불어	-8586
▁처음이다	-8587
▁차량을	-8588
▁맡고	-8589
▁부추	-8590
▁채권	-8591
▁어둠	-8592
고속도로	-8593
▁의사를	-8594
풍이	-8595
▁냈	-8596
▁잡는	-8597
담당	-8598
▁원인이	-8599
▁co	-8600
▁발생했다	-8601
거같	-8602
▁정권은	-8603
▁뜨거운	-8604
▁요소	-8605
▁휩	-8606
▁숙박	-8607
생을	-8608
;;;	-8609
▁위에서	-8610
되냐	-8611
▁둘러싼	-8612
▁원장	-8613
비율	-8614
으신	-8615
조의	-8616
▁알리	-8617
▁자사	-8618
▁자제	-8619
▁죽이는	-8620
▁하나는	-8621
▁공기청정	-8622
특히	-8623
MA	-8624
대기	-8625
▁스피커	-8626
▁소개했다	-8627
▁속성	-8628
보유	-8629
▁면허	-8630
▁정상회담을	-8631
지는데	-8632
▁등장한	-8633
▁유행	-8634
▁이르	-8635
▁되어야	-8636
▁워크	-8637
▁언어	-8638
▁힘들게	-8639
▁매주	-8640
▁최고위원	-8641
추는	-8642
▁추진하고	-8643
▁시작해	-8644
▁집회	-8645
▁기준을	-8646
▁부적	-8647
▁코너	-8648
▁소상공인	-8649
림을	-8650
하시고	-8651
▁국토부	-8652
▁이겨	-8653
▁방문한	-8654
거라고	-8655
▁산업통상	-8656
▁어마	-8657
▁달아	-8658
▁박수	-8659
타이어	-8660
▁런던	-8661
http	-8662
▁느끼는	-8663
▁그러다	-8664
▁높이고	-8665
기아	-8666
▁끊임	-8667
▁인텔	-8668
메달	-8669
▁조각	-8670
하였고	-8671
▁화웨	-8672
▁내리는	-8673
았으면	-8674
▁지지합니다	-8675
▁금호	-8676
▁시대가	-8677
▁언론에	-8678
▁마사	-8679
▁있는게	-8680
▁종전선언	-8681
bs	-8682
구석	-8683
▁귀여	-8684
▁송파	-8685
▁쪽으로	-8686
▁로스	-8687
▁확실한	-8688
▁대륙	-8689
▁비율	-8690
▁편하게	-8691
▁안되고	-8692
▁하수	-8693
▁선정된	-8694
내용	-8695
▁국가를	-8696
2019	-8697
타운	-8698
▁아기	-8699
▁침략	-8700
▁콘서트	-8701
▁좋겠습니다	-8702
ie	-8703
전시	-8704
감도	-8705
▁안산	-8706
▁에피소드	-8707
▁동양	-8708
▁위선	-8709
▁대대	-8710
감과	-8711
▁해봐라	-8712
▁최근에는	-8713
▁자신들의	-8714
▁균형	-8715
▁문화체육관광	-8716
▁DM	-8717
▁순수	-8718
▁충성	-8719
▁말하고	-8720
▁없던	-8721
▁「	-8722
색이	-8723
▁천안함	-8724
▁할까	-8725
▁태어난	-8726
▁이들을	-8727
▁문정부	-8728
▁상승했다	-8729
▁즐거	-8730
▁범위	-8731
라이트	-8732
▁겪고	-8733
▁보고서	-8734
로로	-8735
▁카이	-8736
▁추첨	-8737
공급	-8738
▁하였다	-8739
▁동시	-8740
▁새해	-8741
▁세계를	-8742
▁보여준	-8743
▁높이는	-8744
등이	-8745
▁상영	-8746
▁건데	-8747
52	-8748
▁방법은	-8749
▁친중	-8750
퇴근	-8751
▁데다	-8752
▁않기	-8753
트리온	-8754
▁종사	-8755
PA	-8756
▁짓거리	-8757
▁바퀴	-8758
▁민주평화	-8759
▁짐승	-8760
▁지지를	-8761
▁사례가	-8762
▁거품	-8763
▁정책이	-8764
▁대결	-8765
▁심장	-8766
플러	-8767
▁뒤집어	-8768
욕을	-8769
▁화물	-8770
레이크	-8771
네가	-8772
▁덥	-8773
보이	-8774
▁기상청은	-8775
▁손님	-8776
▁확인됐다	-8777
▁캠페인	-8778
ind	-8779
▁작가의	-8780
▁소련	-8781
그렇게	-8782
▁방탄소년단	-8783
▁누리	-8784
▁차지하는	-8785
▁히어로	-8786
▁분이	-8787
▁자연스럽게	-8788
▁중국산	-8789
▁자빠졌네	-8790
우기	-8791
▁오리지널	-8792
▁하나인	-8793
살을	-8794
▁좋게	-8795
▁졸라	-8796
▁파는	-8797
▁콜라	-8798
▁정규	-8799
▁트럼프는	-8800
▁모델을	-8801
▁사진은	-8802
▁명백	-8803
▁브렉시	-8804
▁잠수	-8805
▁선보일	-8806
▁원장은	-8807
▁천연	-8808
▁거래소	-8809
▁물질	-8810
▁기획재정부	-8811
출신	-8812
▁종종	-8813
▁얘기를	-8814
▁공군	-8815
▁공간을	-8816
▁유형	-8817
아냐	-8818
▁긍정적인	-8819
워야	-8820
▁스카	-8821
▁며칠	-8822
화할	-8823
▁나간	-8824
▁tv	-8825
▁저지른	-8826
짓거리	-8827
▁산업통상자원	-8828
국민이	-8829
▁포털	-8830
▁트레이	-8831
▁내지	-8832
가자	-8833
▁기사입니다	-8834
대구	-8835
▁ᄅ	-8836
▁전후	-8837
▁김일성	-8838
▁부모님	-8839
▁밀려	-8840
▁비트코인	-8841
▁김병	-8842
▁경기가	-8843
▁결과에	-8844
▁보여주고	-8845
클럽	-8846
것만	-8847
저씨	-8848
▁되는거	-8849
▁지니	-8850
▁총장	-8851
역으로	-8852
▁어릴	-8853
분께	-8854
▁사내	-8855
▁먼지	-8856
▁인간은	-8857
▁일으키	-8858
▁또다시	-8859
▁강제로	-8860
점의	-8861
중이다	-8862
▁소나	-8863
있을	-8864
▁정말로	-8865
▁자료사진	-8866
▁맥주	-8867
▁꺼내	-8868
▁치는	-8869
▁대학교	-8870
▁본래	-8871
▁탈퇴	-8872
종은	-8873
▁한방	-8874
▁낯	-8875
▁일정을	-8876
▁소수	-8877
▁머리가	-8878
이었고	-8879
공학	-8880
▁for	-8881
▁개나	-8882
▁요새	-8883
▁대표이사	-8884
▁수여	-8885
▁한마디로	-8886
▁본사	-8887
▁현상	-8888
▁갖춰	-8889
달라는	-8890
▁죽인	-8891
▁확대해	-8892
▁성매매	-8893
포먼	-8894
NG	-8895
카와	-8896
색을	-8897
▁미칠	-8898
▁이길	-8899
▁민정	-8900
센트	-8901
▁쫌	-8902
▁학술	-8903
▁포켓	-8904
▁찾기	-8905
▁역량	-8906
▁SD	-8907
▁2021	-8908
▁뒤에서	-8909
▁HP	-8910
▁잡은	-8911
▁페이지	-8912
▁스테이지	-8913
▁접목	-8914
▁벌레	-8915
▁ᄃᄃ	-8916
▁읽어	-8917
▁올릴	-8918
▁대안	-8919
▁아깝다	-8920
▁리스크	-8921
enter	-8922
▁앞세	-8923
▁공수처	-8924
▁마땅	-8925
▁씨를	-8926
공헌	-8927
▁않는다는	-8928
▁닿	-8929
▁떨어질	-8930
▁라이프	-8931
▁들어오	-8932
▁예외	-8933
무장	-8934
서와	-8935
▁버튼	-8936
▁일에	-8937
모습	-8938
▁깊이	-8939
▁518	-8940
어져	-8941
▁오면	-8942
▁편성	-8943
▁순매도	-8944
하의	-8945
졌다는	-8946
걸이	-8947
▁동종목	-8948
위원회가	-8949
▁들어갔	-8950
▁평창올림픽	-8951
있던	-8952
전과	-8953
좌빨	-8954
▁사물	-8955
▁컨설팅	-8956
해왔	-8957
▁병역	-8958
것처럼	-8959
벤처기업	-8960
▁김부	-8961
▁유족	-8962
▁사람들도	-8963
▁지불	-8964
기술을	-8965
▁건강보험	-8966
▁세탁	-8967
락을	-8968
데스	-8969
▁잘한다	-8970
▁교황	-8971
▁넷마블	-8972
▁플라스틱	-8973
▁목격	-8974
▁시끄	-8975
랑이	-8976
▁마누	-8977
▁만만	-8978
▁공개된	-8979
타로	-8980
go	-8981
에게서	-8982
▁죽고	-8983
▁구미	-8984
▁제네	-8985
▁휠	-8986
▁데모	-8987
▁시기에	-8988
박한	-8989
▁부총	-8990
▁망가	-8991
ith	-8992
생이	-8993
깨문	-8994
와라	-8995
▁김재	-8996
수당	-8997
아의	-8998
나네	-8999
▁공인	-9000
까지만	-9001
▁2003	-9002
▁이영	-9003
▁회사의	-9004
도까지	-9005
▁끝났	-9006
▁되길	-9007
▁연설	-9008
▁적정	-9009
모토	-9010
탄을	-9011
▁지명	-9012
있다고	-9013
▁메가	-9014
▁영등	-9015
탄핵	-9016
▁되나	-9017
시리즈	-9018
▁트랙	-9019
▁독점	-9020
▁흔히	-9021
지대	-9022
▁원자력	-9023
▁죄송	-9024
▁추방	-9025
▁없애고	-9026
고로	-9027
됐다는	-9028
▁묘사	-9029
임에도	-9030
수기	-9031
▁커버	-9032
▁없어요	-9033
▁빌려	-9034
아들	-9035
교사	-9036
와도	-9037
▁별도	-9038
▁2.0	-9039
연의	-9040
이면서	-9041
▁실질적인	-9042
마음	-9043
▁69	-9044
보며	-9045
▁이나	-9046
오염	-9047
▁고문	-9048
(19	-9049
▁웃음	-9050
▁AF	-9051
▁엄격	-9052
▁시달	-9053
▁화려한	-9054
▁지적이	-9055
▁일산	-9056
됐지만	-9057
데미	-9058
▁되냐	-9059
우지	-9060
폰을	-9061
임대	-9062
실은	-9063
센터를	-9064
▁당기	-9065
ell	-9066
▁여행을	-9067
▁승차	-9068
▁생각보다	-9069
▁스페셜	-9070
57	-9071
▁해주는	-9072
▁국가에서	-9073
▁장면이	-9074
▁진행됐다	-9075
▁수구	-9076
람회	-9077
▁건드	-9078
AE	-9079
▁소요	-9080
▁회의를	-9081
프는	-9082
▁물량	-9083
▁영토	-9084
▁권력을	-9085
▁이렇	-9086
확인	-9087
믹스	-9088
▁그랜드	-9089
편을	-9090
▁재발	-9091
▁냈다	-9092
앞으로	-9093
▁무더	-9094
▁깔끔	-9095
호텔에서	-9096
▁좀더	-9097
▁한번도	-9098
▁의문	-9099
▁삼성바이오	-9100
▁날씨가	-9101
▁겁나	-9102
료가	-9103
▁미세	-9104
이었는데	-9105
▁있는거	-9106
고에	-9107
▁??	-9108
구적으로	-9109
▁재수	-9110
▁붙여	-9111
▁상승한	-9112
▁연예인	-9113
▁소멸	-9114
▁아끼	-9115
▁힘내세요	-9116
▁들려	-9117
▁라이트	-9118
구멍	-9119
▁어려울	-9120
▁말하면	-9121
연맹	-9122
▁스웨덴	-9123
...?	-9124
▁영화의	-9125
▁일종의	-9126
▁계좌	-9127
▁통보	-9128
▁사고로	-9129
머스	-9130
▁꿈꾸	-9131
▁입국	-9132
▁격려	-9133
▁산림	-9134
문화재	-9135
44	-9136
▁입만	-9137
▁래	-9138
했음	-9139
▁하셨	-9140
▁전국에	-9141
▁않았지만	-9142
차의	-9143
▁흥행	-9144
도에서	-9145
▁챙기	-9146
타가	-9147
시청	-9148
▁유동	-9149
▁이외에도	-9150
▁어린이집	-9151
끄는	-9152
▁적응	-9153
▁2.5	-9154
▁강화를	-9155
ip	-9156
▁광주시	-9157
▁어떨	-9158
▁연구팀은	-9159
▁해방	-9160
협의회	-9161
▁죄가	-9162
▁당국	-9163
▁삐	-9164
달아	-9165
▁하니까	-9166
▁내다봤다	-9167
▁몸이	-9168
▁재능	-9169
콘텐츠	-9170
▁금속	-9171
▁이론	-9172
▁의원의	-9173
쳐먹	-9174
▁널리	-9175
▁활성화를	-9176
▁충족	-9177
조트	-9178
▁신중	-9179
▁여유	-9180
운다	-9181
▁사건의	-9182
▁허리	-9183
▁일반적인	-9184
▁거대	-9185
se	-9186
아프	-9187
어링	-9188
지네	-9189
회계	-9190
▁땀	-9191
▁바꿀	-9192
▁손혜	-9193
조는	-9194
▁유지하고	-9195
▁띠	-9196
▁거두	-9197
▁버려	-9198
▁컨셉	-9199
▁함께하는	-9200
▁젖	-9201
▁수령	-9202
▁폭등	-9203
▁결국은	-9204
▁OLED	-9205
▁비하면	-9206
고객	-9207
구려	-9208
▁음주운전	-9209
병이	-9210
:0	-9211
하자고	-9212
▁먹은	-9213
했으니	-9214
▁공동으로	-9215
▁분위기가	-9216
▁캡처	-9217
▁KA	-9218
▁이것은	-9219
금으로	-9220
▁감독이	-9221
▁ᄆ	-9222
56	-9223
▁케이스	-9224
▁이참에	-9225
▁다수의	-9226
광역시	-9227
과학기술	-9228
▁듯하다	-9229
▁여기저기	-9230
ine	-9231
박근혜	-9232
허가	-9233
▁끌어올	-9234
▁북부	-9235
▁열렸다	-9236
끼들	-9237
▁청와대가	-9238
군사	-9239
▁노력하겠다	-9240
쁘다	-9241
▁2030	-9242
▁기지	-9243
▁모니터링	-9244
▁서민들	-9245
이러	-9246
▁전방	-9247
▁제시했다	-9248
▁감당	-9249
▁느꼈	-9250
일도	-9251
밀한	-9252
제와	-9253
▁1990	-9254
▁HD	-9255
▁안좋	-9256
▁일자리를	-9257
▁건지	-9258
▁쭉	-9259
행동	-9260
▁인스타그램	-9261
▁보건복지	-9262
나가는	-9263
▁제도를	-9264
만여	-9265
▁위험이	-9266
▁지출	-9267
▁MA	-9268
출산	-9269
▁기업으로	-9270
▁먹어	-9271
▁단순한	-9272
obile	-9273
기업이	-9274
▁자체는	-9275
▁헝가리	-9276
▁복원	-9277
▁곧바로	-9278
▁이명박근혜	-9279
▁애플리케이션	-9280
▁개성공단	-9281
▁밖으로	-9282
▁하더니	-9283
▁착수	-9284
▁생겼다	-9285
폭이	-9286
일자	-9287
▁셀트리온	-9288
▁운동을	-9289
▁중도	-9290
▁탈락	-9291
▁받으면	-9292
▁씨부	-9293
▁텔레콤은	-9294
가루	-9295
▁신약	-9296
▁발악	-9297
▁규제를	-9298
▁ー	-9299
체에	-9300
기상	-9301
▁관절	-9302
▁당뇨	-9303
▁조금만	-9304
▁의외로	-9305
터가	-9306
▁문의	-9307
▁막고	-9308
▁국개의	-9309
▁다큐	-9310
▁개선을	-9311
▁포함된	-9312
▁엄청나게	-9313
▁국민세금	-9314
구리	-9315
통합	-9316
▁자문	-9317
▁110	-9318
▁사서	-9319
▁양자	-9320
▁실적을	-9321
▁오랫동안	-9322
▁SS	-9323
▁뮤직	-9324
유예	-9325
▁인명	-9326
▁티켓	-9327
운이	-9328
버린다	-9329
▁캔	-9330
▁퍼포먼	-9331
래기	-9332
▁저렴한	-9333
진과	-9334
▁고집	-9335
추어	-9336
▁US	-9337
통화	-9338
▁텍	-9339
▁강의	-9340
▁방한	-9341
▁천재	-9342
세다	-9343
▁턴	-9344
▁MM	-9345
시요	-9346
▁제정	-9347
▁사면	-9348
▁내야	-9349
▁손잡고	-9350
▁세계적으로	-9351
▁폭로	-9352
▁금융감독	-9353
했어요	-9354
▁금방	-9355
▁존재하는	-9356
▁내리고	-9357
정권은	-9358
▁자한당이	-9359
▁써야	-9360
▁국내에	-9361
▁나타났	-9362
▁배당	-9363
되기도	-9364
▁가리	-9365
▁플라	-9366
▁하늘을	-9367
결제	-9368
분쯤	-9369
▁샘	-9370
디언	-9371
으려는	-9372
▁사회에	-9373
▁케이블	-9374
여름	-9375
▁암살	-9376
▁주둥	-9377
ly	-9378
형으로	-9379
▁핵을	-9380
▁탈북	-9381
사법	-9382
공화국	-9383
▁부각	-9384
▁방송을	-9385
▁역사적	-9386
▁침묵	-9387
▁더한	-9388
▁지껄	-9389
▁IMF	-9390
체로	-9391
▁몰입	-9392
▁이번이	-9393
▁키우는	-9394
▁씨의	-9395
age	-9396
ust	-9397
▁복수	-9398
▁※	-9399
비와	-9400
▁조달	-9401
옵니다	-9402
▁잃은	-9403
▁성별	-9404
▁가능하며	-9405
▁전과	-9406
▁여겨	-9407
▁곁	-9408
층이	-9409
▁입맛	-9410
▁패키지	-9411
▁자본주의	-9412
▁감독의	-9413
▁총기	-9414
▁모임	-9415
▁???	-9416
ant	-9417
이들이	-9418
▁63	-9419
▁적지	-9420
순간	-9421
▁마침	-9422
▁국무위원	-9423
▁문씨	-9424
립을	-9425
▁장점	-9426
▁타령	-9427
▁잦	-9428
▁동작	-9429
리니	-9430
▁예전에	-9431
매국	-9432
▁보내는	-9433
▁130	-9434
▁수익성	-9435
소송	-9436
▁사찰	-9437
▁델	-9438
nav	-9439
▁기념해	-9440
▁안드로이드	-9441
▁넣고	-9442
▁켜	-9443
▁내비	-9444
▁오바	-9445
▁요즘은	-9446
▁오프라인	-9447
▁록	-9448
교류	-9449
참여	-9450
▁부하	-9451
주간	-9452
▁해수	-9453
▁번호	-9454
):	-9455
으세요	-9456
시키기	-9457
겠군	-9458
▁이은	-9459
▁무단	-9460
▁극대화	-9461
▁마녀	-9462
배로	-9463
식과	-9464
▁공개한	-9465
▁그런거	-9466
▁준비를	-9467
▁한국어	-9468
▁지원하고	-9469
▁분야에	-9470
▁쓴다	-9471
▁증언	-9472
▁프로세	-9473
▁규모는	-9474
▁특성상	-9475
▁끝이	-9476
▁15%	-9477
▁불가피	-9478
▁점수는	-9479
트에	-9480
었음	-9481
해준다	-9482
▁도달	-9483
▁창조	-9484
았을	-9485
▁정유	-9486
▁추진할	-9487
▁마련된	-9488
자치단체	-9489
▁고위급	-9490
▁신년	-9491
ry	-9492
스팅	-9493
수입	-9494
▁생태계	-9495
▁쇼핑몰	-9496
▁국익	-9497
▁플랫폼을	-9498
▁혈액	-9499
▁오르고	-9500
폭력	-9501
▁LED	-9502
▁높였다	-9503
▁통일부	-9504
▁먹으면	-9505
로만	-9506
▁뷰티	-9507
▁폭락	-9508
야마	-9509
▁모습으로	-9510
▁양보	-9511
▁원내대표가	-9512
▁자발	-9513
페이스	-9514
▁시키고	-9515
▁입장에서는	-9516
▁나섰	-9517
▁명단	-9518
우주	-9519
▁국민들에게	-9520
정지	-9521
값이	-9522
▁정신나간	-9523
▁얼음	-9524
▁개장	-9525
▁여론조작	-9526
▁상관없이	-9527
▁없도록	-9528
▁여담으로	-9529
▁UN	-9530
end	-9531
▁표창	-9532
▁끝나고	-9533
방지	-9534
▁전교	-9535
▁전까지	-9536
▁아티스트	-9537
원이다	-9538
양을	-9539
▁신작	-9540
▁외국인이	-9541
화해	-9542
만대	-9543
남도	-9544
▁회수	-9545
▁로켓	-9546
▁가졌다	-9547
▁78	-9548
을까요	-9549
▁강화하고	-9550
▁확충	-9551
▁수익률	-9552
▁문화예술	-9553
한지	-9554
처분	-9555
▁수렴	-9556
▁시골	-9557
▁여자들	-9558
엑스	-9559
▁위기에	-9560
시작	-9561
▁놓은	-9562
▁증상이	-9563
해봐야	-9564
▁마구	-9565
▁것이라	-9566
▁여객	-9567
▁성공한	-9568
▁기대를	-9569
▁대북제재	-9570
▁중간에	-9571
▁와이	-9572
▁하락한	-9573
▁사회공헌	-9574
▁--	-9575
▁PB	-9576
▁시전	-9577
▁싫은	-9578
▁가격에	-9579
하죠	-9580
그라	-9581
▁이적	-9582
▁사전에	-9583
▁잘살	-9584
무라	-9585
▁깨닫	-9586
▁전담	-9587
▁학살	-9588
▁출생	-9589
▁줘야	-9590
▁아가리	-9591
▁각자	-9592
▁양도	-9593
▁일본으로	-9594
▁물타기	-9595
na	-9596
our	-9597
▁생물	-9598
일자리	-9599
▁사로	-9600
▁가질	-9601
▁CP	-9602
▁교육부	-9603
▁준공	-9604
▁인테	-9605
겠는가	-9606
▁많지	-9607
▁합쳐	-9608
▁근로자	-9609
▁이사장	-9610
▁경험이	-9611
질은	-9612
혀서	-9613
▁석방	-9614
▁승용	-9615
▁환율	-9616
주와	-9617
▁인정하고	-9618
▁레이저	-9619
▁물려	-9620
▁아픈	-9621
회관	-9622
▁유공자	-9623
▁통신사	-9624
ᄏᄏᄏᄏᄏᄏᄏ	-9625
▁제국	-9626
▁침몰	-9627
차이즈	-9628
▁끝날	-9629
▁AS	-9630
▁공작	-9631
▁다이어	-9632
▁기록을	-9633
시장이	-9634
▁독특한	-9635
당하는	-9636
▁조지	-9637
.12	-9638
▁예능	-9639
▁파일	-9640
명에게	-9641
▁실력	-9642
▁망할	-9643
▁씽크	-9644
▁위원장의	-9645
▁색깔	-9646
▁현장에	-9647
당시	-9648
▁여자는	-9649
▁아시아나	-9650
자리에	-9651
▁전망된다	-9652
인데도	-9653
상담	-9654
▁회장의	-9655
▁원인을	-9656
간첩	-9657
▁도출	-9658
▁샀	-9659
이었지만	-9660
▁전송	-9661
때가	-9662
▁장례	-9663
▁헤드	-9664
▁불확실	-9665
▁분당	-9666
오를	-9667
▁촉구했다	-9668
▁설문	-9669
▁애들은	-9670
▁켄	-9671
▁상태가	-9672
▁낙태	-9673
▁명을	-9674
▁무섭다	-9675
▁PD	-9676
▁서구	-9677
▁한겨	-9678
ᄒᄒᄒᄒ	-9679
▁부드	-9680
▁물결	-9681
소시	-9682
▁이끄는	-9683
희롱	-9684
중동	-9685
▁개인이	-9686
▁깡패	-9687
하실	-9688
▁바르	-9689
▁별도의	-9690
타민	-9691
개월간	-9692
▁비율이	-9693
▁기술로	-9694
▁190	-9695
퍼런스	-9696
장관이	-9697
▁꼰	-9698
▁CCTV	-9699
▁주면	-9700
렸고	-9701
▁일으킨	-9702
었냐	-9703
권에서	-9704
▁국가대표	-9705
▁멸망	-9706
▁노동당	-9707
▁씻	-9708
▁구경	-9709
▁속이	-9710
▁비례대표	-9711
▁거래일	-9712
수출	-9713
▁노릇	-9714
어마	-9715
▁나누고	-9716
▁말레이	-9717
▁소장	-9718
개는	-9719
▁김수	-9720
▁맑은	-9721
안의	-9722
▁욕을	-9723
▁퀴	-9724
▁선포	-9725
▁감지	-9726
▁놈들은	-9727
▁채워	-9728
마니	-9729
▁숭	-9730
▁세계의	-9731
▁선생님	-9732
져도	-9733
았다는	-9734
▁많을	-9735
디스	-9736
들과의	-9737
▁조사됐다	-9738
하자면	-9739
▁동북	-9740
▁이뤄진	-9741
▁여가	-9742
▁국가안보	-9743
bc	-9744
~~~~~	-9745
▁되도록	-9746
▁서비스가	-9747
▁당대표	-9748
▁확인하고	-9749
▁풍부한	-9750
부동산	-9751
▁차별화된	-9752
▁아메	-9753
▁입에	-9754
권과	-9755
▁국세	-9756
있으니	-9757
▁해산	-9758
▁정부를	-9759
▁아사	-9760
감에	-9761
신도	-9762
만원의	-9763
▁의지	-9764
▁모험	-9765
▁사업이	-9766
▁갇	-9767
▁연료	-9768
▁인물이	-9769
▁샤오	-9770
▁가지가	-9771
두로	-9772
▁선배	-9773
때부터	-9774
▁생각도	-9775
▁이르는	-9776
블릿	-9777
▁TF	-9778
▁‘2018	-9779
▁사장이	-9780
돌이	-9781
▁지키는	-9782
▁넘쳐	-9783
크라	-9784
소녀	-9785
새키	-9786
▁장갑	-9787
석의	-9788
▁늘어날	-9789
▁싸게	-9790
의약품	-9791
위원회를	-9792
▁몰고	-9793
나온다	-9794
질로	-9795
▁Sh	-9796
▁불륜	-9797
졌지만	-9798
▁남측	-9799
Hz	-9800
▁도서	-9801
회로	-9802
위와	-9803
▁달한다	-9804
▁나노	-9805
재는	-9806
▁콘셉	-9807
▁버닝	-9808
층에	-9809
▁받기	-9810
투기	-9811
▁교과	-9812
▁조폭	-9813
▁가공	-9814
▁은근	-9815
▁다룬	-9816
▁악의	-9817
다이	-9818
▁어디까지	-9819
▁흡연	-9820
▁이종	-9821
▁면세	-9822
▁피해자가	-9823
▁서명	-9824
▁대중교통	-9825
▁간부	-9826
▁넘어가	-9827
▁말아야	-9828
▁삼성은	-9829
▁신의	-9830
▁어디로	-9831
▁풀이된다	-9832
▁교통사고	-9833
▁식물	-9834
렸다고	-9835
▁신도시	-9836
▁과제	-9837
▁뛰어나	-9838
▁순으로	-9839
▁골목	-9840
▁시대의	-9841
오스	-9842
▁개돼지들	-9843
▁잭	-9844
▁내놓은	-9845
운동을	-9846
억원에	-9847
▁흙	-9848
▁Th	-9849
▁요금제	-9850
▁아줌마	-9851
▁갖추고	-9852
▁총리가	-9853
▁분석한	-9854
▁지목	-9855
▁점이다	-9856
per	-9857
▁대표이	-9858
▁제외하면	-9859
▁학원	-9860
98	-9861
플릭	-9862
하나요	-9863
▁블랙리스트	-9864
▁알았다	-9865
▁재판부는	-9866
▁맛이	-9867
▁시가총	-9868
▁마르	-9869
▁타이어	-9870
파는	-9871
▁푸틴	-9872
▁1999	-9873
터미널	-9874
패를	-9875
▁사건은	-9876
▁직원들이	-9877
▁사모	-9878
▁한해	-9879
아무	-9880
코스	-9881
▁위성	-9882
▁주장을	-9883
▁현상이	-9884
▁되찾	-9885
▁진지	-9886
▁사용한다	-9887
IT	-9888
든다	-9889
▁아가	-9890
갑니다	-9891
▁ww	-9892
만원에	-9893
▁고객에게	-9894
학규	-9895
▁관찰	-9896
▁조롱	-9897
▁추정된다	-9898
▁오고	-9899
▁구체적으로	-9900
▁꺾	-9901
▁출시된	-9902
▁조사하고	-9903
주자	-9904
ment	-9905
속으로	-9906
▁포트	-9907
▁만났	-9908
▁그날	-9909
▁난이	-9910
▁당기순	-9911
하는구나	-9912
권도	-9913
▁문재앙은	-9914
안정	-9915
그렇	-9916
계는	-9917
▁정신이	-9918
▁로이터	-9919
여론	-9920
면이	-9921
▁별도로	-9922
▁이통	-9923
▁이시	-9924
였으나	-9925
밀히	-9926
▁찍고	-9927
▁안됨	-9928
일랜드	-9929
리냐	-9930
복합	-9931
고생	-9932
돈을	-9933
9000	-9934
국내	-9935
하진	-9936
돈이	-9937
아니면	-9938
▁로마	-9939
▁마련됐다	-9940
그룹은	-9941
▁조회	-9942
▁고통을	-9943
▁공정한	-9944
▁아무래도	-9945
▁노란	-9946
▁62	-9947
▁코드	-9948
▁곳이다	-9949
겠니	-9950
▁소름	-9951
포기	-9952
▁보라	-9953
▁신라	-9954
하든	-9955
미아	-9956
기반	-9957
포토	-9958
▁구역	-9959
▁확대를	-9960
▁부서	-9961
▁나눔	-9962
▁그만해라	-9963
이치	-9964
▁외모	-9965
▁900	-9966
▁맛을	-9967
층의	-9968
▁안전을	-9969
▁않냐	-9970
▁옳은	-9971
▁엉망	-9972
▁김지	-9973
속에서	-9974
▁우리나라의	-9975
뿐이다	-9976
▁고객의	-9977
▁몇년	-9978
·1	-9979
▁정경	-9980
▁지는	-9981
▁기업과	-9982
광고	-9983
▁유포	-9984
▁안하면	-9985
하지마	-9986
▁맘에	-9987
▁스킨	-9988
하기를	-9989
▁0.2	-9990
▁기술은	-9991
▁올라가	-9992
▁이뤄질	-9993
▁둥	-9994
▁어쨌	-9995
조로	-9996
통제	-9997
▁인사청문	-9998
▁87	-9999
졌는데	-10000
▁하위	-10001
▁SM	-10002
쳐라	-10003
중독	-10004
▁오르는	-10005
방의	-10006
▁틀린	-10007
▁임무	-10008
▁늦게	-10009
▁배가	-10010
▁찾고	-10011
▁갈라	-10012
▁무덤	-10013
▁재현	-10014
▁불쌍한	-10015
▁반미	-10016
▁기다리고	-10017
이거	-10018
▁시킨	-10019
▁출시한	-10020
▁1500	-10021
▁서부	-10022
▁해놓고	-10023
동계올림픽	-10024
▁높고	-10025
▁소식을	-10026
▁나오는데	-10027
▁경력	-10028
▁입원	-10029
▁단백	-10030
▁전체적으로	-10031
▁롱	-10032
어떻	-10033
하시길	-10034
▁여러가지	-10035
▁개척	-10036
▁서양	-10037
▁특화	-10038
▁www	-10039
▁행사에	-10040
▁몫	-10041
▁목표를	-10042
▁72	-10043
▁수습	-10044
▁생활을	-10045
▁MOU	-10046
▁현대자동차	-10047
▁제품에	-10048
▁경상도	-10049
▁놀아	-10050
▁저소득	-10051
라시	-10052
▁감소한	-10053
▁우리나라에	-10054
▁항소	-10055
▁나이가	-10056
▁커녕	-10057
▁깃	-10058
모르	-10059
▁부자	-10060
▁하지말	-10061
▁영향이	-10062
원들	-10063
▁철저한	-10064
트와	-10065
시장은	-10066
▁랩	-10067
▁합의를	-10068
RA	-10069
홀에서	-10070
▁스카이	-10071
▁사회가	-10072
▁일주일	-10073
▁상태를	-10074
▁기념촬영을	-10075
▁청탁	-10076
▁던져	-10077
시급	-10078
▁위하여	-10079
▁밑에	-10080
▁차관	-10081
yle	-10082
▁움직임	-10083
▁호응	-10084
따위	-10085
▁국경	-10086
했어	-10087
▁인지도	-10088
▁비대	-10089
▁이었다	-10090
막을	-10091
▁일어날	-10092
파로	-10093
▁대다수	-10094
▁링	-10095
▁애매	-10096
년과	-10097
▁조리	-10098
▁웃기는	-10099
▁하나를	-10100
청사에서	-10101
▁합리적인	-10102
▁급등	-10103
▁옷을	-10104
▁만들어야	-10105
▁준비하고	-10106
하늘	-10107
▁형제	-10108
시피	-10109
▁출간	-10110
▁Mobile	-10111
쯧쯧	-10112
회관에서	-10113
54	-10114
▁교활	-10115
소와	-10116
▁상용화	-10117
석희	-10118
워드	-10119
▁내외	-10120
▁대깨문	-10121
보이는	-10122
기금	-10123
▁보니까	-10124
지검	-10125
▁않았고	-10126
▁의장	-10127
▁JT	-10128
~^^	-10129
▁육아	-10130
▁깜짝	-10131
값을	-10132
부족	-10133
▁성공했다	-10134
▁바꾼	-10135
집에서	-10136
▁복구	-10137
▁딱히	-10138
▁웃긴	-10139
51	-10140
꼴통	-10141
▁드러나	-10142
인력	-10143
ᄍᄍᄍ	-10144
할게	-10145
8000	-10146
▁매출액은	-10147
업무	-10148
▁스파	-10149
▁뚜렷	-10150
▁최상	-10151
▁메모리	-10152
▁강도	-10153
▁고교	-10154
▁이사회	-10155
▁뭔데	-10156
53	-10157
로봇	-10158
야구	-10159
▁서서히	-10160
▁드러났다	-10161
▁억지로	-10162
▁신흥	-10163
영구적으로	-10164
▁돈도	-10165
학적	-10166
▁동부	-10167
▁트럭	-10168
▁수색	-10169
▁기술과	-10170
▁게임이	-10171
▁계절	-10172
수저	-10173
함은	-10174
▁시키는	-10175
의회	-10176
▁세무	-10177
되니	-10178
▁턱	-10179
▁자격이	-10180
완전	-10181
▁필요하다고	-10182
고용	-10183
시장에	-10184
▁흐름을	-10185
▁신뢰를	-10186
▁기관이	-10187
▁듣는	-10188
▁중기	-10189
▁뱀	-10190
▁영광	-10191
졌던	-10192
▁앞장서	-10193
내지	-10194
▁3%	-10195
▁환자가	-10196
▁1980	-10197
▁모터	-10198
▁장비를	-10199
행은	-10200
▁줄일	-10201
료는	-10202
▁하도	-10203
▁CG	-10204
▁이놈	-10205
겠습니까	-10206
렸던	-10207
▁아군	-10208
▁릴	-10209
조에	-10210
▁와중에	-10211
▁창립	-10212
여러	-10213
늦게	-10214
▁즐기	-10215
▁4000	-10216
▁게임의	-10217
상한	-10218
▁움직이는	-10219
▁행정안전	-10220
법상	-10221
▁환자의	-10222
▁전국이	-10223
▁판타	-10224
▁받아들	-10225
▁문제의	-10226
▁사회의	-10227
▁정확하게	-10228
6000	-10229
▁퇴근	-10230
▁지은	-10231
▁선보이고	-10232
▁시그	-10233
▁파란	-10234
▁텐데	-10235
/32	-10236
▁폭스	-10237
▁구매할	-10238
▁성공적으로	-10239
▁돈만	-10240
스토어	-10241
▁보편	-10242
▁불을	-10243
▁미개한	-10244
사들	-10245
FA	-10246
▁어쩔수	-10247
롭고	-10248
▁하네요	-10249
▁나서서	-10250
독립	-10251
▁전자는	-10252
▁출시를	-10253
▁해외로	-10254
▁블로그	-10255
▁거냐	-10256
결국	-10257
올라	-10258
▁인건비	-10259
▁이쯤	-10260
시각	-10261
회찬	-10262
▁유가족	-10263
▁영구	-10264
센터는	-10265
▁본인은	-10266
미로	-10267
▁완벽한	-10268
살기	-10269
▁촉진	-10270
▁금강산	-10271
Ad	-10272
오프	-10273
▁시간은	-10274
▁짙	-10275
시지	-10276
▁우리를	-10277
▁전략적	-10278
▁개정은	-10279
▁먹여	-10280
그런데	-10281
▁세운	-10282
▁떨어지	-10283
영이	-10284
▁대국민	-10285
1000	-10286
▁토지	-10287
▁119	-10288
이라면서	-10289
아베	-10290
▁궁극	-10291
▁자유를	-10292
▁전월	-10293
마냥	-10294
▁비디오	-10295
듯한	-10296
하겠네	-10297
건은	-10298
전용	-10299
▁현장을	-10300
▁스코	-10301
▁노조는	-10302
있습니다	-10303
▁용의	-10304
▁원천	-10305
톨릭	-10306
였으며	-10307
▁입력	-10308
▁초딩	-10309
▁틀어	-10310
만하고	-10311
▁확률이	-10312
▁부끄러운	-10313
▁진행될	-10314
▁유로	-10315
▁#!	-10316
▁장을	-10317
정책을	-10318
▁있다가	-10319
▁냅	-10320
▁거리가	-10321
▁댓글조작	-10322
▁꽂	-10323
▁적대	-10324
표가	-10325
▁합성	-10326
▁하지마	-10327
▁대표와	-10328
구니	-10329
▁이런데	-10330
▁나빠	-10331
▁소폭	-10332
건에	-10333
기본	-10334
▁꼽힌다	-10335
▁느낌을	-10336
▁다음날	-10337
▁2001	-10338
▁높일	-10339
▁하거나	-10340
ld	-10341
▁안쓰	-10342
▁개뿔	-10343
근무	-10344
▁잇는	-10345
없으면	-10346
소방	-10347
레드	-10348
기업의	-10349
▁냉장	-10350
▁욕심	-10351
▁쌓아	-10352
▁넘치는	-10353
▁중에서도	-10354
작가	-10355
▁것이며	-10356
▁주파	-10357
선생	-10358
선과	-10359
▁제압	-10360
▁수준에	-10361
▁그렇다면	-10362
▁억제	-10363
티드	-10364
▁정책에	-10365
슬림	-10366
겁게	-10367
▁농도가	-10368
투어	-10369
▁벌이고	-10370
시브	-10371
할려고	-10372
▁지나치게	-10373
▁식사	-10374
▁돕는	-10375
▁위주로	-10376
▁김씨	-10377
ex	-10378
▁공정거래	-10379
▁당황	-10380
히지	-10381
▁난이도	-10382
종일	-10383
▁파라	-10384
▁판매를	-10385
▁안철	-10386
▁설마	-10387
보장	-10388
▁농촌	-10389
▁기본적인	-10390
.11	-10391
변호	-10392
▁자신에게	-10393
▁덕에	-10394
▁한쪽	-10395
▁그레이	-10396
언스	-10397
▁하노이	-10398
아니다	-10399
배상	-10400
▁신경쓰	-10401
▁서울에서	-10402
▁ᅮ	-10403
uby	-10404
▁역대급	-10405
▁보아	-10406
▁뻘	-10407
▁어렵게	-10408
▁디자이너	-10409
▁보냈	-10410
▁여기는	-10411
▁의약품	-10412
▁SC	-10413
▁○	-10414
닷컴	-10415
▁있긴	-10416
▁포켓몬	-10417
서비스를	-10418
시설을	-10419
사무소	-10420
▁하이브리	-10421
▁누군가	-10422
▁힘입	-10423
우리는	-10424
▁중국인	-10425
다는거	-10426
▁명시	-10427
▁노조가	-10428
▁추종	-10429
국민들	-10430
▁망해	-10431
관으로	-10432
▁하여간	-10433
▁직원이	-10434
▁판매한다	-10435
4000	-10436
▁관통	-10437
TN	-10438
카가	-10439
남자	-10440
동기	-10441
되는거	-10442
더스	-10443
▁유아	-10444
▁발령	-10445
▁펑	-10446
▁가성	-10447
▁61	-10448
▁끌어내	-10449
▁논의를	-10450
▁구속영	-10451
▁클래식	-10452
구라	-10453
었어	-10454
관계가	-10455
▁고객을	-10456
▁측이	-10457
▁거라고	-10458
▁지지율이	-10459
▁kg	-10460
점수	-10461
▁선보이는	-10462
이죠	-10463
▁동향	-10464
▁부근	-10465
▁경호	-10466
▁보낼	-10467
▁전경	-10468
▁당하는	-10469
ail	-10470
▁선제	-10471
▁2%	-10472
▁절감	-10473
▁거래되고	-10474
▁프로모션	-10475
변화	-10476
▁환경부	-10477
▁점수를	-10478
pe	-10479
▁더더	-10480
▁79	-10481
▁받아들여	-10482
▁있나요	-10483
▁86	-10484
DA	-10485
벌이	-10486
요즘	-10487
▁떨어뜨	-10488
▁다해	-10489
▁받아서	-10490
▁않아서	-10491
▁에서는	-10492
▁5·	-10493
▁않았던	-10494
',	-10495
▁보세요	-10496
▁수익을	-10497
하더라	-10498
▁내정	-10499
ction	-10500
▁진행되고	-10501
스트라	-10502
▁행위를	-10503
대교	-10504
▁상대가	-10505
!!!!!!	-10506
견을	-10507
▁앓	-10508
▁야마	-10509
천시	-10510
▁전체를	-10511
바지	-10512
▁펄	-10513
▁잘라	-10514
사람들은	-10515
▁입찰	-10516
▁예산을	-10517
▁설비	-10518
▁게재	-10519
▁오사카	-10520
▁사례를	-10521
목이	-10522
▁연내	-10523
처를	-10524
▁혁신을	-10525
▁단식	-10526
▁역사상	-10527
▁밝히고	-10528
▁부분에	-10529
방안	-10530
▁유효	-10531
만하면	-10532
▁과학기술정보통신부	-10533
수요	-10534
일베	-10535
▁점유율	-10536
▁한나라	-10537
▁성희롱	-10538
▁일하고	-10539
▁기록하고	-10540
▁평화가	-10541
▁자영업자	-10542
▁베네수엘라	-10543
▁있다며	-10544
버트	-10545
북도	-10546
▁기동	-10547
▁만나는	-10548
▁네가	-10549
거부	-10550
하다니	-10551
학회	-10552
▁세계에	-10553
스케어	-10554
만큼은	-10555
맞고	-10556
▁백두	-10557
▁시리즈의	-10558
▁하려	-10559
▁있는가	-10560
중에도	-10561
▁같네요	-10562
▁저작권	-10563
크를	-10564
▁떠들	-10565
▁잘못을	-10566
▁0.3	-10567
▁결정했다	-10568
▁입사	-10569
▁모습은	-10570
▁전술	-10571
렸는데	-10572
▁남성이	-10573
▁남탓	-10574
치다	-10575
▁욕하는	-10576
▁처벌을	-10577
개인	-10578
▁그런지	-10579
그게	-10580
▁주범	-10581
▁시공	-10582
▁남쪽	-10583
▁곱	-10584
▁왕따	-10585
▁비전	-10586
▁아이템을	-10587
ae	-10588
▁푸른	-10589
▁위탁	-10590
▁제재를	-10591
보세요	-10592
질에	-10593
▁가입자	-10594
▁98	-10595
▁설치된	-10596
▁작가는	-10597
????????	-10598
열을	-10599
학자	-10600
▁중립	-10601
분들이	-10602
▁기존에	-10603
쉽게	-10604
▁개를	-10605
나보네	-10606
▁적립	-10607
게이트	-10608
▁살게	-10609
일반	-10610
▁남양	-10611
마드	-10612
▁시티	-10613
가치	-10614
▁슬로	-10615
▁포착	-10616
▁대립	-10617
▁일본인	-10618
▁가깝	-10619
▁프린	-10620
news	-10621
▁운영한다	-10622
니어	-10623
▁어디에	-10624
▁분산	-10625
▁시정	-10626
▁그녀는	-10627
▁한거	-10628
것같다	-10629
형은	-10630
▁식약	-10631
▁유권	-10632
어버린	-10633
▁해결할	-10634
▁사격	-10635
▁우리에게	-10636
▁살다	-10637
니저	-10638
키가	-10639
▁조속	-10640
▁사용하고	-10641
New	-10642
▁짜고	-10643
▁태어	-10644
▁사건에	-10645
수지	-10646
메인에	-10647
▁장병	-10648
▁저자는	-10649
▁안한다	-10650
차산업	-10651
▁횡령	-10652
위원장은	-10653
▁무효	-10654
▁슬프	-10655
어떻게	-10656
▁단단	-10657
▁부지	-10658
▁적어	-10659
의로	-10660
-2	-10661
▁하는구나	-10662
밀리	-10663
▁떨어졌다	-10664
치며	-10665
이었습니다	-10666
▁아직까지	-10667
▁적게	-10668
▁사후	-10669
▁말레이시아	-10670
▁쌩	-10671
언제	-10672
▁그만하고	-10673
폭을	-10674
▁모은	-10675
▁이후에도	-10676
▁싶으면	-10677
리포니아	-10678
▁귀국	-10679
▁모멘	-10680
▁살아가는	-10681
원인	-10682
▁있었다고	-10683
웠던	-10684
주주	-10685
ys	-10686
▁기생충	-10687
▁플러스	-10688
▁좆	-10689
▁림	-10690
페라	-10691
▁열릴	-10692
▁화염	-10693
▁확실하게	-10694
▁상한	-10695
ark	-10696
▁비용이	-10697
겨운	-10698
십니까	-10699
▁유독	-10700
적이지	-10701
▁모델로	-10702
▁박탈	-10703
▁있는데요	-10704
▁노래를	-10705
과도	-10706
▁●	-10707
▁보이며	-10708
이유	-10709
된다면	-10710
▁97	-10711
▁광복	-10712
▁판결을	-10713
으려면	-10714
브라	-10715
▁운송	-10716
▁center	-10717
▁생생	-10718
▁페이	-10719
▁인종	-10720
▁야생	-10721
▁프랜	-10722
▁연다	-10723
이후	-10724
구속	-10725
▁국제사회	-10726
▁핸드폰	-10727
▁담고	-10728
▁피고	-10729
▁사법부	-10730
▁CBS	-10731
▁않다는	-10732
▁조장	-10733
▁날짜	-10734
▁북에	-10735
▁변명	-10736
▁예정인	-10737
▁문가	-10738
▁과도한	-10739
▁외신	-10740
7000	-10741
통은	-10742
서민	-10743
▁피아	-10744
▁교섭	-10745
▁제품의	-10746
▁정도면	-10747
중심	-10748
▁사령	-10749
▁지나면	-10750
▁있을지	-10751
▁잠정	-10752
▁높았다	-10753
니는	-10754
▁전범	-10755
▁어마어마	-10756
▁비중은	-10757
▁가능성은	-10758
▁가중	-10759
망신	-10760
▁건의	-10761
▁알고리즘	-10762
▁다행히	-10763
▁진작	-10764
차도	-10765
▁납품	-10766
해야할	-10767
군과	-10768
▁손학규	-10769
▁야간	-10770
▁소비자가	-10771
▁떳	-10772
▁걸릴	-10773
▁배포	-10774
ure	-10775
중계	-10776
▁떨어지고	-10777
▁정도다	-10778
▁관리를	-10779
친일	-10780
▁일환으로	-10781
▁지향	-10782
▁소식이	-10783
진흥원	-10784
▁반응이	-10785
▁참여했다	-10786
▁개미	-10787
▁싫어하는	-10788
티비	-10789
재로	-10790
지라	-10791
▁다음은	-10792
▁사람과	-10793
▁추진하는	-10794
▁이런게	-10795
▁없다면	-10796
걸고	-10797
▁설정하기	-10798
▁아마도	-10799
▁해외여행	-10800
▁밥그릇	-10801
96	-10802
면으로	-10803
▁지키고	-10804
못하는	-10805
▁뭐니	-10806
▁거기다	-10807
못해	-10808
▁신청을	-10809
▁없애라	-10810
기계	-10811
▁안타깝다	-10812
▁좋습니다	-10813
▁지리	-10814
▁무언	-10815
분으로	-10816
▁포토	-10817
▁아니었다	-10818
▁증가하고	-10819
▁치러	-10820
▁다음에	-10821
▁네이버메인에	-10822
태평양	-10823
▁잊지	-10824
▁팔고	-10825
▁말라고	-10826
▁양승	-10827
▁아이고	-10828
▁주장이	-10829
만명이	-10830
▁도저히	-10831
사령	-10832
▁No	-10833
▁개시	-10834
▁비공개	-10835
▁어두	-10836
줘도	-10837
▁얼굴이	-10838
터는	-10839
절을	-10840
▁LA	-10841
▁왜냐	-10842
지수는	-10843
▁팀이	-10844
▁정치적으로	-10845
▁인성	-10846
▁청와대에서	-10847
메이	-10848
▁생명을	-10849
▁희망을	-10850
베이션	-10851
▁아베가	-10852
▁본부	-10853
라이더	-10854
▁알리는	-10855
하하	-10856
▁자세히	-10857
▁미국도	-10858
▁썩어	-10859
▁후배	-10860
▁초등학생	-10861
▁초미세먼지	-10862
">	-10863
▁스위스	-10864
청소년	-10865
봅시다	-10866
▁전망이	-10867
였다는	-10868
▁것들은	-10869
▁화력	-10870
▁업계에	-10871
▁강행	-10872
▁공을	-10873
▁이수	-10874
▁안됩니다	-10875
▁넷플릭	-10876
▁김민	-10877
▁못살	-10878
세종	-10879
▁남자는	-10880
▁창피	-10881
▁삼성전자가	-10882
▁혁명	-10883
▁놀랍	-10884
게도	-10885
였으면	-10886
▁셔	-10887
▁기쁨	-10888
▁두려워	-10889
▁잣	-10890
▁선을	-10891
산의	-10892
▁아오	-10893
▁오해	-10894
▁뛰어넘	-10895
▁희귀	-10896
AdNew	-10897
▁MobileAdNew	-10898
이에요	-10899
▁EX	-10900
▁비교하면	-10901
▁위축	-10902
▁대표의	-10903
▁운영을	-10904
▁친북	-10905
유공자	-10906
유치원	-10907
▁아름다	-10908
리안	-10909
?...	-10910
▁160	-10911
▁얻는	-10912
▁이어졌다	-10913
▁단위	-10914
▁끊임없이	-10915
주얼	-10916
▁식량	-10917
교육을	-10918
하고도	-10919
▁여수	-10920
▁기각	-10921
▁대접	-10922
▁제조사	-10923
적한	-10924
▁실리	-10925
▁잇따라	-10926
비중	-10927
되길	-10928
▁힘입어	-10929
▁계엄	-10930
로스	-10931
▁술을	-10932
▁이어진	-10933
▁마음대로	-10934
▁마음으로	-10935
은행이	-10936
▁최소화	-10937
▁음료	-10938
▁사이의	-10939
▁할지	-10940
격으로	-10941
창업	-10942
▁로맨	-10943
▁볼만	-10944
▁그것은	-10945
▁소외	-10946
▁인가	-10947
EA	-10948
▁네이	-10949
77	-10950
▁윤석열	-10951
유지	-10952
▁골든	-10953
▁징징	-10954
▁핵무기	-10955
▁별다른	-10956
VE	-10957
▁제품이	-10958
▁경주	-10959
▁관계자들이	-10960
▁합작	-10961
▁딸이	-10962
▁요구했다	-10963
▁언급했다	-10964
▁눌러	-10965
▁웰	-10966
어들	-10967
▁입장이	-10968
월한	-10969
▁마이너스	-10970
▁가능할	-10971
▁임종석	-10972
▁물이	-10973
▁아스	-10974
▁놀러	-10975
었는지	-10976
▁GDP	-10977
▁선택할	-10978
▁칩	-10979
▁세금이	-10980
▁짚	-10981
▁다채	-10982
▁주간	-10983
▁반려동물	-10984
▁손으로	-10985
▁~~~	-10986
▁다하겠다	-10987
▁대통령에게	-10988
비트	-10989
▁2,	-10990
▁국회에	-10991
▁패스트트랙	-10992
ll	-10993
▁시세	-10994
▁96	-10995
▁들어온	-10996
얼굴	-10997
▁웃고	-10998
▁자는	-10999
▁담겨	-11000
▁아이스	-11001
퍼스	-11002
개념	-11003
▁기사에	-11004
▁참여를	-11005
▁버린	-11006
▁하는건	-11007
▁한경	-11008
없는데	-11009
▁하루에	-11010
▁망하게	-11011
연합회	-11012
보인다	-11013
▁중순	-11014
.(...)	-11015
▁이하의	-11016
불가	-11017
▁네덜	-11018
▁(19	-11019
▁포지션	-11020
▁신장	-11021
이래	-11022
▁법무부장관	-11023
▁대피	-11024
▁너의	-11025
▁읽고	-11026
▁순식	-11027
▁140	-11028
▁확대할	-11029
소리를	-11030
▁왜구	-11031
▁메갈	-11032
▁영남	-11033
▁증거가	-11034
▁없으며	-11035
▁배운	-11036
▁안나오	-11037
▁함유	-11038
▁특성을	-11039
▁폴더블	-11040
▁엇	-11041
남북	-11042
▁리콜	-11043
▁미성	-11044
레나	-11045
자마자	-11046
▁상속	-11047
▁썼다	-11048
▁뜻이다	-11049
ood	-11050
▁좋아서	-11051
▁구름	-11052
▁세뇌	-11053
▁엎	-11054
▁같음	-11055
▁무소	-11056
취급	-11057
▁동계올림픽	-11058
43	-11059
기전에	-11060
▁수시	-11061
▁있겠다	-11062
▁마다	-11063
드려	-11064
▁부회장	-11065
둬라	-11066
▁고사	-11067
▁발표하고	-11068
▁승리를	-11069
▁유망	-11070
▁나타난	-11071
▁소재로	-11072
항을	-11073
▁지나가는	-11074
ial	-11075
▁이대로	-11076
▁마쳤다	-11077
목으로	-11078
니들	-11079
되지만	-11080
▁판매하는	-11081
▁불만	-11082
데로	-11083
▁억지	-11084
▁궁금하다	-11085
▁안전하게	-11086
▁중학교	-11087
▁기업인	-11088
▁be	-11089
pet	-11090
잡을	-11091
루스	-11092
것다	-11093
리얼	-11094
양반	-11095
▁고등	-11096
▁중형	-11097
해결	-11098
시켜서	-11099
스럽고	-11100
▁간접	-11101
시하는	-11102
▁모멘텀	-11103
▁유리한	-11104
▁불꽃	-11105
▁연재	-11106
▁하나님	-11107
▁무산	-11108
▁출시했다	-11109
▁평가가	-11110
▁관세를	-11111
코드	-11112
▁바쁘	-11113
▁필요하다는	-11114
▁안녕	-11115
▁죽음을	-11116
▁우리나라도	-11117
▁고쳐	-11118
▁지겹다	-11119
▁앱을	-11120
▁선착	-11121
시장을	-11122
신도시	-11123
▁ᄃ	-11124
▁71	-11125
▁혈세	-11126
▁되었고	-11127
▁럭	-11128
are	-11129
▁비극	-11130
▁한계가	-11131
▁동화	-11132
▁것보다	-11133
집이	-11134
가능한	-11135
▁닌	-11136
비도	-11137
▁비중을	-11138
▁공기업	-11139
▁협약을	-11140
▁내구	-11141
▁론칭	-11142
블록	-11143
▁영동	-11144
▁오랜만에	-11145
▁이순	-11146
▁범행	-11147
▁캘리포니아	-11148
더냐	-11149
▁문정권	-11150
▁안해	-11151
▁뚝	-11152
▁자진	-11153
시장의	-11154
▁어우	-11155
▁써라	-11156
▁스프	-11157
OM	-11158
▁출국	-11159
▁뇌가	-11160
▁아버지가	-11161
▁하나씩	-11162
▁개최한다	-11163
▁타는	-11164
줄알	-11165
▁처음에는	-11166
▁나이트	-11167
▁되며	-11168
▁음악을	-11169
▁일반적으로	-11170
▁비핵화를	-11171
▁JTBC	-11172
▁목표가	-11173
▁안희정	-11174
▁마련해	-11175
▁하는것	-11176
▁집행유예	-11177
88	-11178
▁점포	-11179
▁튼	-11180
▁컵	-11181
▁바닷	-11182
▁오래된	-11183
</	-11184
▁의회	-11185
면에서	-11186
스마트	-11187
길에	-11188
이렇게	-11189
▁도는	-11190
▁험	-11191
청에서	-11192
▁서비스는	-11193
▁물에	-11194
▁기업들	-11195
▁잃고	-11196
▁부정적인	-11197
▁style	-11198
▁비록	-11199
▁경제부	-11200
봐요	-11201
▁가깝다	-11202
▁캐릭터를	-11203
▁영장	-11204
▁비타민	-11205
비서	-11206
못하고	-11207
▁소중	-11208
naver	-11209
없다고	-11210
▁김영철	-11211
▁대마	-11212
▁끓	-11213
셀러	-11214
▁사업의	-11215
▁아픔	-11216
▁영국의	-11217
▁■	-11218
받침	-11219
아내	-11220
▁건가	-11221
▁분석을	-11222
까진	-11223
▁상가	-11224
▁저딴	-11225
벤션	-11226
▁도내	-11227
▁당기순이익	-11228
▁이정도면	-11229
▁선정됐다	-11230
▁Re	-11231
▁파기	-11232
▁즐겨	-11233
협약을	-11234
타이	-11235
▁인턴	-11236
▁즈	-11237
▁투수	-11238
위원회의	-11239
▁없어도	-11240
천억	-11241
장애인	-11242
▁CNN	-11243
▁처분	-11244
▁심상	-11245
▁맞을	-11246
급여	-11247
▁사안	-11248
▁미국으로	-11249
▁기억이	-11250
▁죽어나	-11251
▁취향	-11252
▁타이밍	-11253
▁자라	-11254
▁감방	-11255
▁브렉시트	-11256
▁곳을	-11257
▁집으로	-11258
차단	-11259
▁하나다	-11260
▁작가가	-11261
하기가	-11262
▁나타나는	-11263
안되는	-11264
▁무제한	-11265
▁투자자	-11266
▁신차	-11267
맞는	-11268
▁산책	-11269
3.	-11270
▁외환	-11271
어준	-11272
(20	-11273
▁느끼고	-11274
오롱	-11275
▁쳐먹	-11276
▁적용한	-11277
▁기자입니다	-11278
▁감축	-11279
▁승진	-11280
티나	-11281
▁길게	-11282
판에서	-11283
▁지사	-11284
기까지	-11285
▁첫날	-11286
▁언급한	-11287
청년	-11288
▁않음	-11289
▁의하면	-11290
▁노회찬	-11291
▁예정입니다	-11292
공식	-11293
▁아랍	-11294
▁식민지	-11295
부부	-11296
렸을	-11297
디자인	-11298
▁삼국	-11299
▁제고	-11300
▁투어	-11301
▁아쉬운	-11302
▁이해할	-11303
▁단행	-11304
경영자	-11305
▁평창동계올림픽	-11306
▁문닫	-11307
▁과거에	-11308
▁끝나면	-11309
명이다	-11310
▁닛	-11311
동구	-11312
▁감정을	-11313
▁해고	-11314
▁카카오톡	-11315
ne	-11316
▁부른다	-11317
▁대한민국에	-11318
▁편입	-11319
차전	-11320
▁소위	-11321
▁후쿠시마	-11322
▁뻔한	-11323
투쟁	-11324
▁받으며	-11325
생활을	-11326
▁감각	-11327
▁깨달	-11328
▁고백	-11329
르다	-11330
▁놀이	-11331
▁드라이	-11332
▁회의에서	-11333
▁인생을	-11334
▁무서워	-11335
▁대하여	-11336
천여	-11337
~!!!	-11338
▁부끄럽	-11339
▁82	-11340
▁사회를	-11341
▁건강을	-11342
▁차원의	-11343
▁왼쪽부터	-11344
▁포스터	-11345
▁소용	-11346
▁이후에는	-11347
위험	-11348
▁규칙	-11349
▁가볍게	-11350
처는	-11351
▁언론은	-11352
▁협의를	-11353
조한	-11354
▁시점에서	-11355
▁06	-11356
▁항공기	-11357
▁백화점	-11358
▁살아있는	-11359
▁역겹다	-11360
▁오죽	-11361
▁누릴	-11362
▁차트	-11363
왔는데	-11364
▁누구도	-11365
▁닦	-11366
▁좋음	-11367
▁여태	-11368
등등	-11369
▁유사한	-11370
곳은	-11371
▁감안하면	-11372
스러워	-11373
왕의	-11374
▁역임	-11375
▁솔루션을	-11376
▁중국발	-11377
주교	-11378
▁잔인	-11379
▁마나	-11380
로에	-11381
▁초래	-11382
▁캄	-11383
▁좋았다	-11384
▁후에는	-11385
▁막는	-11386
▁경우에	-11387
▁박그네	-11388
OP	-11389
렉션	-11390
!)	-11391
마일	-11392
▁수고	-11393
▁히트	-11394
와대	-11395
OL	-11396
일이다	-11397
▁주민들이	-11398
▁면담	-11399
브랜드	-11400
증가	-11401
▁서울에	-11402
명도	-11403
앞으로도	-11404
하구	-11405
부담	-11406
▁입장이다	-11407
▁마냥	-11408
▁망한다	-11409
▁부딪	-11410
▁유죄	-11411
살아	-11412
▁행사에서	-11413
소설	-11414
▁상하이	-11415
▁세미나	-11416
▁재판에	-11417
▁전체의	-11418
발표	-11419
▁제이	-11420
뉴얼	-11421
▁맡았다	-11422
▁한반도의	-11423
▁몇십	-11424
▁고용노동	-11425
주의자	-11426
▁구제	-11427
▁때의	-11428
애들이	-11429
lass	-11430
▁박근혜가	-11431
▁현대차는	-11432
▁프라이	-11433
▁네이버는	-11434
으셨	-11435
her	-11436
하듯	-11437
ast	-11438
▁연대	-11439
▁배경으로	-11440
▁꼰대	-11441
▁트레	-11442
▁이상은	-11443
▁한국당이	-11444
▁떠나서	-11445
▁들여다	-11446
▁자존심	-11447
▁없어져야	-11448
▁댓글을	-11449
수술	-11450
▁모빌리티	-11451
▁은폐	-11452
▁감독은	-11453
▁겪는	-11454
▁대통령도	-11455
▁배터	-11456
▁붙잡	-11457
난민	-11458
▁거장	-11459
▁지원해	-11460
집회	-11461
▁신축	-11462
기차	-11463
▁때문입니다	-11464
걱정	-11465
▁중에는	-11466
▁LH	-11467
▁빛을	-11468
▁타카	-11469
▁심하게	-11470
▁차량이	-11471
▁몇번	-11472
▁이번에도	-11473
광주	-11474
▁달린	-11475
▁불과하다	-11476
말도	-11477
▁떨어진다	-11478
▁왈	-11479
위안	-11480
▁사랑의	-11481
▁수송	-11482
RI	-11483
▁외출	-11484
▁막대한	-11485
사회의	-11486
현이	-11487
치면서	-11488
▁버닝썬	-11489
▁내면	-11490
로워	-11491
▁무대에	-11492
▁괴물	-11493
▁만성	-11494
▁써서	-11495
▁기자님	-11496
▁상당의	-11497
▁질의	-11498
▁오오	-11499
▁국무총	-11500
▁생산하는	-11501
▁평화와	-11502
▁잡혀	-11503
▁역사의	-11504
▁허구	-11505
41	-11506
하느라	-11507
▁귀족노조	-11508
▁물건을	-11509
▁이용해서	-11510
▁신발	-11511
었으며	-11512
치와	-11513
팀을	-11514
▁다짐	-11515
원장	-11516
▁쉴드	-11517
▁경제에	-11518
▁제작한	-11519
▁숨어	-11520
▁이룬	-11521
누구	-11522
▁스키	-11523
하므로	-11524
비한	-11525
▁투자증권	-11526
▁페르	-11527
▁크기	-11528
▁위기를	-11529
▁속도로	-11530
▁하나하나	-11531
▁불교	-11532
파를	-11533
▁들어갔다	-11534
티즌	-11535
▁거리를	-11536
▁된다면	-11537
▁철저하게	-11538
▁캐릭터가	-11539
▁프랜차이즈	-11540
▁감히	-11541
▁묻는	-11542
▁저건	-11543
▁하나만	-11544
▁높이기	-11545
▁하늘이	-11546
▁추진한다	-11547
형의	-11548
▁맡아	-11549
▁하겠다는	-11550
유통	-11551
▁주둔	-11552
▁메리	-11553
▁민주평화당	-11554
덩어리	-11555
▁DMZ	-11556
▁컨텐츠	-11557
petit	-11558
면허	-11559
▁유산	-11560
▁팀을	-11561
▁분석이	-11562
▁의류	-11563
▁기준이	-11564
▁첫번째	-11565
▁과거의	-11566
▁89	-11567
▁상황은	-11568
▁스파이	-11569
답다	-11570
.,	-11571
▁머리에	-11572
시네	-11573
▁유래	-11574
▁버리는	-11575
중소	-11576
ECD	-11577
▁천벌	-11578
▁키즈	-11579
▁법조	-11580
전도	-11581
▁RO	-11582
장관은	-11583
▁청춘	-11584
▁홈런	-11585
▁질문을	-11586
▁개발하고	-11587
VP	-11588
▁도약	-11589
▁우버	-11590
▁행태	-11591
▁인간을	-11592
▁돌아온	-11593
▁출퇴근	-11594
▁공존	-11595
▁모래	-11596
▁수를	-11597
▁가벼운	-11598
▁확인했다	-11599
▁될까	-11600
▁해병	-11601
▁캠프	-11602
▁시작하는	-11603
▁재개발	-11604
환자	-11605
▁그중	-11606
▁부를	-11607
▁모티브	-11608
400	-11609
one	-11610
▁아리	-11611
하던데	-11612
씨와	-11613
▁대통	-11614
▁길거리	-11615
▁초점을	-11616
▁자신은	-11617
▁톱	-11618
▁대표를	-11619
멘트	-11620
▁빨라	-11621
▁사라진	-11622
▁열차	-11623
▁플로	-11624
에어	-11625
▁숫자	-11626
▁SP	-11627
▁점심	-11628
▁남자들	-11629
▁열리고	-11630
▁행사가	-11631
▁숨진	-11632
▁비정상	-11633
▁정신병자	-11634
DI	-11635
▁문제지	-11636
▁기조	-11637
걸까	-11638
티스	-11639
토론	-11640
▁연세대	-11641
이므로	-11642
▁약속을	-11643
편에	-11644
▁죠	-11645
▁정상화	-11646
▁룰	-11647
세한	-11648
작은	-11649
한을	-11650
▁저하	-11651
▁나라꼴	-11652
▁08	-11653
▁되돌	-11654
▁사업자	-11655
도우	-11656
▁시스템이	-11657
▁나라다	-11658
▁테이블	-11659
비행	-11660
▁화해	-11661
▁바꾸는	-11662
무가	-11663
집행	-11664
▁꼬리	-11665
▁엉뚱	-11666
▁김진태	-11667
▁평점	-11668
▁원정	-11669
▁생각하지	-11670
▁벌어진	-11671
▁우연히	-11672
▁일명	-11673
▁티비	-11674
▁국개	-11675
▁동급	-11676
▁기여할	-11677
▁홈페이지를	-11678
뒀다	-11679
▁리스트	-11680
▁꺼져	-11681
당국은	-11682
▁대비해	-11683
크가	-11684
▁조국을	-11685
▁가슴이	-11686
▁뭣	-11687
▁회사를	-11688
쪽에서	-11689
▁계승	-11690
싫다	-11691
▁하이브리드	-11692
사들은	-11693
▁조선족	-11694
▁민원	-11695
답니다	-11696
▁재단	-11697
▁화폐	-11698
겠구나	-11699
▁것인데	-11700
▁얼굴에	-11701
▁윤리	-11702
▁불가능한	-11703
▁해결을	-11704
▁즐거운	-11705
▁쓰이는	-11706
▁주가는	-11707
▁피로	-11708
심에서	-11709
미친	-11710
▁악성	-11711
졌을	-11712
▁줄이는	-11713
▁돌아오	-11714
▁힘으로	-11715
▁급격히	-11716
계속	-11717
:00	-11718
▁지도자	-11719
▁사정	-11720
▁거친	-11721
▁지킬	-11722
▁하나같이	-11723
▁핵무	-11724
글로벌	-11725
▁앞뒤	-11726
FF	-11727
대국	-11728
왔던	-11729
▁조국은	-11730
▁떠난	-11731
▁귀엽	-11732
▁YTN	-11733
▁1.0	-11734
▁인구가	-11735
42	-11736
▁LC	-11737
▁부당	-11738
▁정보가	-11739
▁치솟	-11740
▁it	-11741
▁아이콘	-11742
▁하나금융	-11743
▁급락	-11744
▁전문기업	-11745
GM	-11746
릅니다	-11747
▁무용	-11748
▁고성능	-11749
▁초반에	-11750
▁높아지고	-11751
▁저축	-11752
▁뭐지	-11753
▁적도	-11754
▁삭발	-11755
▁남는	-11756
▁빨갱이들	-11757
▁회담을	-11758
▁우려를	-11759
▁II	-11760
▁상처를	-11761
먼저	-11762
▁경기에서	-11763
net	-11764
▁검찰개혁	-11765
▁외계	-11766
▁건국	-11767
▁AM	-11768
▁쳐다	-11769
▁사이비	-11770
▁체결했다고	-11771
봤는데	-11772
▁커플	-11773
▁홍영	-11774
▁이메	-11775
▁회전	-11776
자로서	-11777
▁전체가	-11778
ra	-11779
AC	-11780
카를	-11781
▁파탄	-11782
접한	-11783
▁아세	-11784
▁아이들을	-11785
▁->	-11786
▁현직	-11787
▁우습게	-11788
▁발광	-11789
케어	-11790
▁낙하	-11791
블리	-11792
▁있겠지만	-11793
못한	-11794
act	-11795
경에	-11796
▁국정농단	-11797
스턴	-11798
키스탄	-11799
▁프레스	-11800
▁맞춘	-11801
▁거짓말을	-11802
▁확대하고	-11803
하게도	-11804
했었다	-11805
▁손실	-11806
▁비하	-11807
▁경쟁이	-11808
▁안되면	-11809
분쟁	-11810
투스	-11811
▁인간들은	-11812
바뀌	-11813
방문	-11814
▁열대	-11815
세월	-11816
▁간단한	-11817
금속	-11818
▁무난	-11819
▁소송을	-11820
~20	-11821
▁95	-11822
▁해설	-11823
▁무작	-11824
잡는	-11825
▁사물인터넷	-11826
방법	-11827
▁나가서	-11828
▁번영	-11829
강화	-11830
▁팍	-11831
시나	-11832
▁나고	-11833
이여	-11834
▁인데	-11835
름을	-11836
▁갖추	-11837
되도록	-11838
▁골라	-11839
포로	-11840
▁버그	-11841
)]	-11842
▁보이콧	-11843
ide	-11844
▁운동권	-11845
시도	-11846
▁프로듀	-11847
▁우호	-11848
~3	-11849
0000	-11850
▁지혜	-11851
▁클릭	-11852
▁웨이	-11853
▁한복	-11854
층을	-11855
▁김정숙	-11856
▁몽골	-11857
▁말이야	-11858
▁한양	-11859
구에서	-11860
▁디자인을	-11861
▁코오롱	-11862
▁오피스텔	-11863
매를	-11864
▁클로	-11865
니스트	-11866
라는게	-11867
셔널	-11868
▁남긴	-11869
▁공매도	-11870
▁들어간다	-11871
었어요	-11872
▁따져	-11873
▁한창	-11874
▁공원	-11875
억원이	-11876
▁연상	-11877
받아야	-11878
▁구조를	-11879
▁사용하면	-11880
▁ᄉᄁ	-11881
▁집착	-11882
▁납부	-11883
▁휘둘	-11884
▁조사한	-11885
▁볼턴	-11886
렌즈	-11887
▁정무	-11888
고의	-11889
▁투기꾼	-11890
▁저격	-11891
▁도와주	-11892
▁병행	-11893
▁설명했습니다	-11894
▁그들을	-11895
▁불거	-11896
▁구독	-11897
▁전쟁이	-11898
▁안사	-11899
▁박상	-11900
▁마지막에	-11901
들면	-11902
카는	-11903
▁゚	-11904
▁장군	-11905
▁춥	-11906
파이어	-11907
▁상대를	-11908
▁매출을	-11909
▁OECD	-11910
시키면	-11911
▁작품이	-11912
LS	-11913
▁수작	-11914
었으나	-11915
▁마켓	-11916
▁허락	-11917
px	-11918
▁생각할	-11919
렬한	-11920
자격	-11921
쳐먹고	-11922
▁나불	-11923
지않은	-11924
97	-11925
▁간담회	-11926
▁전에는	-11927
진한	-11928
▁역전	-11929
▁위해선	-11930
▁수시로	-11931
▁자금을	-11932
▁평택	-11933
▁최근에	-11934
▁귀찮	-11935
▁터치	-11936
▁꽤나	-11937
금액	-11938
▁동결	-11939
▁멈추	-11940
▁트래	-11941
▁국가에	-11942
산은	-11943
▁힐링	-11944
▁맙시다	-11945
▁늘어나는	-11946
▁죽어라	-11947
▁AD	-11948
▁있으므로	-11949
▁베이스	-11950
▁성사	-11951
스레	-11952
▁오빠	-11953
▁검토하고	-11954
회의에	-11955
라면서	-11956
▁모델이	-11957
재료	-11958
▁동행	-11959
▁설명을	-11960
앞에서	-11961
▁학대	-11962
▁5·18	-11963
▁유가	-11964
▁각별	-11965
▁연기가	-11966
음에	-11967
▁기분이	-11968
▁서울시는	-11969
▁그와	-11970
▁몰락	-11971
▁집값이	-11972
▁하겠지	-11973
올해	-11974
졌으면	-11975
아를	-11976
▁규탄	-11977
▁분석해	-11978
▁우리나라에서	-11979
▁장면을	-11980
지법	-11981
▁간에	-11982
가나	-11983
▁보조금	-11984
▁83	-11985
▁용기	-11986
▁라면	-11987
▁않았다고	-11988
▁새누리	-11989
인생	-11990
▁세우	-11991
담배	-11992
▁뒷받침	-11993
▁늘어나고	-11994
▁유지하는	-11995
▁기다려	-11996
▁위험을	-11997
▁러브	-11998
▁예상했다	-11999
▁줄이	-12000
령이	-12001
일인	-12002
▁긍정적	-12003
▁무엇이	-12004
발전소	-12005
▁모욕	-12006
▁가족을	-12007
▁이어지	-12008
▁73	-12009
▁와인	-12010
▁각오	-12011
초등학교	-12012
클로	-12013
수있다	-12014
▁AT	-12015
▁태평양	-12016
받게	-12017
▁가맹점	-12018
▁정통	-12019
학습	-12020
▁싶지	-12021
▁잠실	-12022
▁싸우는	-12023
사들의	-12024
▁1998	-12025
▁팀의	-12026
▁모든게	-12027
▁무척	-12028
침을	-12029
▁간신	-12030
▁탄압	-12031
더라고	-12032
▁개인적으로	-12033
▁사용하지	-12034
▁위치했다	-12035
petitions	-12036
▁준표	-12037
▁3.1	-12038
▁순식간에	-12039
▁할때	-12040
지랄	-12041
하는거지	-12042
▁비판을	-12043
▁불량	-12044
▁FTA	-12045
▁애플은	-12046
▁협력해	-12047
신한	-12048
예약	-12049
▁안고	-12050
▁이인	-12051
▁댓글이	-12052
▁배후	-12053
▁진출을	-12054
▁만들면	-12055
▁조선시대	-12056
ear	-12057
신경	-12058
▁개관	-12059
▁바쁜	-12060
▁도서관	-12061
▁되어서	-12062
모터	-12063
청사	-12064
갈등	-12065
▁책임이	-12066
▁알았는데	-12067
▁유플러스는	-12068
▁또다른	-12069
▁주머니	-12070
▁세이	-12071
▁되겠네	-12072
▁뭐하나	-12073
회복	-12074
▁삶은	-12075
▁나서고	-12076
두는	-12077
▁GP	-12078
▁0.4	-12079
▁서울과	-12080
▁선택한	-12081
▁퍼주	-12082
▁산업의	-12083
하노	-12084
▁않으며	-12085
▁구성됐다	-12086
▁ᄒᄒᄒᄒ	-12087
베르	-12088
치도	-12089
준다고	-12090
▁재앙아	-12091
▁공지	-12092
인지는	-12093
▁오늘날	-12094
▁대항	-12095
▁갈등을	-12096
▁중견	-12097
▁위치를	-12098
▁선수가	-12099
▁하여튼	-12100
▁시야	-12101
▁원유	-12102
공유	-12103
인척	-12104
▁당해	-12105
▁판매가	-12106
▁해줄	-12107
▁유럽연합	-12108
널리스트	-12109
▁꽁	-12110
▁종목의	-12111
판은	-12112
▁고가	-12113
▁작품은	-12114
▁넉	-12115
▁노력이	-12116
▁사태가	-12117
▁역사가	-12118
▁라인업	-12119
▁죽는다	-12120
▁발목	-12121
▁정치인들	-12122
겨서	-12123
▁스트리	-12124
개사	-12125
▁소규모	-12126
▁톡	-12127
합니까	-12128
▁최우수	-12129
▁가기	-12130
▁했는지	-12131
오리	-12132
정보를	-12133
▁걸리는	-12134
▁시인	-12135
▁폐업	-12136
아래	-12137
작전	-12138
▁논의가	-12139
▁실적이	-12140
▁스캔	-12141
▁손상	-12142
▁인원	-12143
프의	-12144
▁재활용	-12145
함께	-12146
▁노트북	-12147
▁대상을	-12148
▁정해	-12149
▁일부를	-12150
▁프로젝트를	-12151
▁호텔에서	-12152
▁꺼져라	-12153
▁무기를	-12154
되었으며	-12155
▁묻고	-12156
▁문재인의	-12157
▁인천공항	-12158
인아	-12159
▁던전	-12160
프라이	-12161
▁만다	-12162
▁삥	-12163
▁홈페이지에서	-12164
▁무엇인지	-12165
▁요청했다	-12166
▁지수는	-12167
크는	-12168
▁간섭	-12169
▁중대	-12170
▁기반을	-12171
▁일반인	-12172
https	-12173
폐지	-12174
인건	-12175
교를	-12176
▁정신차려라	-12177
거래소	-12178
않고	-12179
▁삼가	-12180
▁im	-12181
▁AFP	-12182
▁네티즌	-12183
▁어쩌고	-12184
표준	-12185
▁아는데	-12186
레이터	-12187
전문가	-12188
좀해라	-12189
하지말	-12190
▁밤에	-12191
▁핵실험	-12192
▁구상	-12193
▁뭐든	-12194
▁제외하고	-12195
▁에는	-12196
림이	-12197
▁국군	-12198
▁떳떳	-12199
▁녹음	-12200
▁NC	-12201
사나	-12202
pt	-12203
ORPG	-12204
방울	-12205
다지	-12206
▁장식	-12207
▁현실이	-12208
▁못해서	-12209
▁MC	-12210
▁CD	-12211
▁방통	-12212
▁도시재생	-12213
▁he	-12214
방해	-12215
▁낮춰	-12216
▁애플이	-12217
▁못하면서	-12218
견이	-12219
풍을	-12220
▁싶어서	-12221
.........	-12222
▁뽀	-12223
▁엔터테인먼트	-12224
▁가해자	-12225
▁조금이라도	-12226
▁속으로	-12227
▁검찰의	-12228
▁아저씨	-12229
▁혼자서	-12230
▁메디	-12231
▁서브	-12232
교육청	-12233
▁게임은	-12234
▁이유다	-12235
0%	-12236
▁업체가	-12237
동원	-12238
▁좋지만	-12239
▁나타내는	-12240
▁탄탄	-12241
▁일당	-12242
▁후보로	-12243
▁늑	-12244
고요	-12245
▁내장	-12246
▁삼아	-12247
취업	-12248
▁감옥에	-12249
▁사항은	-12250
어지는	-12251
▁모인	-12252
▁꽉	-12253
우의	-12254
한이	-12255
▁장하	-12256
▁예정된	-12257
▁않는다고	-12258
▁썰	-12259
란을	-12260
마루	-12261
▁강력하게	-12262
▁사쿠	-12263
▁한반	-12264
▁촌	-12265
코의	-12266
부채	-12267
▁강아지	-12268
서구	-12269
코가	-12270
▁솔로	-12271
▁심화	-12272
수원	-12273
있다는	-12274
▁공주	-12275
▁약물	-12276
▁조건을	-12277
▁아니라면	-12278
▁반등	-12279
어지고	-12280
▁DNA	-12281
이긴	-12282
▁cm	-12283
▁게이머	-12284
▁말인가	-12285
▁공영	-12286
▁차고	-12287
▁바꾸고	-12288
~?	-12289
▁램	-12290
▁지방자치단체	-12291
▁바깥	-12292
▁독재자	-12293
마저도	-12294
▁RPG	-12295
혜택	-12296
▁더듬	-12297
▁뭐하러	-12298
▁악질	-12299
감으로	-12300
▁PS	-12301
▁전했습니다	-12302
두에	-12303
▁기자야	-12304
키의	-12305
어스	-12306
▁다닌	-12307
▁발간	-12308
▁제품으로	-12309
▁추구하는	-12310
▁상실	-12311
▁←	-12312
▁아침에	-12313
엄마	-12314
♡♡	-12315
토가	-12316
▁박물관	-12317
▁동구	-12318
국과	-12319
▁만나서	-12320
▁페미니즘	-12321
▁손혜원	-12322
▁방문객	-12323
▁쥬	-12324
현장	-12325
방안을	-12326
무능	-12327
▁강성	-12328
▁장관과	-12329
▁타격을	-12330
진영	-12331
▁지음	-12332
린다고	-12333
▁강경화	-12334
▁말아먹	-12335
▁죽창	-12336
▁문재인을	-12337
즈니	-12338
▁시연	-12339
징용	-12340
▁유연	-12341
▁치우	-12342
▁판단했다	-12343
▁선동질	-12344
▁이래도	-12345
의식	-12346
▁이어가고	-12347
▁물론이고	-12348
▁일자리가	-12349
또한	-12350
네트워크	-12351
지오	-12352
▁당국은	-12353
▁최소한의	-12354
▁20180	-12355
▁의지가	-12356
▁현역	-12357
우리가	-12358
▁강화해	-12359
▁Tr	-12360
▁세계적	-12361
▁휘발	-12362
▁모르나	-12363
▁개최했다	-12364
▁사흘	-12365
▁모듈	-12366
▁모범	-12367
▁넘들	-12368
▁연루	-12369
▁배정	-12370
▁순환	-12371
▁황제	-12372
:1	-12373
▁유관	-12374
▁떠들어	-12375
▁재밌게	-12376
.'	-12377
팔아	-12378
▁시발	-12379
석에	-12380
▁타워	-12381
▁앞바다	-12382
▁다음과	-12383
▁누진	-12384
▁실용	-12385
국회의	-12386
▁판단을	-12387
벚꽃	-12388
▁신도	-12389
▁MMORPG	-12390
겟다	-12391
▁갈등이	-12392
▁빼돌	-12393
▁어서	-12394
론이	-12395
시위	-12396
융합	-12397
▁진압	-12398
ock	-12399
사업자	-12400
▁나중	-12401
ove	-12402
▁반납	-12403
▁일치	-12404
86	-12405
▁많습니다	-12406
이닝	-12407
▁보컬	-12408
십시요	-12409
▁어쩌면	-12410
경찰청	-12411
산업의	-12412
르의	-12413
▁책은	-12414
▁내년에	-12415
▁땅을	-12416
▁측의	-12417
▁기술의	-12418
▁복잡한	-12419
숙한	-12420
통에	-12421
당해	-12422
혼자	-12423
▁어려움	-12424
▁좋겠네요	-12425
▁보행	-12426
워치	-12427
▁부착	-12428
▁갑작	-12429
▁Ar	-12430
▁실태	-12431
▁등재	-12432
▁부장판	-12433
최저	-12434
▁한겨레	-12435
되거나	-12436
▁치열한	-12437
ident	-12438
▁누구를	-12439
테일	-12440
▁얼어	-12441
▁걷어	-12442
▁통영	-12443
▁대상은	-12444
포스	-12445
▁조센	-12446
▁유지할	-12447
법원	-12448
지진	-12449
로직	-12450
▁재해	-12451
▁북한으로	-12452
▁확신	-12453
▁수익률은	-12454
▁근대	-12455
▁전락	-12456
▁발병	-12457
권으로	-12458
▁씁	-12459
천히	-12460
▁드림	-12461
▁방식이	-12462
▁주인공이	-12463
ice	-12464
▁친박	-12465
▁원가	-12466
민은	-12467
▁신념	-12468
▁일어나는	-12469
방어	-12470
▁장수	-12471
▁언제부터	-12472
거네	-12473
▁다주택	-12474
▁요구를	-12475
▁기업들의	-12476
▁알뜰	-12477
목적	-12478
▁문재인과	-12479
▁신혼	-12480
▁피의자	-12481
▁악용	-12482
▁ᄏᄏᄏᄏᄏᄏᄏᄏᄏ	-12483
이었으나	-12484
에이	-12485
▁07	-12486
▁일삼	-12487
▁검사를	-12488
▁시중	-12489
로나	-12490
▁시켰	-12491
▁만들지	-12492
인이다	-12493
▁장제	-12494
▁예상되는	-12495
시죠	-12496
보조	-12497
▁욕먹	-12498
▁애를	-12499
▁체결했다	-12500
하겠지만	-12501
만명을	-12502
TT	-12503
▁정부서울	-12504
▁북으로	-12505
▁한국지	-12506
내에	-12507
▁말았다	-12508
문은	-12509
발정	-12510
▁혀	-12511
▁지키기	-12512
▁나가겠다	-12513
▁해외에서	-12514
국제공항	-12515
▁믿어	-12516
모비스	-12517
▁대성	-12518
▁앉아서	-12519
▁치유	-12520
▁클리	-12521
▁세습	-12522
내내	-12523
네는	-12524
미애	-12525
▁ᅢ	-12526
▁불참	-12527
았나	-12528
▁안하냐	-12529
▁든든	-12530
▁정부도	-12531
▁바뀌었다	-12532
~~~~~~~~	-12533
▁아파	-12534
러니	-12535
▁염병	-12536
▁지소	-12537
계획을	-12538
▁클래스	-12539
▁아바	-12540
▁담았다	-12541
정권의	-12542
▁까다	-12543
음식	-12544
▁전시회	-12545
라디	-12546
이동	-12547
▁총선에서	-12548
레일	-12549
▁이집	-12550
▁쉽다	-12551
것으로	-12552
▁맺고	-12553
▁VS	-12554
▁가까워	-12555
여명의	-12556
▁이로써	-12557
▁막상	-12558
▁택시기사	-12559
▁주연	-12560
▁선착순	-12561
▁PER	-12562
▁진짜로	-12563
▁저평가	-12564
lor	-12565
값은	-12566
두면	-12567
만원이	-12568
▁시켜라	-12569
▁녹색	-12570
▁뒤늦게	-12571
▁보소	-12572
▁토요일	-12573
▁그러고	-12574
▁샌드	-12575
▁연일	-12576
▁그릇	-12577
넣고	-12578
크의	-12579
▁kt	-12580
▁문재인대통령	-12581
▁뱃	-12582
▁주목을	-12583
▁모두발	-12584
▁한게	-12585
리우	-12586
청구	-12587
▁쓰기	-12588
▁책정	-12589
▁더더욱	-12590
▁설레	-12591
부도	-12592
▁투자가	-12593
▁현실은	-12594
▁국가와	-12595
▁화장실	-12596
▁350	-12597
▁추정되는	-12598
축구	-12599
▁하기도	-12600
류의	-12601
▁설명하고	-12602
지주	-12603
▁벗어	-12604
▁철학	-12605
푸드	-12606
▁측에	-12607
▁인식이	-12608
바겐	-12609
듭니다	-12610
▁민폐	-12611
▁최다	-12612
▁이끌고	-12613
▁Pro	-12614
▁충격을	-12615
▁있었으나	-12616
qu	-12617
수밖에	-12618
본부는	-12619
▁계열사	-12620
▁모르겠지만	-12621
막이	-12622
롭다	-12623
내라	-12624
는구나	-12625
커스	-12626
▁실시한다	-12627
▁발을	-12628
▁그들	-12629
▁읍	-12630
▁국민청원	-12631
바이트	-12632
▁있구나	-12633
▁Bl	-12634
▁과장	-12635
▁감수	-12636
인구	-12637
플랫폼	-12638
사업에	-12639
▁점프	-12640
▁왠지	-12641
사항을	-12642
메디	-12643
새기	-12644
▁나만	-12645
이니까	-12646
도어	-12647
▁잼	-12648
▁GT	-12649
▁이색	-12650
국회	-12651
▁09	-12652
▁보수가	-12653
▁공기가	-12654
당할	-12655
▁부디	-12656
▁얘기가	-12657
▁게임에	-12658
▁기간에	-12659
▁로그	-12660
▁찾아가	-12661
▁의학	-12662
▁PBR	-12663
▁포괄	-12664
내에서	-12665
▁푹	-12666
▁데미지	-12667
▁사과를	-12668
보여	-12669
▁났다	-12670
▁못된	-12671
▁아나운	-12672
만으로도	-12673
▁심사를	-12674
가입	-12675
▁적의	-12676
▁이산가족	-12677
▁행정부	-12678
▁제임	-12679
도도	-12680
기인	-12681
▁없네요	-12682
▁정당한	-12683
▁협상이	-12684
스킬	-12685
▁알리고	-12686
ms	-12687
▁가지가지	-12688
?..	-12689
▁위생	-12690
곳의	-12691
▁한은	-12692
▁첩	-12693
▁불행	-12694
▁스포	-12695
▁업무협약	-12696
▁미성년	-12697
▁좁은	-12698
▁일방적으로	-12699
▁커넥	-12700
없지	-12701
▁예의	-12702
▁민중	-12703
드라마	-12704
▁조율	-12705
▁재직	-12706
▁아시안	-12707
▁신생	-12708
▁앞으로는	-12709
▁친구가	-12710
계열	-12711
팩트	-12712
▁지난주	-12713
▁문체	-12714
▁들어가서	-12715
▁차지하고	-12716
▁출장	-12717
▁다문화	-12718
▁정상이	-12719
최근	-12720
▁해요	-12721
▁피해는	-12722
▁공평	-12723
▁애기	-12724
없어서	-12725
▁실시한	-12726
▁스마트폰을	-12727
재난	-12728
SI	-12729
▁조치가	-12730
▁실화	-12731
▁연기를	-12732
트릭	-12733
▁무슬림	-12734
▁ᄋᄋ	-12735
축산	-12736
▁360	-12737
공감	-12738
▁불가능하다	-12739
중대	-12740
보상	-12741
▁밴드	-12742
▁냄새가	-12743
▁사회에서	-12744
▁생긴다	-12745
▁찍소리	-12746
LL	-12747
솔린	-12748
eat	-12749
76	-12750
▁서울은	-12751
▁거래가	-12752
▁수사에	-12753
▁ID	-12754
▁찌질	-12755
▁바라보는	-12756
▁판매량	-12757
▁일요일	-12758
▁미래의	-12759
ge	-12760
▁하청	-12761
지않고	-12762
▁나서는	-12763
설명	-12764
페미	-12765
하는가	-12766
▁이뤄졌다	-12767
▁태블릿	-12768
▁스릴	-12769
절대	-12770
▁꼼꼼	-12771
▁신기술	-12772
▁역사에	-12773
▁대한민국에서	-12774
▁부러	-12775
▁과정에	-12776
공사는	-12777
▁에이스	-12778
▁범죄를	-12779
진단	-12780
▁갖는	-12781
차원	-12782
▁마이클	-12783
▁보이는데	-12784
로서의	-12785
▁입시	-12786
▁너희들	-12787
▁살면서	-12788
▁늘리고	-12789
▁4.	-12790
▁중공	-12791
▁주식을	-12792
▁고객들이	-12793
▁서술	-12794
▁올리면	-12795
▁목을	-12796
▁부합	-12797
금의	-12798
▁기자들과	-12799
노스	-12800
▁소울	-12801
▁곳곳에서	-12802
▁행운	-12803
▁펼치고	-12804
코는	-12805
겠지요	-12806
▁개같은	-12807
▁레전	-12808
얼마나	-12809
▁소개하고	-12810
▁우유	-12811
▁초월	-12812
▁1.2	-12813
▁방송에서	-12814
▁일회	-12815
▁아닌듯	-12816
▁시설을	-12817
▁비닐	-12818
▁부작용	-12819
▁데미지를	-12820
법과	-12821
▁승부	-12822
▁바뀔	-12823
▁땅에	-12824
위원회에서	-12825
▁피곤	-12826
▁안먹	-12827
년으로	-12828
▁고장	-12829
▁조상	-12830
▁UAE	-12831
▁있었다는	-12832
▁주유	-12833
▁효과는	-12834
동은	-12835
▁여론이	-12836
▁남이	-12837
토를	-12838
fo	-12839
린지	-12840
작품	-12841
▁훈련을	-12842
▁발전에	-12843
▁질질	-12844
▁좌익	-12845
▁슬슬	-12846
보면서	-12847
▁한동안	-12848
미야	-12849
▁기아차	-12850
▁국회의원이	-12851
▁ch	-12852
▁개발해	-12853
▁쓸데없는	-12854
▁인테리어	-12855
▁고시	-12856
▁잔뜩	-12857
려도	-12858
▁성명	-12859
▁유학	-12860
▁보석	-12861
째로	-12862
▁내보	-12863
▁주둥이	-12864
백을	-12865
버는	-12866
▁외국인은	-12867
왕이	-12868
타의	-12869
▁근거로	-12870
▁도모	-12871
▁밝은	-12872
▁문죄앙	-12873
은행의	-12874
▁다루는	-12875
▁.....	-12876
간히	-12877
▁어쨌든	-12878
▁주먹	-12879
▁국민과	-12880
▁4·	-12881
예방	-12882
▁변화에	-12883
▁악플	-12884
▁이언	-12885
▁침체	-12886
▁적화통일	-12887
효율	-12888
▁DJ	-12889
▁권리를	-12890
▁만찬	-12891
당신	-12892
▁낚시	-12893
▁납득	-12894
일으	-12895
▁증시	-12896
▁남조선	-12897
▁1997	-12898
▁다이아	-12899
▁농림	-12900
역은	-12901
▁성분	-12902
▁할줄	-12903
▁하던데	-12904
됨에	-12905
▁자랑하는	-12906
약한	-12907
에스	-12908
▁전동	-12909
▁전장	-12910
▁에게	-12911
▁유대	-12912
▁홈쇼핑	-12913
적의	-12914
▁한전	-12915
디지	-12916
▁밀양	-12917
▁속초	-12918
▁참가한	-12919
충전	-12920
적도	-12921
▁몹	-12922
강간	-12923
▁휘두	-12924
▁나라도	-12925
▁성우는	-12926
▁얻었다	-12927
▁전화를	-12928
경우	-12929
나라도	-12930
▁서대문	-12931
▁득표	-12932
▁의미로	-12933
▁박성	-12934
지역에	-12935
▁OS	-12936
카의	-12937
장면	-12938
▁어케	-12939
▁코스프레	-12940
▁분들은	-12941
▁스타벅	-12942
부들	-12943
▁공범	-12944
▁눈물을	-12945
▁갖게	-12946
▁경찰의	-12947
ᄉᄁ	-12948
해달라고	-12949
▁임대료	-12950
▁추산	-12951
▁그림을	-12952
▁크레	-12953
▁천천히	-12954
▁출신의	-12955
▁밖에서	-12956
▁남북관계	-12957
▁분석이다	-12958
▁제공된다	-12959
▁KTX	-12960
복무	-12961
겠음	-12962
진에	-12963
▁성장할	-12964
▁아니며	-12965
▁생일	-12966
▁안타까운	-12967
속이	-12968
▁과정이	-12969
▁쿠폰	-12970
▁김동연	-12971
▁역시나	-12972
종교	-12973
▁인상을	-12974
▁전국의	-12975
▁한국도	-12976
▁현대모비스	-12977
스트로	-12978
▁패치	-12979
▁원인은	-12980
▁보물	-12981
혈압	-12982
▁민간인	-12983
있어서	-12984
플루	-12985
▁부천	-12986
▁지금이	-12987
ire	-12988
▁선택을	-12989
측은	-12990
▁전인	-12991
▁이완	-12992
▁욱	-12993
놔라	-12994
▁검출	-12995
▁삶이	-12996
▁자이	-12997
몰이	-12998
▁그녀를	-12999
▁둔화	-13000
▁폭격	-13001
지들	-13002
▁단편	-13003
▁지네	-13004
▁중화	-13005
▁어딘	-13006
▁지금이라도	-13007
▁반영해	-13008
▁크로스	-13009
대신	-13010
ud	-13011
▁내놓고	-13012
▁홍영표	-13013
▁리니지	-13014
▁이쁘	-13015
▁‘2019	-13016
거짓	-13017
▁안할	-13018
설이	-13019
▁개조	-13020
국민을	-13021
잔아	-13022
▁나뉘	-13023
▁파주	-13024
▁고스란히	-13025
▁세계가	-13026
더군요	-13027
▁돌아다니	-13028
▁들어가면	-13029
▁안양	-13030
에서부터	-13031
방은	-13032
사장	-13033
중학교	-13034
▁읽는	-13035
▁재미를	-13036
ace	-13037
▁안되지	-13038
▁매니저	-13039
사상	-13040
▁아깝	-13041
차고	-13042
▁이례	-13043
▁그렇지만	-13044
전선	-13045
▁바꿨	-13046
▁잘해	-13047
▁성공을	-13048
일세	-13049
▁조중동	-13050
▁잇따	-13051
인천	-13052
▁적합한	-13053
▁아닙니까	-13054
▁알렉	-13055
언이	-13056
▁다음으로	-13057
환이	-13058
▁규모를	-13059
▁보상을	-13060
▁지역경제	-13061
▁겐	-13062
▁보육	-13063
▁체중	-13064
노예	-13065
▁처먹	-13066
yout	-13067
▁후보자는	-13068
▁거죠	-13069
▁전당	-13070
거품	-13071
▁고전	-13072
▁그런가	-13073
▁고수	-13074
▁물러나	-13075
▁이르면	-13076
▁내게	-13077
▁부정적	-13078
▁정치에	-13079
버릴	-13080
베스트	-13081
▁견인	-13082
민을	-13083
▁오만	-13084
▁쇄	-13085
▁태풍이	-13086
▁가족과	-13087
▁캐스터	-13088
▁지나가	-13089
▁증정한다	-13090
▁탄력	-13091
▁자리가	-13092
▁지원이	-13093
▁이병	-13094
▁측근	-13095
▁과태	-13096
▁온통	-13097
66	-13098
관절	-13099
▁이어진다	-13100
버려라	-13101
▁안좋은	-13102
폭행	-13103
리는게	-13104
▁진행해	-13105
▁축적	-13106
종으로	-13107
▁기자회견에서	-13108
▁댄스	-13109
제작	-13110
▁어딜	-13111
꾸로	-13112
납니다	-13113
▁의미한다	-13114
4.	-13115
라기	-13116
▁인사말을	-13117
▁가톨릭	-13118
▁패스	-13119
▁두드러	-13120
▁사건으로	-13121
▁중소벤처기업	-13122
보스	-13123
▁했지	-13124
▁병원에	-13125
▁적용된	-13126
▁얽	-13127
▁슬픔	-13128
루미	-13129
▁최저시급	-13130
▁준수	-13131
ng	-13132
▁ᄌᄂ	-13133
................	-13134
다란	-13135
▁세상에서	-13136
빌딩	-13137
취를	-13138
▁부회장은	-13139
대학원	-13140
▁사무실	-13141
내면	-13142
▁시체	-13143
▁얹	-13144
esident	-13145
저가	-13146
▁당할	-13147
▁170	-13148
▁언젠가	-13149
▁엄마가	-13150
▁사실이다	-13151
▁가솔린	-13152
구와	-13153
▁상륙	-13154
▁DS	-13155
겨울	-13156
▁with	-13157
▁피를	-13158
▁최대의	-13159
▁불편한	-13160
되던	-13161
▁게이트	-13162
▁전역	-13163
놈들아	-13164
▁레이더	-13165
▁프라	-13166
▁깜빵	-13167
▁되게	-13168
▁막장	-13169
▁망신	-13170
▁지역사회	-13171
▁계급	-13172
▁이태	-13173
방식	-13174
▁마감했다	-13175
800	-13176
줘야지	-13177
▁과일	-13178
▁플래그	-13179
▁국토교통부	-13180
▁반전	-13181
▁전반에	-13182
나온	-13183
▁매월	-13184
▁갤러리	-13185
▁이것을	-13186
▁의사가	-13187
▁삼성증권	-13188
▁박지원	-13189
▁줄줄이	-13190
▁드물	-13191
한테도	-13192
▁어플	-13193
너희	-13194
▁바둑	-13195
▁인적	-13196
▁대응을	-13197
▁외치는	-13198
▁기간을	-13199
▁기무사	-13200
▁그쳤다	-13201
▁제출한	-13202
▁홍어	-13203
▁쉽고	-13204
HE	-13205
▁차이를	-13206
▁네덜란드	-13207
▁담당하는	-13208
HO	-13209
▁경쟁을	-13210
▁복용	-13211
▁3·1	-13212
▁안동	-13213
▁정의로운	-13214
▁안된	-13215
▁필요할	-13216
곡을	-13217
치한	-13218
▁들어와	-13219
▁만나고	-13220
▁시작할	-13221
▁장중	-13222
▁그러냐	-13223
▁똑같다	-13224
▁북한에서	-13225
▁이해를	-13226
▁보도에	-13227
-3	-13228
▁모르게	-13229
없애	-13230
보게	-13231
▁지수	-13232
크라이나	-13233
▁소방관	-13234
ize	-13235
▁추운	-13236
▁아르헨	-13237
▁확률로	-13238
▁위법	-13239
▁관련이	-13240
▁ES	-13241
▁한미동맹	-13242
▁오세	-13243
제조	-13244
LC	-13245
포스트	-13246
층은	-13247
▁동영	-13248
▁장자연	-13249
▁많다는	-13250
▁논란을	-13251
▁공기청정기	-13252
거를	-13253
▁구축을	-13254
이젠	-13255
▁여성을	-13256
▁아이들의	-13257
▁직접적인	-13258
▁김연	-13259
호한	-13260
▁미루	-13261
▁불쌍하다	-13262
▁어설	-13263
▁문제도	-13264
하는거냐	-13265
87	-13266
▁일기	-13267
자료를	-13268
권력	-13269
▁신앙	-13270
▁가격으로	-13271
▁기간이	-13272
▁안전성	-13273
▁만들어라	-13274
사냥	-13275
집은	-13276
쾌한	-13277
▁있었습니다	-13278
▁입점	-13279
계에서	-13280
미한	-13281
▁가득한	-13282
모양	-13283
월말	-13284
▁태도를	-13285
더러	-13286
처가	-13287
▁연준	-13288
▁아부	-13289
▁영원한	-13290
▁진행한다고	-13291
▁수치다	-13292
곳으로	-13293
▁이런걸	-13294
▁this	-13295
▁PM	-13296
2.	-13297
싸고	-13298
해주면	-13299
▁더럽게	-13300
▁못차	-13301
▁카톡	-13302
▁관해	-13303
▁지역구	-13304
▁벌인	-13305
▁않았습니다	-13306
▁학교에서	-13307
▁계획이	-13308
물과	-13309
▁회사에	-13310
(1	-13311
▁참모	-13312
▁같네	-13313
,,,,,	-13314
▁튜	-13315
▁너나	-13316
!!!!!!!!!!!!!!!!	-13317
▁제공해	-13318
석탄	-13319
만해도	-13320
할인	-13321
▁법으로	-13322
▁6000	-13323
▁다운로드	-13324
산에	-13325
▁여행객	-13326
지연	-13327
▁나갔	-13328
▁오너	-13329
▁중장기	-13330
▁것이었다	-13331
죽을	-13332
▁곳도	-13333
니들이	-13334
인정	-13335
▁3.5	-13336
▁모양새	-13337
▁벙	-13338
▁마누라	-13339
드니	-13340
▁실제로는	-13341
▁장벽	-13342
▁통증	-13343
카르	-13344
ns	-13345
▁자칭	-13346
▁케어	-13347
▁비만	-13348
▁시민들의	-13349
▁경제의	-13350
▁인형	-13351
▁상승세를	-13352
쳐도	-13353
▁먹거리	-13354
▁다채로운	-13355
▁거세	-13356
▁보이스	-13357
눈에	-13358
▁노르	-13359
해보자	-13360
▁손쉽게	-13361
하겠냐	-13362
▁새겨	-13363
▁르노삼성	-13364
▁노하우를	-13365
ick	-13366
▁재고	-13367
▁크리에	-13368
커피	-13369
▁선행	-13370
▁킨	-13371
▁싸울	-13372
▁추후	-13373
▁시민이	-13374
▁함정	-13375
▁목표주	-13376
▁예상됩니다	-13377
▁빌딩	-13378
▁사용되는	-13379
▁김여	-13380
초에	-13381
▁ET	-13382
▁브레이크	-13383
들에게도	-13384
▁사라질	-13385
▁여동생	-13386
▁저가	-13387
▁캐스팅	-13388
천군	-13389
▁스티븐	-13390
▁국회가	-13391
▁직원들	-13392
▁최적의	-13393
▁날뛰	-13394
▁1.6	-13395
▁주류	-13396
▁경향이	-13397
첨단	-13398
▁어드	-13399
국민들이	-13400
▁북쪽	-13401
▁환경에	-13402
▁쫒	-13403
▁관심도	-13404
▁하려면	-13405
드린다	-13406
팀의	-13407
▁딜러	-13408
▁정권에	-13409
▁보네	-13410
도서관	-13411
▁방식이다	-13412
▁영업이익이	-13413
▁양극	-13414
▁추출	-13415
▁못했던	-13416
▁니들도	-13417
▁다닐	-13418
▁외식	-13419
본부장	-13420
치네	-13421
▁발암	-13422
▁내놨다	-13423
▁일베충	-13424
내며	-13425
유출	-13426
▁흑자	-13427
▁차이나	-13428
질러	-13429
▁예정이라고	-13430
국장	-13431
▁죽어도	-13432
▁증거를	-13433
전력	-13434
학원	-13435
▁먼저다	-13436
▁하필	-13437
▁근본적인	-13438
▁학생들의	-13439
▁생기면	-13440
개정	-13441
▁신조	-13442
▁신인	-13443
▁적용할	-13444
▁대표적	-13445
▁매크로	-13446
▁대치	-13447
▁자유한국당은	-13448
▁뒈	-13449
써라	-13450
▁상시	-13451
물론	-13452
▁쫓아	-13453
▁발견된	-13454
▁or	-13455
▁지고	-13456
▁조례	-13457
것이고	-13458
▁힘들고	-13459
▁파악하고	-13460
▁그에게	-13461
지키	-13462
▁달콤	-13463
▁레스토	-13464
간이	-13465
▁기증	-13466
▁잡아서	-13467
▁성명을	-13468
▁정책은	-13469
직자	-13470
▁신상	-13471
▁관점에서	-13472
▁변태	-13473
▁자매	-13474
▁바이러스	-13475
▁이런건	-13476
▁얇	-13477
▁행동이	-13478
▁분양가	-13479
▁나대	-13480
텔레콤	-13481
▁사는게	-13482
▁하려는	-13483
국방	-13484
▁블록체	-13485
▁되니	-13486
▁한걸	-13487
었으니	-13488
히면	-13489
쳐야	-13490
낭비	-13491
링을	-13492
우와	-13493
▁가족의	-13494
거리고	-13495
그러니	-13496
메가	-13497
▁믿지	-13498
▁없었고	-13499
▁방송통신	-13500
전히	-13501
▁체력이	-13502
▁아일랜드	-13503
▁공장을	-13504
▁청와대에	-13505
▁강수	-13506
▁저주	-13507
▁확보한	-13508
▁양념	-13509
▁미세먼지는	-13510
▁지역이	-13511
▁에코	-13512
당으로	-13513
ss	-13514
▁인증을	-13515
▁대공	-13516
바꾸	-13517
▁브랜드를	-13518
▁같고	-13519
▁느낀다	-13520
▁이런식으로	-13521
▁핀테크	-13522
밀하게	-13523
▁완공	-13524
▁조사에	-13525
▁눈물이	-13526
사퇴	-13527
추가	-13528
▁참나	-13529
port	-13530
▁되자	-13531
▁이밖에	-13532
▁현안	-13533
선다	-13534
어주	-13535
마케팅	-13536
동강	-13537
▁중복	-13538
▁인용해	-13539
▁사람으로	-13540
▁너거	-13541
▁대책이	-13542
▁1/	-13543
▁1995	-13544
▁안정적으로	-13545
▁강화할	-13546
▁맞는말	-13547
▁지뢰	-13548
▁부산시	-13549
▁불만을	-13550
▁전신	-13551
브로	-13552
어떤	-13553
!?	-13554
였음	-13555
▁간절	-13556
변을	-13557
▁부탁드립니다	-13558
년보다	-13559
▁지들끼리	-13560
들이네	-13561
문서	-13562
▁펼쳐진다	-13563
▁손해배상	-13564
들보다	-13565
▁1994	-13566
▁아우디	-13567
도미사일	-13568
▁보여주기	-13569
▁사회복지	-13570
▁엔씨	-13571
▁크지	-13572
▁성능이	-13573
▁수장	-13574
▁원료	-13575
대해	-13576
▁살면	-13577
▁시속	-13578
▁사운드	-13579
위반	-13580
▁일본어	-13581
대장	-13582
▁최고경영자	-13583
오가	-13584
▁장마	-13585
▁하루빨리	-13586
EB	-13587
미와	-13588
이야기	-13589
▁양승태	-13590
▁공식적으로	-13591
사키	-13592
▁피아노	-13593
클래	-13594
bo	-13595
▁포용	-13596
ᄋᄋ	-13597
▁강화하는	-13598
HD	-13599
▁어우러	-13600
ame	-13601
▁다녔	-13602
▁무기징	-13603
▁경제성장	-13604
질랜드	-13605
▁취하고	-13606
▁않겠다	-13607
▁빽	-13608
▁체류	-13609
▁걸러	-13610
▁예쁘	-13611
▁보유세	-13612
▁주목된다	-13613
▁수혜	-13614
▁방식의	-13615
▁전국적으로	-13616
▁자신과	-13617
▁오류	-13618
인게	-13619
▁일으켜	-13620
배는	-13621
▁판타지	-13622
▁잡기	-13623
▁학교에	-13624
▁싹다	-13625
인트를	-13626
▁(200	-13627
▁한류	-13628
▁카르	-13629
▁우크라이나	-13630
▁남편이	-13631
▁실효	-13632
▁탕	-13633
▁매물	-13634
호에	-13635
기관이	-13636
▁나타날	-13637
▁본격화	-13638
겠구만	-13639
▁인터뷰를	-13640
스피	-13641
▁수단	-13642
▁이러다	-13643
▁부가	-13644
▁엔지니	-13645
▁개돼지로	-13646
▁Com	-13647
95	-13648
리던	-13649
▁해주고	-13650
▁업무협약을	-13651
급으로	-13652
▁되지만	-13653
▁어렵다는	-13654
▁경남도	-13655
▁장관의	-13656
ee	-13657
▁주변의	-13658
스틱	-13659
▁KO	-13660
▁여자들이	-13661
▁94	-13662
▁일행	-13663
▁진주	-13664
가에서	-13665
▁건강에	-13666
▁간담회를	-13667
로써	-13668
▁착공	-13669
▁첫째	-13670
들이랑	-13671
십을	-13672
노인	-13673
발의	-13674
▁그딴	-13675
▁물품	-13676
▁일어났	-13677
ies	-13678
덩이	-13679
▁말장난	-13680
토의	-13681
▁불필요	-13682
▁않았다는	-13683
어질	-13684
병으로	-13685
▁기회에	-13686
▁인격	-13687
▁이른다	-13688
▁넘은	-13689
지리	-13690
▁세금은	-13691
▁수술을	-13692
꺼야	-13693
▁절망	-13694
▁베를	-13695
▁지낸	-13696
강도	-13697
▁가져다	-13698
▁쯧쯧	-13699
▁강조했습니다	-13700
호와	-13701
▁정직	-13702
▁파면	-13703
▁일본도	-13704
나를	-13705
▁논의할	-13706
해야함	-13707
▁한번에	-13708
▁당했다	-13709
▁세력이	-13710
▁신고를	-13711
▁뜬금	-13712
▁81	-13713
▁걱정이	-13714
▁사로잡	-13715
▁스마트시티	-13716
구매	-13717
▁시점에	-13718
차적으로	-13719
▁꼽았다	-13720
▁전반적으로	-13721
▁미래에셋	-13722
▁녀석	-13723
선택	-13724
▁송파구	-13725
▁올해도	-13726
▁의혹에	-13727
ook	-13728
▁구걸	-13729
▁동대문	-13730
▁재판을	-13731
▁여신	-13732
▁중지	-13733
▁편이	-13734
▁영등포구	-13735
사례	-13736
▁로또	-13737
▁갤럭시노트	-13738
▁벚꽃	-13739
▁6·13	-13740
▁뉴스를	-13741
▁옴	-13742
▁껍	-13743
▁장성	-13744
공산당	-13745
거니	-13746
▁유영	-13747
▁하겠다고	-13748
▁토크	-13749
▁문어	-13750
▁토끼	-13751
▁세우고	-13752
▁신한금융	-13753
▁가능해	-13754
되어서	-13755
▁보이지만	-13756
ES	-13757
▁선거에서	-13758
▁받았다고	-13759
▁sh	-13760
▁붙은	-13761
▁바다의	-13762
▁과기정통부	-13763
▁선거에	-13764
▁폭으로	-13765
▁파헤	-13766
▁시작된다	-13767
▁모순	-13768
▁심해	-13769
▁능력도	-13770
량한	-13771
▁터뜨	-13772
▁유명하다	-13773
의사	-13774
지노	-13775
▁김문	-13776
▁지경	-13777
▁크리스마스	-13778
지마세요	-13779
▁증가하는	-13780
▁만나볼	-13781
처먹	-13782
▁이석	-13783
▁같아서	-13784
산화	-13785
받아서	-13786
▁아직은	-13787
▁씽큐	-13788
▁것이지	-13789
매김	-13790
▁청정	-13791
▁나쁘지	-13792
▁어울리는	-13793
▁습득	-13794
키들	-13795
됐는데	-13796
였네	-13797
▁속해	-13798
▁발표를	-13799
▁부사장은	-13800
▁밀고	-13801
▁CV	-13802
▁지사는	-13803
▁엄벌	-13804
▁여성은	-13805
▁마찬가지다	-13806
▁목적이	-13807
세와	-13808
▁서쪽	-13809
▁저걸	-13810
▁CF	-13811
함으로	-13812
▁밝혀라	-13813
▁명심	-13814
64	-13815
▁손석희	-13816
▁그로	-13817
▁반영한	-13818
▁강제징용	-13819
회전	-13820
▁초록	-13821
▁튼튼	-13822
▁사용이	-13823
▁법은	-13824
▁꼬라	-13825
가정	-13826
▁얘기다	-13827
▁훗	-13828
▁메달	-13829
▁사각	-13830
▁도입을	-13831
▁독서	-13832
▁양쪽	-13833
▁학생들	-13834
▁톤	-13835
▁비웃	-13836
▁않다고	-13837
▁비율은	-13838
주사파	-13839
▁전차	-13840
▁국개의원	-13841
위원회에	-13842
▁필요합니다	-13843
세끼	-13844
▁해피	-13845
▁자리매김	-13846
AT	-13847
개에	-13848
▁원격	-13849
▁눈으로	-13850
▁직장인	-13851
전사	-13852
벨트	-13853
▁대여	-13854
▁잡았다	-13855
▁판교	-13856
아직도	-13857
▁메이저	-13858
일듯	-13859
▁근로시간	-13860
▁튀어나	-13861
▁미드	-13862
▁조준	-13863
▁똥꼬	-13864
▁마련한	-13865
▁기업이다	-13866
더리	-13867
플라	-13868
▁이글	-13869
▁내용도	-13870
▁인근에	-13871
▁금메달	-13872
▁짓고	-13873
▁신화	-13874
.#	-13875
▁안된다고	-13876
▁지역으로	-13877
▁소음	-13878
▁브로드	-13879
▁않았을	-13880
▁백성	-13881
▁맡겨	-13882
▁사태를	-13883
▁작작	-13884
▁비싸게	-13885
▁혁	-13886
▁인디	-13887
▁구형	-13888
▁추가된	-13889
루가	-13890
▁코스트	-13891
▁수신	-13892
▁깍	-13893
추천	-13894
회와	-13895
▁불구속	-13896
▁시술	-13897
▁락	-13898
▁햄	-13899
▁피할	-13900
▁만원	-13901
파업	-13902
▁자외	-13903
sh	-13904
▁닥터	-13905
▁잡지	-13906
▁집이	-13907
▁몰카	-13908
▁레스토랑	-13909
러시아	-13910
시쯤	-13911
▁『	-13912
독한	-13913
▁가사	-13914
렸다는	-13915
▁원산	-13916
▁WTO	-13917
75	-13918
나니	-13919
▁북조선	-13920
▁않는다면	-13921
입고	-13922
▁갖췄다	-13923
▁번째로	-13924
▁배우는	-13925
빠리	-13926
▁내각	-13927
으라는	-13928
▁카운터	-13929
지길	-13930
화장	-13931
▁형식	-13932
그룹의	-13933
▁보냈다	-13934
진보	-13935
▁정은이가	-13936
▁전격	-13937
▁달했다	-13938
문제가	-13939
▁후보를	-13940
나라를	-13941
▁있네요	-13942
반을	-13943
▁정수	-13944
▁자식들	-13945
▁마트	-13946
▁정시	-13947
▁즐기고	-13948
▁노답	-13949
보소	-13950
▁북구	-13951
와이	-13952
▁있기에	-13953
퀘어	-13954
아마	-13955
행위를	-13956
ance	-13957
▁캠페인을	-13958
▁노력하고	-13959
EN	-13960
경제가	-13961
▁살리	-13962
▁정동	-13963
▁아마추어	-13964
▁블룸	-13965
코리아는	-13966
등의	-13967
▁멸종	-13968
▁관할	-13969
▁시원한	-13970
▁산업통상자원부	-13971
▁서비스에	-13972
해봐	-13973
▁우대	-13974
기야	-13975
▁상주	-13976
▁망하는	-13977
경험	-13978
▁총을	-13979
금과	-13980
재해	-13981
▁정해진	-13982
▁이사장은	-13983
색으로	-13984
▁이야기는	-13985
▁커질	-13986
▁환경이	-13987
▁실감	-13988
▁장기간	-13989
▁정례	-13990
두를	-13991
▁규제가	-13992
▁언니	-13993
▁박스	-13994
파괴	-13995
신용	-13996
맞은	-13997
▁들어오는	-13998
결정	-13999
▁오락	-14000
▁올해로	-14001
▁1996	-14002
▁수상한	-14003
▁이새끼	-14004
▁요구하고	-14005
레오	-14006
열이	-14007
하는거야	-14008
▁김명	-14009
▁명중	-14010
▁사망한	-14011
▁있으니까	-14012
동향	-14013
▁박수를	-14014
▁폭파	-14015
▁아래로	-14016
기에는	-14017
▁모델은	-14018
▁군은	-14019
▁넣은	-14020
▁템	-14021
▁한사람	-14022
▁나타난다	-14023
▁뉘	-14024
▁환경에서	-14025
▁꼽히는	-14026
ib	-14027
판사	-14028
▁발표할	-14029
▁의견은	-14030
장사	-14031
▁사라지고	-14032
▁살펴보고	-14033
▁믿음	-14034
▁국가는	-14035
▁원거리	-14036
▁일일	-14037
▁잔잔	-14038
▁싫으면	-14039
▁그나	-14040
르몬	-14041
▁제대로된	-14042
묘한	-14043
창출	-14044
▁약화	-14045
다녀	-14046
생물	-14047
하느냐	-14048
▁고립	-14049
▁배울	-14050
▁고개를	-14051
체계를	-14052
▁부장	-14053
▁늘리는	-14054
▁공고	-14055
가는데	-14056
▁나머지는	-14057
▁BTS	-14058
▁부사장	-14059
▁간주	-14060
▁결론은	-14061
좋다	-14062
▁영세	-14063
▁CES	-14064
▁일본군	-14065
▁de	-14066
▁선수들이	-14067
해외	-14068
▁일할	-14069
으라	-14070
여도	-14071
▁순천	-14072
▁순이익	-14073
▁키우고	-14074
▁발생한다	-14075
▁시계	-14076
▁실력을	-14077
▁제품이다	-14078
시키지	-14079
▁펜스	-14080
▁법무장관	-14081
▁멀쩡한	-14082
▁우정	-14083
▁국무부	-14084
▁부른	-14085
▁항암	-14086
▁표현을	-14087
▁치료제	-14088
EX	-14089
베이터	-14090
짜피	-14091
채용	-14092
▁드리	-14093
▁한파	-14094
▁획기	-14095
▁나라로	-14096
▁뻔뻔한	-14097
▁503	-14098
▁혁신적인	-14099
분들은	-14100
▁니네가	-14101
▁사진이	-14102
▁전년동기	-14103
대우	-14104
▁기술력을	-14105
국민의	-14106
기관의	-14107
▁발언하고	-14108
니케이션	-14109
▁법제	-14110
인멸	-14111
▁아쿠	-14112
▁나타내고	-14113
▁건담	-14114
▁상식적으로	-14115
▁기레기야	-14116
▁손바닥	-14117
▁늘리	-14118
문제를	-14119
▁여자를	-14120
인인	-14121
▁수사가	-14122
스톤	-14123
▁나지	-14124
▁입수	-14125
문제는	-14126
▁이름의	-14127
▁지켜야	-14128
▁세븐	-14129
▁들면	-14130
▁끝났다	-14131
▁스킬을	-14132
점도	-14133
▁아이디	-14134
▁온도	-14135
▁포기하고	-14136
▁중개	-14137
▁랜드	-14138
▁플랜	-14139
투를	-14140
▁후보자가	-14141
▁앞당	-14142
▁컸다	-14143
▁기억을	-14144
▁제네시스	-14145
▁소재를	-14146
▁1200	-14147
오르	-14148
▁글이	-14149
EM	-14150
▁꼼수	-14151
▁문화가	-14152
먹기	-14153
▁자신들이	-14154
▁의도가	-14155
2)	-14156
말아	-14157
반기에	-14158
▁최선	-14159
지말자	-14160
공공	-14161
▁어떡	-14162
▁고려하면	-14163
▁비슷하게	-14164
십자	-14165
▁구성해	-14166
▁선호하는	-14167
▁장관을	-14168
▁승강	-14169
모바일	-14170
▁Su	-14171
도대체	-14172
▁언론사	-14173
▁활동에	-14174
테러	-14175
▁신동	-14176
▁극장	-14177
▁해마다	-14178
▁학생들은	-14179
▁적에게	-14180
나미	-14181
▁신이	-14182
▁열려	-14183
▁곤란	-14184
▁할것	-14185
▁DC	-14186
▁유키	-14187
드만	-14188
▁클라스	-14189
▁관리하는	-14190
▁계신	-14191
▁유성	-14192
▁불공정	-14193
▁끼리	-14194
만원이다	-14195
▁민정수석	-14196
▁사양	-14197
▁파고	-14198
▁1970	-14199
않는	-14200
▁느끼게	-14201
▁있었을	-14202
실업	-14203
▁EV	-14204
▁베르	-14205
▁일로	-14206
▁©	-14207
▁자랑한다	-14208
▁용산구	-14209
▁본사에서	-14210
▁침입	-14211
▁확보를	-14212
방위	-14213
▁미스터	-14214
▁나랏	-14215
▁오른다	-14216
종북	-14217
.13	-14218
퍼니	-14219
▁뒤통수	-14220
▁잡으면	-14221
실장은	-14222
▁타다	-14223
▁인정하는	-14224
여대	-14225
학대	-14226
▁크림	-14227
반이	-14228
▁전달했다	-14229
▁펫	-14230
었기	-14231
▁박종	-14232
올려	-14233
▁참사	-14234
▁하얀	-14235
▁크루즈	-14236
대원	-14237
▁임진	-14238
▁한숨	-14239
▁점에	-14240
▁92	-14241
▁정치권	-14242
해야합니다	-14243
골을	-14244
▁시너	-14245
▁강북	-14246
사리	-14247
▁방패	-14248
▁자사고	-14249
▁추진해	-14250
▁준비했다	-14251
▁있죠	-14252
▁도지사	-14253
▁시민의	-14254
▁기업들은	-14255
▁기술개발	-14256
▁시작됐다	-14257
비드	-14258
듣고	-14259
▁SKT	-14260
▁타협	-14261
조차도	-14262
▁경찰청	-14263
▁언론의	-14264
▁등장했다	-14265
부터가	-14266
▁병원으로	-14267
▁놈은	-14268
▁돌아갈	-14269
▁이고	-14270
▁광고를	-14271
▁바람직	-14272
겠고요	-14273
▁시카	-14274
▁당신들	-14275
▁위치해	-14276
▁인제	-14277
▁선정해	-14278
보라	-14279
▁군대가	-14280
▁문화체육관광부	-14281
▁트랜	-14282
층에서	-14283
IM	-14284
▁실명	-14285
▁기레기들	-14286
▁복무	-14287
▁이식	-14288
▁모르지만	-14289
부인	-14290
▁초등	-14291
되었는데	-14292
어린이	-14293
다는건	-14294
▁나가고	-14295
▁당시에는	-14296
▁농산물	-14297
▁안으로	-14298
였을	-14299
▁끝나는	-14300
▁단위로	-14301
▁식의	-14302
▁생각에	-14303
▁공유하고	-14304
▁공룡	-14305
▁가축	-14306
▁지역별	-14307
필드	-14308
▁전체적인	-14309
매출	-14310
▁제임스	-14311
▁응모	-14312
제시	-14313
▁말로만	-14314
▁수차례	-14315
▁소문	-14316
▁준비가	-14317
만든	-14318
▁우울증	-14319
▁주인이	-14320
스토리	-14321
▁CS	-14322
▁캠핑	-14323
▁내주	-14324
▁환불	-14325
▁소비자들이	-14326
밴드	-14327
▁밖의	-14328
속을	-14329
▁성격이	-14330
▁국무위원장이	-14331
▁화합	-14332
▁워터	-14333
▁길로	-14334
▁지갑	-14335
▁멘토	-14336
▁리얼미터	-14337
대통령이	-14338
연구원은	-14339
▁권장	-14340
▁준비하는	-14341
▁연평	-14342
▁1.3	-14343
자에게는	-14344
▁수거	-14345
▁툭	-14346
보에	-14347
▁재앙이다	-14348
▁됐다고	-14349
▁낮추	-14350
▁계정	-14351
방으로	-14352
▁믿는다	-14353
▁다른나라	-14354
▁송환	-14355
동에서	-14356
▁어처	-14357
그로	-14358
▁박지	-14359
▁대화가	-14360
▁쿵	-14361
얘기	-14362
▁왜이리	-14363
▁분할	-14364
▁뻗	-14365
년만	-14366
야당	-14367
▁정도를	-14368
▁전국에서	-14369
▁예쁜	-14370
원자	-14371
▁얼른	-14372
입장	-14373
▁소비자들의	-14374
자문	-14375
한심	-14376
▁굶어	-14377
▁확인한	-14378
과거	-14379
단에서	-14380
▁그녀가	-14381
▁자택	-14382
판으로	-14383
▁무서워서	-14384
▁삼성바이오로직	-14385
▁마블	-14386
만원씩	-14387
▁시위를	-14388
▁투입해	-14389
▁한방에	-14390
성태	-14391
정원	-14392
▁현정부	-14393
ᆢᆢ	-14394
▁과도	-14395
▁영향력을	-14396
▁교육과	-14397
▁관리에	-14398
위원은	-14399
제대로	-14400
▁원조	-14401
▁당당하게	-14402
▁수험	-14403
줬으면	-14404
▁인식을	-14405
▁삼성전자의	-14406
▁4%	-14407
▁응용	-14408
▁실질적으로	-14409
들어서	-14410
미술관	-14411
싶어	-14412
▁부들	-14413
해달라	-14414
▁매장을	-14415
▁저감	-14416
▁그다지	-14417
▁반려견	-14418
졌으며	-14419
전지	-14420
▁문재인정부	-14421
▁국무총리	-14422
법의	-14423
▁그러지	-14424
▁시간당	-14425
▁머니	-14426
▁장치	-14427
▁사용을	-14428
셔츠	-14429
▁부칸	-14430
▁중점	-14431
▁님	-14432
▁패시브	-14433
▁이노베이션	-14434
▁데스	-14435
▁명문	-14436
▁0.7	-14437
론가	-14438
▁시비	-14439
▁특활	-14440
▁문제와	-14441
▁관측이	-14442
▁습격	-14443
충이	-14444
▁살지	-14445
▁자칫	-14446
▁중부지방	-14447
역과	-14448
이었다고	-14449
▁처형	-14450
▁정원	-14451
▁점수가	-14452
▁커다란	-14453
▁아이의	-14454
▁후에도	-14455
▁범위를	-14456
▁경제정책	-14457
▁이윤택	-14458
▁영상이	-14459
무는	-14460
▁이용자가	-14461
▁결정할	-14462
▁기습	-14463
▁조항	-14464
정도면	-14465
▁이내에	-14466
▁해임	-14467
▁여름철	-14468
▁사람이다	-14469
▁방어력	-14470
▁솜	-14471
시적	-14472
▁성공적인	-14473
▁듣기	-14474
▁실버	-14475
▁푼	-14476
▁말아라	-14477
▁업계의	-14478
▁젓	-14479
▁병원에서	-14480
~2	-14481
▁중국몽	-14482
▁헌법재판	-14483
▁자부	-14484
▁개최한다고	-14485
▁아시아나항공	-14486
▁바뀌면	-14487
계좌	-14488
▁한달간	-14489
▁연수	-14490
▁많지만	-14491
▁외치고	-14492
▁분식	-14493
▁핑크	-14494
omain	-14495
생태	-14496
▁족속	-14497
러닝	-14498
▁딥	-14499
시한	-14500
▁싸워	-14501
키를	-14502
▁오스트	-14503
▁보고서를	-14504
▁청렴	-14505
▁yna	-14506
▁You	-14507
▁쑤	-14508
▁톰	-14509
인재	-14510
했는	-14511
▁차원	-14512
극장	-14513
아빠	-14514
▁공조	-14515
▁내일은	-14516
▁이상하게	-14517
경의	-14518
▁답을	-14519
orld	-14520
▁번에	-14521
▁지점	-14522
ung	-14523
▁지들은	-14524
분한	-14525
있어요	-14526
▁발생해	-14527
▁핏	-14528
▁연구소	-14529
▁원의	-14530
▁고려한	-14531
▁MP	-14532
총회	-14533
발로	-14534
심에	-14535
억이	-14536
이한	-14537
▁기소된	-14538
▁외에는	-14539
67	-14540
러블	-14541
트럭	-14542
▁포스트	-14543
▁최후의	-14544
▁공무원이	-14545
65	-14546
▁꾀	-14547
▁여는	-14548
▁우리나라를	-14549
네이버	-14550
▁척추	-14551
▁웃기고	-14552
▁했으며	-14553
공작	-14554
▁모자라	-14555
▁헬스케어	-14556
▁수강	-14557
▁베를린	-14558
▁이라면서	-14559
▁디바	-14560
▁완벽하게	-14561
▁옆에서	-14562
▁드립	-14563
가는게	-14564
▁뉴질랜드	-14565
▁출하	-14566
▁작년에	-14567
be	-14568
▁희망이	-14569
▁쿄	-14570
▁요시	-14571
▁일간	-14572
구간	-14573
▁적용된다	-14574
여기	-14575
▁유우	-14576
▁극장판	-14577
president	-14578
국당	-14579
▁공론	-14580
▁규명	-14581
▁분담	-14582
▁중산	-14583
▁본인도	-14584
▁예매	-14585
▁애가	-14586
▁지분을	-14587
▁다큐멘	-14588
▁대략	-14589
▁영문	-14590
▁떠나는	-14591
▁오마이	-14592
▁단말기	-14593
▁구청	-14594
넘이	-14595
▁0.6	-14596
▁일각에서는	-14597
▁매력적인	-14598
▁강력히	-14599
변경	-14600
▁돌아간다	-14601
▁이미지가	-14602
▁늦은	-14603
▁무고	-14604
▁공짜로	-14605
▁불편을	-14606
▁환상	-14607
▁처단	-14608
▁필드	-14609
빼고	-14610
▁데이트	-14611
인들을	-14612
▁성과가	-14613
▁학생이	-14614
다보니	-14615
그린	-14616
나쁜	-14617
▁살인마	-14618
▁올라온	-14619
할텐데	-14620
보좌	-14621
▁합리적	-14622
개돼지	-14623
으면서도	-14624
▁드러난	-14625
▁싸이코	-14626
II	-14627
▁토큰	-14628
▁최고기온은	-14629
▁에너지를	-14630
▁갤러	-14631
▁NY	-14632
드래곤	-14633
▁오프닝	-14634
▁허가를	-14635
▁죽으면	-14636
눈물	-14637
▁대목	-14638
▁국빈	-14639
▁상봉	-14640
▁증강	-14641
▁기다리는	-14642
▁보러	-14643
▁주파수	-14644
▁활용하는	-14645
위인	-14646
▁법적으로	-14647
▁로버트	-14648
▁상의	-14649
▁굵	-14650
▁시킬	-14651
시스템을	-14652
▁입으로	-14653
가네	-14654
▁같지만	-14655
▁필요없다	-14656
▁두루	-14657
이거나	-14658
▁요양	-14659
▁사거리	-14660
▁어렵고	-14661
경찰서	-14662
▁더러	-14663
▁입양	-14664
였어	-14665
▁방안도	-14666
준영	-14667
▁배를	-14668
아동	-14669
▁비건	-14670
▁해먹	-14671
▁권한을	-14672
▁당연한거	-14673
판결	-14674
기레기	-14675
▁마비	-14676
▁소각	-14677
▁되기를	-14678
▁저출산	-14679
▁다같이	-14680
▁시원하게	-14681
▁일만	-14682
▁화를	-14683
▁무렵	-14684
▁표정	-14685
▁퉤	-14686
▁교훈	-14687
까지의	-14688
베이스	-14689
▁변호사는	-14690
아무리	-14691
ey	-14692
▁제천	-14693
▁표명	-14694
▁대부분은	-14695
89	-14696
▁이어져	-14697
▁특별히	-14698
▁국채	-14699
▁변형	-14700
▁욕하고	-14701
TC	-14702
▁올인	-14703
▁도주	-14704
▁펠	-14705
▁불명	-14706
어찌	-14707
뒤에	-14708
지표	-14709
▁그치	-14710
▁우승을	-14711
▁됬	-14712
▁나이에	-14713
렸지만	-14714
▁비슷하다	-14715
로와	-14716
uc	-14717
▁그놈의	-14718
▁버리	-14719
▁죽었다	-14720
▁총알	-14721
저널	-14722
1,	-14723
들만의	-14724
▁해양수산	-14725
·2	-14726
▁했냐	-14727
▁돈주고	-14728
▁인력을	-14729
투데이	-14730
▁좌빨들	-14731
▁높을	-14732
▁개도	-14733
주인공	-14734
▁할말	-14735
▁민주당의	-14736
ite	-14737
▁광명	-14738
▁낮다	-14739
▁시간과	-14740
▁큰소리	-14741
▁무뇌	-14742
▁경찰과	-14743
자만	-14744
▁같냐	-14745
▁아버지의	-14746
▁퀄컴	-14747
전형	-14748
▁밀어붙	-14749
▁거울	-14750
으로서의	-14751
▁작품이다	-14752
워요	-14753
--------	-14754
▁세련	-14755
▁몰랐다	-14756
▁탔	-14757
았냐	-14758
대변인	-14759
▁실패한	-14760
ank	-14761
▁렉	-14762
MP	-14763
▁서경	-14764
올린	-14765
우며	-14766
▁유인	-14767
▁올해부터	-14768
▁한대	-14769
업계에	-14770
▁정의를	-14771
▁정책으로	-14772
▁행사에는	-14773
동으로	-14774
줍니다	-14775
결혼	-14776
조원을	-14777
▁하는가	-14778
▁결심	-14779
·4	-14780
▁뱅	-14781
한민국	-14782
대왕	-14783
중간	-14784
▁보너스	-14785
이해	-14786
▁달리는	-14787
▁배우고	-14788
/0	-14789
▁클린	-14790
▁테슬	-14791
▁토요	-14792
안에서	-14793
▁주민들의	-14794
말에	-14795
▁생중계	-14796
정비	-14797
행성	-14798
▁놀라운	-14799
▁자식이	-14800
▁넘기	-14801
▁핵폐기	-14802
▁입건	-14803
▁조세	-14804
▁좌파들	-14805
▁역으로	-14806
▁발음	-14807
소리가	-14808
▁0.8	-14809
인것	-14810
▁전반적인	-14811
가기	-14812
마에	-14813
▁유예	-14814
대행	-14815
익을	-14816
▁메르세	-14817
▁다양하게	-14818
▁집중적으로	-14819
▁통일을	-14820
신저	-14821
▁공격이	-14822
▁씽크풀	-14823
▁전교조	-14824
orm	-14825
▁이따	-14826
2,	-14827
▁명분	-14828
▁출현	-14829
▁때에는	-14830
▁농민	-14831
▁살자	-14832
▁경향	-14833
▁휴식	-14834
▁결론을	-14835
▁국고	-14836
책이	-14837
▁알레	-14838
능력을	-14839
xx	-14840
▁득점	-14841
▁이나라는	-14842
차와	-14843
홍보	-14844
▁남북이	-14845
▁무엇인가	-14846
과를	-14847
▁슬픈	-14848
▁앞세워	-14849
▁장점이	-14850
▁이뤄지지	-14851
▁무대를	-14852
▁알면서도	-14853
▁압도적인	-14854
해볼	-14855
새끼가	-14856
▁당시의	-14857
▁멈춰	-14858
계약을	-14859
▁메탈	-14860
▁감정이	-14861
~19	-14862
▁원래는	-14863
ult	-14864
세탁	-14865
▁심심	-14866
▁사라져	-14867
용량	-14868
▁풍경	-14869
▁ᄁ	-14870
스타일	-14871
▁만나게	-14872
▁어리석은	-14873
슬러	-14874
▁아이들은	-14875
▁공개하고	-14876
▁안습	-14877
85	-14878
▁거장들의	-14879
▁양육	-14880
▁칼로	-14881
▁환승	-14882
리온	-14883
▁올해의	-14884
▁하시는	-14885
▁뽑는	-14886
됐을	-14887
▁여지가	-14888
▁붓	-14889
▁할일	-14890
▁김원	-14891
▁의정부	-14892
다나	-14893
~~!!	-14894
▁컬렉션	-14895
선도	-14896
▁내보내	-14897
있었다	-14898
사진을	-14899
▁요약	-14900
▁전철	-14901
▁기자는	-14902
▁사막	-14903
ha	-14904
▁방송에	-14905
행사를	-14906
▁고조	-14907
룸에서	-14908
▁매진	-14909
▁일제히	-14910
▁과잉	-14911
▁다니고	-14912
▁서울이	-14913
▁키울	-14914
심으로	-14915
랍시고	-14916
▁농도는	-14917
미에	-14918
▁Te	-14919
▁아이디어를	-14920
▁무거운	-14921
▁새끼들이	-14922
▁됐습니다	-14923
▁오페라	-14924
▁설립된	-14925
▁패러디	-14926
이미지	-14927
▁포함됐다	-14928
▁비고	-14929
▁유희	-14930
▁찾아서	-14931
홀딩	-14932
▁면에서	-14933
▁명백한	-14934
▁가는데	-14935
▁움직임을	-14936
▁내용에	-14937
▁화면을	-14938
▁말과	-14939
▁짓는	-14940
▁나옵니다	-14941
▁정치가	-14942
▁안된다는	-14943
려다	-14944
어와	-14945
▁블룸버그	-14946
인걸	-14947
▁바닥에	-14948
▁신속하게	-14949
▁민족의	-14950
▁시켜야	-14951
발사	-14952
▁쓸모	-14953
▁SR	-14954
▁과감	-14955
▁흩	-14956
▁패거리	-14957
▁챌	-14958
▁제법	-14959
▁기체	-14960
▁앞선	-14961
▁푸드	-14962
▁말씀을	-14963
민당	-14964
▁sk	-14965
▁많음	-14966
▁오케	-14967
size	-14968
▁마크롱	-14969
잡은	-14970
그러면	-14971
기관과	-14972
났네	-14973
디스플레이	-14974
▁고의	-14975
비전	-14976
연은	-14977
▁국회를	-14978
▁따지면	-14979
▁바꿔야	-14980
▁되는지	-14981
무지	-14982
▁환수	-14983
▁두는	-14984
▁침투	-14985
▁구체적	-14986
론은	-14987
제주	-14988
▁찍는	-14989
보디아	-14990
▁협업을	-14991
드림	-14992
79	-14993
▁순서	-14994
▁발로	-14995
기소	-14996
수용	-14997
▁스폰	-14998
러스터	-14999
▁신경을	-15000
세서	-15001
▁상대의	-15002
▁8000	-15003
▁정치인이	-15004
▁동아시아	-15005
▁됐고	-15006
▁지문	-15007
그동안	-15008
▁조사에서	-15009
▁2017-12	-15010
라인을	-15011
oon	-15012
▁책임은	-15013
▁아이러니	-15014
▁냄	-15015
▁이분	-15016
▁의원들이	-15017
반도체	-15018
▁과천	-15019
범위	-15020
▁채로	-15021
▁총수	-15022
▁후진국	-15023
▁소주	-15024
▁어두운	-15025
▁해준	-15026
▁유감	-15027
▁가난한	-15028
▁박사는	-15029
경찰서는	-15030
▁기대감이	-15031
▁빠르고	-15032
▁해가	-15033
▁후퇴	-15034
▁리뷰	-15035
▁암흑	-15036
매물	-15037
시픽	-15038
▁장학금	-15039
▁조건으로	-15040
▁신용카드	-15041
틀딱	-15042
▁한민족	-15043
->	-15044
▁상무는	-15045
전부터	-15046
▁했으니	-15047
사라	-15048
▁모든걸	-15049
▁덕분	-15050
▁갑니다	-15051
▁보여줄	-15052
▁wh	-15053
▁챙기는	-15054
▁사업으로	-15055
▁페이스북에	-15056
▁휴게	-15057
▁소니	-15058
농업	-15059
▁Pl	-15060
▁산정	-15061
▁저래	-15062
▁오디오	-15063
▁재미있게	-15064
▁붐	-15065
▁체험할	-15066
▁보호를	-15067
▁2500	-15068
▁마포구	-15069
콜릿	-15070
▁뭐고	-15071
▁오찬	-15072
이라는게	-15073
▁안간다	-15074
▁제안했다	-15075
▁장거리	-15076
▁부도	-15077
▁관리가	-15078
수리	-15079
시대에	-15080
▁김승	-15081
▁미스	-15082
▁벌어지는	-15083
▁현대중공업	-15084
▁스피드	-15085
▁장려	-15086
▁카드가	-15087
▁바미	-15088
생긴	-15089
년들	-15090
▁노력할	-15091
▁로비	-15092
▁죽게	-15093
▁이하로	-15094
화재	-15095
▁근절	-15096
▁수준인	-15097
▁끼고	-15098
설계	-15099
센터에	-15100
매체	-15101
▁날라	-15102
애들은	-15103
▁다르지	-15104
▁ᄏᄏᄏᄏᄏᄏᄏᄏᄏᄏ	-15105
ime	-15106
▁서식	-15107
이재	-15108
▁낡	-15109
나이트	-15110
당했다	-15111
도둑	-15112
▁동조	-15113
▁모았다	-15114
▁뱉	-15115
▁그립	-15116
▁브로	-15117
사단	-15118
▁미흡	-15119
▁송금	-15120
▁고양시	-15121
▁결과적으로	-15122
예정	-15123
차게	-15124
만들고	-15125
▁남부지방	-15126
게임즈	-15127
▁브루	-15128
조각	-15129
▁귀여운	-15130
그러나	-15131
자들도	-15132
▁지소미아	-15133
▁카타	-15134
▁까는	-15135
액의	-15136
▁메이크	-15137
▁아랫	-15138
▁의원을	-15139
터의	-15140
▁발생하지	-15141
▁서비스로	-15142
▁칼을	-15143
▁디즈니	-15144
▁소개하는	-15145
러드	-15146
제국	-15147
▁고등학생	-15148
▁아카데미	-15149
▁연쇄	-15150
▁합의가	-15151
▁직권	-15152
▁서로의	-15153
▁표를	-15154
아침	-15155
▁유령	-15156
능력이	-15157
불법	-15158
▁김학의	-15159
▁많았	-15160
oth	-15161
▁부총리	-15162
역의	-15163
일지	-15164
▁하더라	-15165
▁반짝	-15166
▁나타나고	-15167
▁다른데	-15168
▁화재가	-15169
하는것도	-15170
▁나란히	-15171
캠프	-15172
▁하나님의	-15173
▁소지	-15174
어머니	-15175
▁콜라보	-15176
티를	-15177
▁전진	-15178
들까지	-15179
성능	-15180
▁육박	-15181
▁소개한다	-15182
파의	-15183
▁성장이	-15184
죄를	-15185
▁고무	-15186
로서는	-15187
▁사살	-15188
▁블라디	-15189
▁아세안	-15190
본부장은	-15191
▁매력을	-15192
▁유방	-15193
▁필요성을	-15194
에나	-15195
▁이준	-15196
심과	-15197
▁밝혀졌다	-15198
꺼번에	-15199
▁증거인멸	-15200
▁편리하게	-15201
병은	-15202
▁유류	-15203
▁울트라	-15204
▁거래비중	-15205
▁형식으로	-15206
취소	-15207
편은	-15208
▁본선	-15209
▁마이너	-15210
▁두렵	-15211
▁웃긴다	-15212
유로	-15213
▁짠	-15214
▁심각하게	-15215
▁기밀	-15216
▁고객은	-15217
▁구출	-15218
란시스	-15219
▁휴대전화	-15220
▁소신	-15221
월의	-15222
▁박용	-15223
한반도	-15224
▁참여한다	-15225
▁쌈	-15226
▁터져	-15227
▁무책임	-15228
▁음모	-15229
▁중국도	-15230
이름	-15231
한가	-15232
▁네트워크를	-15233
함의	-15234
▁오지게	-15235
▁판매량이	-15236
품질	-15237
편에서	-15238
▁대통령으로	-15239
FC	-15240
GB	-15241
▁채팅	-15242
▁사람만	-15243
▁너희들이	-15244
남용	-15245
▁공간이	-15246
불어	-15247
▁모두에게	-15248
▁이쯤되면	-15249
▁일으키는	-15250
피는	-15251
▁있느냐	-15252
경남	-15253
▁채널을	-15254
티아	-15255
▁삼척	-15256
▁퀸	-15257
▁김무	-15258
▁랜덤	-15259
▁한자	-15260
▁마리아	-15261
▁의견도	-15262
▁사전예약	-15263
▁이해하고	-15264
▁걔	-15265
▁에디션	-15266
켰다	-15267
tbc	-15268
▁어딨	-15269
▁부통령	-15270
지는게	-15271
▁모르겠네	-15272
▁하는거지	-15273
들었다	-15274
▁미래는	-15275
▁돌고	-15276
▁무사히	-15277
▁본질	-15278
▁하남	-15279
▁도착한	-15280
▁싶은데	-15281
▁네오	-15282
▁이도	-15283
하잖아	-15284
▁개선에	-15285
▁추첨을	-15286
▁컨센서스	-15287
▁모의	-15288
▁발레	-15289
▁역할이	-15290
▁요인이	-15291
▁고래	-15292
주시길	-15293
▁이제야	-15294
▁조카	-15295
▁동굴	-15296
▁비판이	-15297
▁근처에	-15298
▁사육	-15299
▁추미애	-15300
▁초대형	-15301
▁반사	-15302
▁이유도	-15303
실의	-15304
어쩌	-15305
▁있기를	-15306
노릇	-15307
▁알려졌습니다	-15308
비디오	-15309
▁되돌아	-15310
▁실리콘	-15311
점이다	-15312
▁가상현실	-15313
만원대	-15314
▁직면	-15315
▁지방은	-15316
▁개수	-15317
특위	-15318
▁전성	-15319
▁알아라	-15320
▁먹지	-15321
▁그룹의	-15322
▁전투기	-15323
년후	-15324
봐서	-15325
아아	-15326
▁이용하면	-15327
▁관심과	-15328
▁정신적	-15329
▁율	-15330
▁아쉽다	-15331
▁개무시	-15332
▁답변을	-15333
91	-15334
놓는	-15335
▁테라	-15336
▁사야	-15337
▁월세	-15338
하가	-15339
▁기대가	-15340
.16	-15341
차라리	-15342
▁법의	-15343
▁이어서	-15344
▁3.3	-15345
▁가관	-15346
식당	-15347
파리	-15348
▁성적을	-15349
▁확보하고	-15350
▁입지	-15351
인간들	-15352
OD	-15353
낸셜	-15354
.20	-15355
▁관료	-15356
끼고	-15357
▁상환	-15358
▁처방	-15359
강점	-15360
증은	-15361
이구나	-15362
되었던	-15363
▁미치지	-15364
▁WS	-15365
있는거	-15366
▁이대	-15367
▁일상생활	-15368
▁LNG	-15369
▁신성	-15370
르가	-15371
어느	-15372
▁극혐	-15373
▁것들을	-15374
▁차량에	-15375
과정에서	-15376
귀포	-15377
총을	-15378
▁혜택이	-15379
업종	-15380
▁가슴에	-15381
등한	-15382
광장	-15383
▁훗날	-15384
▁찾지	-15385
▁떨어지면	-15386
▁자기들이	-15387
▁할아버지	-15388
▁파격	-15389
▁마련할	-15390
▁겪은	-15391
▁재산을	-15392
▁깔아	-15393
▁설치해	-15394
▁공적	-15395
▁몰라서	-15396
▁할려고	-15397
▁93	-15398
▁고려대	-15399
연설	-15400
▁원주	-15401
▁한발	-15402
▁한두번	-15403
꺼면	-15404
▁생리	-15405
▁좋으면	-15406
테이너	-15407
)'	-15408
렸네	-15409
▁표본	-15410
혈관	-15411
크래프트	-15412
▁시선을	-15413
▁타당	-15414
자이	-15415
실장이	-15416
들끼리	-15417
여객	-15418
▁완성차	-15419
오카	-15420
PM	-15421
▁한국은행	-15422
WS	-15423
▁트로	-15424
그룹이	-15425
나오는	-15426
리는거	-15427
▁내려오	-15428
루를	-15429
▁이데	-15430
▁정치보복	-15431
ull	-15432
상이다	-15433
시간은	-15434
▁시기를	-15435
▁확대에	-15436
▁뷔	-15437
▁국가주	-15438
▁주위	-15439
▁규정을	-15440
▁업체인	-15441
만하다	-15442
▁가르쳐	-15443
끼는	-15444
▁북한도	-15445
nt	-15446
▁안맞	-15447
▁구조조정	-15448
▁남경	-15449
▁건물을	-15450
▁참여하고	-15451
▁판정	-15452
▁올라가는	-15453
▁상대방	-15454
▁꾸준한	-15455
▁그라	-15456
그라운드	-15457
사다	-15458
▁걸림	-15459
▁모르냐	-15460
▁증오	-15461
▁아메리카	-15462
▁주무	-15463
▁달라진	-15464
▁늘어났다	-15465
▁스페이스	-15466
국적	-15467
ary	-15468
거래일	-15469
들이지	-15470
▁가리지	-15471
기한	-15472
르며	-15473
로보	-15474
▁De	-15475
▁ᄅᄋ	-15476
▁편히	-15477
▁보험료	-15478
▁없구나	-15479
베리	-15480
▁팍팍	-15481
▁폭풍	-15482
▁이쪽	-15483
▁연결하는	-15484
▁깝	-15485
▁공유하는	-15486
되었다고	-15487
▁쏙	-15488
▁고은	-15489
이어서	-15490
▁통째로	-15491
▁무시하는	-15492
▁맞다고	-15493
게는	-15494
운을	-15495
▁실정	-15496
▁안티	-15497
▁정한	-15498
▁참석자들이	-15499
WC	-15500
▁환장	-15501
▁있어라	-15502
▁마디	-15503
▁지났	-15504
시하고	-15505
▁차려라	-15506
ence	-15507
▁댓글들	-15508
▁박차를	-15509
▁한꺼번에	-15510
▁확인해	-15511
▁머신	-15512
▁찐	-15513
▁엄중	-15514
손으로	-15515
공제	-15516
▁더럽	-15517
▁미국산	-15518
▁합의했다	-15519
▁01	-15520
▁한중	-15521
▁줄이기	-15522
▁고만	-15523
▁모레	-15524
▁준비한	-15525
▁봤을	-15526
▁합산	-15527
▁규모다	-15528
▁긁	-15529
균형	-15530
▁하든	-15531
▁유지했다	-15532
BA	-15533
▁관계없이	-15534
▁시의	-15535
자라고	-15536
▁양의	-15537
▁오르면	-15538
▁하도록	-15539
▁너가	-15540
린다는	-15541
▁해결하기	-15542
실과	-15543
▁당원	-15544
▁7000	-15545
구치	-15546
▁약을	-15547
같네	-15548
사업은	-15549
▁중에서는	-15550
▁아무나	-15551
인지라	-15552
▁닥치고	-15553
▁검거	-15554
▁교수의	-15555
▁이벤트도	-15556
강을	-15557
▁메모	-15558
▁안락	-15559
▁없는게	-15560
▁조센징	-15561
▁적혀	-15562
▁줄을	-15563
▁대통령에	-15564
▁소리하고	-15565
▁비겁	-15566
▁참전	-15567
▁백신	-15568
▁불린다	-15569
▁화제가	-15570
회사가	-15571
ics	-15572
▁음원	-15573
▁박영선	-15574
▁me	-15575
란이	-15576
▁메르세데스	-15577
신교	-15578
▁합의한	-15579
▁줄고	-15580
▁유투	-15581
▁구석	-15582
▁위치에	-15583
▁공화당	-15584
▁순수한	-15585
▁일부는	-15586
랭크	-15587
rom	-15588
▁거는	-15589
▁여긴	-15590
들이고	-15591
해제	-15592
▁Se	-15593
채로	-15594
▁쩔	-15595
▁관행	-15596
혹한	-15597
BM	-15598
문화를	-15599
▁국제적	-15600
▁그네	-15601
▁되겠다	-15602
겁니까	-15603
소서	-15604
▁무너뜨	-15605
▁태도	-15606
▁의장은	-15607
▁이익이	-15608
▁그러게	-15609
▁뜻하는	-15610
하곤	-15611
기업에	-15612
▁찾았다	-15613
▁발정	-15614
▁열면	-15615
▁당신을	-15616
▁캐릭터의	-15617
▁약속했다	-15618
▁한국지엠	-15619
▁국방부는	-15620
▁매장에서	-15621
▁추잡	-15622
▁삶에	-15623
▁정교	-15624
▁탈모	-15625
티어	-15626
▁고려할	-15627
▁임무를	-15628
▁못하도록	-15629
작이	-15630
▁끌었다	-15631
▁동서	-15632
▁엣	-15633
급한	-15634
만개	-15635
버스터	-15636
▁볼때	-15637
스도	-15638
정도는	-15639
▁컷	-15640
▁91	-15641
▁영유	-15642
84	-15643
▁어쩌라고	-15644
▁출고	-15645
▁거래량은	-15646
▁전용면적	-15647
▁대응할	-15648
미니	-15649
der	-15650
▁때문이라고	-15651
치매	-15652
터널	-15653
▁마음의	-15654
▁개발했다	-15655
타입	-15656
▁1.7	-15657
▁컨퍼런스	-15658
▁바가지	-15659
94	-15660
▁새끼가	-15661
그림	-15662
전남	-15663
▁FA	-15664
▁올라서	-15665
▁주차장	-15666
▁공무원들	-15667
몬드	-15668
중의	-15669
▁세상은	-15670
▁×	-15671
돈은	-15672
▁추격	-15673
▁수의	-15674
▁홍준표가	-15675
▁능력은	-15676
▁작업이	-15677
남부	-15678
▁찍을	-15679
분별	-15680
▁김혜	-15681
협회는	-15682
나지	-15683
▁애널리스트	-15684
왔습니다	-15685
▁역적	-15686
▁받아라	-15687
▁색히	-15688
▁많다고	-15689
▁찌라시	-15690
▁못믿	-15691
▁모으고	-15692
▁금융투자	-15693
▁여러모로	-15694
환경을	-15695
▁야당이	-15696
▁이용객	-15697
▁단어를	-15698
▁분야를	-15699
▁정상적으로	-15700
학술	-15701
▁나몰	-15702
▁알면서	-15703
▁싶습니다	-15704
회의실에서	-15705
지엄	-15706
▁별개로	-15707
▁파산	-15708
▁폭이	-15709
▁영화에	-15710
▁평소에	-15711
지긋	-15712
▁비열	-15713
▁젊은이	-15714
..........	-15715
▁할거	-15716
▁마당에	-15717
▁구별	-15718
▁기간은	-15719
경제를	-15720
▁운영할	-15721
▁통치	-15722
▁주장하고	-15723
박사	-15724
색히	-15725
▁서울을	-15726
호로	-15727
▁중대한	-15728
남기	-15729
이요	-15730
▁송도	-15731
들갑	-15732
▁근거가	-15733
봤습니다	-15734
노무현	-15735
▁민감	-15736
▁코믹	-15737
지사가	-15738
▁고지	-15739
네스코	-15740
▁라스	-15741
▁반격	-15742
▁해볼	-15743
▁1.4	-15744
▁서로를	-15745
구장	-15746
▁전제	-15747
라이언	-15748
cho	-15749
맘대로	-15750
▁뺀	-15751
▁고혈압	-15752
▁엉뚱한	-15753
▁안전사고	-15754
▁코어	-15755
▁스트리밍	-15756
▁고객들에게	-15757
래요	-15758
▁걸리	-15759
▁생체	-15760
▁지상파	-15761
▁귀가	-15762
플래	-15763
족을	-15764
▁모스크	-15765
겟지	-15766
▁신선한	-15767
▁호응을	-15768
▁영역을	-15769
다만	-15770
▁수감	-15771
▁사자	-15772
▁체계를	-15773
▁어려움이	-15774
▁잘한	-15775
▁스모	-15776
▁주의해야	-15777
▁디자인이	-15778
▁수익률을	-15779
▁그러한	-15780
▁어짜피	-15781
▁해금	-15782
코인	-15783
▁효율성	-15784
안해	-15785
문에서	-15786
▁딸을	-15787
▁전보다	-15788
▁이들에게	-15789
▁쪼개	-15790
▁유상	-15791
▁수상했다	-15792
▁썬	-15793
▁터진	-15794
▁할수있	-15795
▁거점	-15796
날레	-15797
▁표현한	-15798
▁더빙	-15799
▁분해	-15800
▁카즈	-15801
▁폭동	-15802
시에서	-15803
일수록	-15804
▁싶을	-15805
▁거꾸로	-15806
▁피가	-15807
▁생애	-15808
씨에게	-15809
▁장교	-15810
광장에서	-15811
▁현지시각	-15812
사관	-15813
▁제조업체	-15814
▁이어갈	-15815
▁구리	-15816
▁미쳤다	-15817
▁상습	-15818
▁죽음의	-15819
▁다죽	-15820
부러	-15821
션이	-15822
▁금감원	-15823
▁최우선	-15824
▁출연해	-15825
▁명령을	-15826
▁휩싸	-15827
서치	-15828
▁흔한	-15829
▁김제	-15830
▁올라갈	-15831
▁후보자의	-15832
떨어진	-15833
소시엄	-15834
▁막아야	-15835
▁숨겨진	-15836
▁팬들이	-15837
의전	-15838
뮤직	-15839
소통	-15840
▁Ex	-15841
▁여왕	-15842
▁노리는	-15843
▁한반도에	-15844
▁거리에	-15845
▁있으	-15846
▁말이지	-15847
▁미화	-15848
▁호황	-15849
▁com	-15850
▁주석	-15851
▁화산	-15852
▁정보는	-15853
들에겐	-15854
▁번도	-15855
▁전임	-15856
▁꿈꾸는	-15857
▁당신들이	-15858
억씩	-15859
자랑	-15860
▁급식	-15861
▁상회	-15862
▁NS	-15863
▁아라	-15864
▁예정이며	-15865
▁울릉	-15866
▁잘못한	-15867
성장을	-15868
▁애쓴다	-15869
▁앰	-15870
외국	-15871
▁안들	-15872
▁증가할	-15873
▁신청할	-15874
▁대형마트	-15875
▁카테고	-15876
▁드러냈다	-15877
▁지식재산	-15878
▁금요일	-15879
▁자신도	-15880
파악	-15881
▁개혁을	-15882
▁논의했다	-15883
▁견찰	-15884
▁빼면	-15885
▁개정안	-15886
▁김씨는	-15887
▁서귀포	-15888
▁지원금	-15889
▁국토부는	-15890
▁모바일게임	-15891
연장	-15892
▁나서야	-15893
▁했나	-15894
▁꼴이	-15895
▁나오기	-15896
▁남았다	-15897
▁다는	-15898
▁사이가	-15899
▁적용했다	-15900
품으로	-15901
▁답답하다	-15902
▁계획이라고	-15903
▁금리를	-15904
집권	-15905
▁나눈	-15906
▁1988	-15907
실하게	-15908
▁실장은	-15909
▁바뀌고	-15910
▁조사가	-15911
브를	-15912
▁생각했다	-15913
▁레전드	-15914
▁초중	-15915
지방선거	-15916
▁농림축산	-15917
▁용역	-15918
▁자료는	-15919
▁지정된	-15920
▁이루어진	-15921
▁어긋	-15922
▁예멘	-15923
▁도민	-15924
▁어색	-15925
▁증여	-15926
▁마술	-15927
부르크	-15928
▁며느	-15929
▁뉴스에	-15930
▁가능하고	-15931
▁기대할	-15932
▁카메라를	-15933
▁드라이브	-15934
▁7%	-15935
▁같지	-15936
▁결혼을	-15937
▁들어올	-15938
▁업데이트를	-15939
밸리	-15940
일드	-15941
영은	-15942
주의를	-15943
보겠습니다	-15944
수행	-15945
▁자율주행차	-15946
힘들	-15947
▁있거나	-15948
▁명확히	-15949
▁기능도	-15950
▁EN	-15951
▁각자의	-15952
▁전복	-15953
▁수치가	-15954
▁다각	-15955
▁하태	-15956
▁달러를	-15957
▁탈탈	-15958
▁통행	-15959
▁성립	-15960
▁민감한	-15961
▁부문에서	-15962
이라이트	-15963
▁전망입니다	-15964
어버리고	-15965
▁파손	-15966
▁때보다	-15967
▁만기	-15968
▁배웠	-15969
피를	-15970
수급	-15971
▁환자는	-15972
것네	-15973
▁엇갈	-15974
▁터널	-15975
▁종류의	-15976
▁초청해	-15977
▁퍼주기	-15978
특검	-15979
하를	-15980
▁판결이	-15981
▁한계를	-15982
▁미국인	-15983
600	-15984
▁매직	-15985
▁기사로	-15986
기부	-15987
색의	-15988
외과	-15989
되네	-15990
▁이천	-15991
▁편에	-15992
▁220	-15993
▁고객들의	-15994
산다	-15995
▁해골	-15996
▁밑에서	-15997
줄을	-15998
결과를	-15999
시에는	-16000
▁스텔	-16001
▁치면	-16002
▁불리한	-16003
▁봐서	-16004
임은	-16005
▁프로토	-16006
▁기뻐	-16007
마스터	-16008
▁조합원	-16009
주니	-16010
▁서면	-16011
▁공동대표	-16012
▁랭킹	-16013
▁처음엔	-16014
▁생각해서	-16015
▁친절	-16016
기업은	-16017
▁헌신	-16018
▁프로필	-16019
▁퀄리티	-16020
▁돌연	-16021
▁세균	-16022
▁존재하지	-16023
날을	-16024
▁쥐어	-16025
▁구름이	-16026
▁확보할	-16027
수준이	-16028
르르	-16029
▁명예훼손	-16030
▁살았	-16031
▁촬영한	-16032
했을까	-16033
▁중국으로	-16034
실적	-16035
들과는	-16036
▁세웠다	-16037
▁않는데	-16038
▁주의가	-16039
일차	-16040
▁중장	-16041
▁해야할	-16042
▁바퀴벌레	-16043
MS	-16044
▁공시가	-16045
▁안해도	-16046
▁캬	-16047
변이	-16048
▁이곳에서	-16049
▁연계해	-16050
▁유진	-16051
그대로	-16052
▁아크	-16053
▁기원합니다	-16054
▁낸다	-16055
▁보고도	-16056
철이	-16057
▁지위를	-16058
▁협회	-16059
▁성장률	-16060
▁오라	-16061
조치를	-16062
▁마시는	-16063
▁출시할	-16064
▁가격도	-16065
▁낫지	-16066
▁유튜버	-16067
▁스승	-16068
▁죽기	-16069
▁위키	-16070
▁개선이	-16071
▁닉	-16072
비핵	-16073
동조합	-16074
동과	-16075
▁워마드	-16076
▁ld	-16077
▁야이	-16078
콘서트	-16079
베트남	-16080
▁넘어가는	-16081
▁ST	-16082
▁될지	-16083
▁버릴	-16084
▁김정은의	-16085
▁정성	-16086
▁타결	-16087
▁해석이	-16088
메이크	-16089
카메라	-16090
▁조사해	-16091
시원	-16092
치킨	-16093
▁자고	-16094
▁물결은	-16095
▁뿜	-16096
스포	-16097
▁부진한	-16098
▁이슈가	-16099
대단	-16100
▁역사는	-16101
▁트럼프의	-16102
▁프로모션을	-16103
▁귀신	-16104
▁황교활	-16105
▁투자한	-16106
▁묶어	-16107
▁판을	-16108
▁차로	-16109
▁자들이	-16110
악의	-16111
▁차려	-16112
▁부상을	-16113
▁듣지	-16114
▁동해안	-16115
찰을	-16116
분부터	-16117
▁우익	-16118
▁주방	-16119
▁안들어	-16120
▁먹어야	-16121
▁뜻이	-16122
▁사는데	-16123
식도	-16124
▁자유로운	-16125
.19	-16126
▁이명	-16127
▁프로그램은	-16128
.15	-16129
▁부역	-16130
▁일주	-16131
▁조립	-16132
둘러	-16133
간다고	-16134
▁대표로	-16135
코올	-16136
▁훈훈	-16137
▁능력치	-16138
군으로	-16139
▁여학생	-16140
▁조양	-16141
▁사무총	-16142
알아	-16143
행복	-16144
▁포함돼	-16145
▁현실적으로	-16146
애니	-16147
▁과세	-16148
▁했네	-16149
▁재미있는	-16150
▁제기한	-16151
집값	-16152
▁월간	-16153
▁유혹	-16154
지역의	-16155
▁윌리	-16156
▁액티브	-16157
▁상태에	-16158
디움	-16159
▁세금만	-16160
69	-16161
박람회	-16162
▁모여서	-16163
ah	-16164
유기	-16165
ix	-16166
msys	-16167
▁시너지	-16168
▁제공하기	-16169
▁병원을	-16170
▁캄보디아	-16171
▁ldmsys	-16172
▁왕복	-16173
지역은	-16174
▁3,	-16175
▁공산화	-16176
▁쿠데	-16177
▁현상을	-16178
▁의원과	-16179
▁정세	-16180
▁움직임이	-16181
▁450	-16182
선물	-16183
▁속의	-16184
▁파렴	-16185
▁김현미	-16186
▁마침내	-16187
그나	-16188
▁이방	-16189
▁기관의	-16190
▁시간도	-16191
▁차량의	-16192
수수료	-16193
▁작품의	-16194
▁것일	-16195
▁잠을	-16196
▁결합해	-16197
▁불이익	-16198
하되	-16199
▁대원	-16200
▁늬	-16201
▁국민혈	-16202
▁선별	-16203
편으로	-16204
▁협력업체	-16205
청소	-16206
▁문건	-16207
▁농담	-16208
쓰면	-16209
▁천지	-16210
▁쿠팡	-16211
▁해커	-16212
페스티벌	-16213
형에	-16214
는다면	-16215
▁만났다	-16216
저는	-16217
▁싣	-16218
▁재선	-16219
▁신속한	-16220
한의	-16221
▁공연이	-16222
▁리조트	-16223
▁내년부터	-16224
▁하이닉스	-16225
▁(1	-16226
▁내기	-16227
여러분	-16228
▁군사적	-16229
▁벌이는	-16230
▁여론을	-16231
▁여럿	-16232
▁담보	-16233
▁밝혀진	-16234
▁맞물	-16235
▁기자의	-16236
▁해적	-16237
▁의무를	-16238
ᅳᅳᅳᅳᅳᅳᅳᅳ	-16239
업이	-16240
▁운영에	-16241
라와	-16242
▁닮은	-16243
▁잘난	-16244
▁간담회에서	-16245
▁//	-16246
버리면	-16247
시설이	-16248
생의	-16249
비서관	-16250
▁러시아가	-16251
▁승무원	-16252
▁취약계층	-16253
▁과징	-16254
보니까	-16255
▁조선중앙	-16256
▁국외	-16257
▁비유	-16258
덕에	-16259
▁길고	-16260
▁멍멍	-16261
▁오늘의	-16262
▁지적도	-16263
▁생각으로	-16264
▁토마	-16265
▁바뀌는	-16266
국장은	-16267
들로부터	-16268
▁활동이	-16269
▁1987	-16270
▁머저리	-16271
▁프로그램이	-16272
▁조직을	-16273
▁참가해	-16274
파탄	-16275
▁소매	-16276
ruby	-16277
▁행정안전부	-16278
▁유착	-16279
리사	-16280
트리스	-16281
▁천국	-16282
정하고	-16283
▁느껴지는	-16284
▁유럽의	-16285
▁소비자의	-16286
나나	-16287
포가	-16288
▁각본	-16289
▁귀걸이	-16290
경제는	-16291
aily	-16292
▁눈높	-16293
▁부총리는	-16294
▁우방	-16295
▁먼바다	-16296
▁파이터	-16297
▁유네스코	-16298
여명	-16299
▁단백질	-16300
▁도와주는	-16301
▁업종별로는	-16302
==	-16303
▁귀를	-16304
배에	-16305
▁필터	-16306
▁101	-16307
▁승인을	-16308
▁경제협력	-16309
▁전년대비	-16310
▁제안을	-16311
갖고	-16312
!!!!!!!	-16313
▁쯤	-16314
사람을	-16315
지않는	-16316
▁동영상을	-16317
▁안되는데	-16318
▁다하고	-16319
▁반역	-16320
▁쌓여	-16321
▁이송	-16322
사람도	-16323
▁삽입	-16324
퓰리즘	-16325
...!	-16326
▁결성	-16327
▁퍼주고	-16328
▁중요성을	-16329
▁실력이	-16330
▁요구한	-16331
▁휘발유	-16332
▁전부다	-16333
▁효과적으로	-16334
루는	-16335
▁보도했습니다	-16336
▁김모	-16337
▁사건과	-16338
개도	-16339
▁오바마	-16340
공립	-16341
받았	-16342
기업을	-16343
▁폐암	-16344
▁내년도	-16345
일만	-16346
▁노는	-16347
▁연도	-16348
▁이용하여	-16349
▁위조	-16350
▁할듯	-16351
지냐	-16352
▁연구진은	-16353
▁혈압	-16354
▁거주하는	-16355
▁이뤄진다	-16356
▁싶네요	-16357
▁트위터에	-16358
저도	-16359
▁살아온	-16360
oy	-16361
▁쥐새끼	-16362
희가	-16363
▁긍정적으로	-16364
▁배부	-16365
▁더운	-16366
▁인피	-16367
반응	-16368
▁꾸며	-16369
▁깽	-16370
면의	-16371
▁WSJ	-16372
▁성경	-16373
갈이	-16374
맥스	-16375
▁자급	-16376
▁브랜드의	-16377
▁FI	-16378
▁상하	-16379
▁걸레	-16380
▁1.8	-16381
▁힌	-16382
스틴	-16383
위치	-16384
▁둘은	-16385
▁이승만	-16386
기대	-16387
▁등산	-16388
▁부풀	-16389
지하	-16390
장군	-16391
▁개최된	-16392
▁파이팅	-16393
▁부부가	-16394
▁경우에도	-16395
이란다	-16396
▁탐사	-16397
센터가	-16398
▁이뤄지고	-16399
▁이화	-16400
▁감추	-16401
▁엔씨소프트	-16402
▁팰	-16403
이하	-16404
▁필요로	-16405
식에는	-16406
▁경제부총리	-16407
나가고	-16408
▁돌봄	-16409
▁방문하는	-16410
겠느냐	-16411
▁지금처럼	-16412
▁지능형	-16413
ok	-16414
포터	-16415
▁아미	-16416
▁쪽이	-16417
▁엽	-16418
드리는	-16419
하다면	-16420
▁않았는데	-16421
박물	-16422
▁기숙	-16423
▁체인	-16424
▁끔찍한	-16425
▁초콜릿	-16426
▁구로	-16427
▁조속히	-16428
▁KAIST	-16429
대지	-16430
▁원본	-16431
게이	-16432
▁팀은	-16433
▁연구에	-16434
▁아녀	-16435
▁하신	-16436
▁안성	-16437
▁비자	-16438
▁음반	-16439
▁올려서	-16440
▁김준	-16441
▁수입차	-16442
▁애비	-16443
▁모두를	-16444
▁사이코	-16445
기네	-16446
▁-1	-16447
▁다이어트	-16448
ian	-16449
▁껴	-16450
▁봉인	-16451
▁조사해라	-16452
82	-16453
▁양심이	-16454
▁맛집	-16455
▁이러면	-16456
▁가나	-16457
▁차량은	-16458
▁좋겠어요	-16459
병에	-16460
적으로도	-16461
▁음란	-16462
▁위촉	-16463
▁3.0	-16464
▁까고	-16465
▁발라	-16466
▁스토리가	-16467
▁라이벌	-16468
▁대단히	-16469
▁정전	-16470
▁나름대로	-16471
▁나에게	-16472
▁반환	-16473
하였으며	-16474
63	-16475
▁뒤에는	-16476
있지만	-16477
▁가산	-16478
▁남자들이	-16479
▁안팔	-16480
▁차리	-16481
▁밀집	-16482
▁인프라를	-16483
솔루션	-16484
▁잘못이	-16485
▁차에	-16486
▁아닌거	-16487
▁이후의	-16488
▁않겠다는	-16489
▁지주	-16490
▁하라는	-16491
▁선물을	-16492
▁특화된	-16493
▁리버	-16494
▁진행되며	-16495
▁뿌려	-16496
▁암튼	-16497
▁마련하고	-16498
▁고난	-16499
▁미뤄	-16500
▁바가	-16501
것들아	-16502
▁정체가	-16503
▁아이들에게	-16504
▁정부서울청사에서	-16505
바퀴	-16506
▁평가다	-16507
마당	-16508
▁권위	-16509
▁대사가	-16510
선진	-16511
▁돼야	-16512
▁같으면	-16513
▁이순신	-16514
▁재차	-16515
▁백수	-16516
과장은	-16517
▁tr	-16518
폴리오	-16519
▁메시지	-16520
드립	-16521
▁억압	-16522
하구나	-16523
▁조언했다	-16524
▁Le	-16525
▁갯	-16526
▁떡밥	-16527
파워	-16528
제도를	-16529
▁이보다	-16530
▁숙청	-16531
▁혁신성장	-16532
▁교육감	-16533
▁수출규제	-16534
▁신사	-16535
▁전문가들이	-16536
▁진전	-16537
즈와	-16538
▁민주당과	-16539
▁설립한	-16540
▁자료에	-16541
▁임시정부	-16542
▁무능력	-16543
▁만들어낸	-16544
▁쿨타임	-16545
키아	-16546
▁창문	-16547
orea	-16548
자녀	-16549
▁리플	-16550
▁as	-16551
너는	-16552
▁가뭄	-16553
▁레인	-16554
▁성장성	-16555
▁5.	-16556
▁걷는	-16557
▁덮어	-16558
▁중증	-16559
▁몇백	-16560
▁잡아야	-16561
▁입장에선	-16562
▁당이	-16563
▁희대의	-16564
▁책임지고	-16565
▁감면	-16566
ᅲᅲᅲᅲ	-16567
▁2017-11	-16568
급의	-16569
▁AK	-16570
만명의	-16571
▁[[	-16572
▁레어	-16573
▁망언	-16574
▁회사에서	-16575
수없는	-16576
▁없애야	-16577
▁출신으로	-16578
록시	-16579
소수	-16580
▁트렌드	-16581
▁댓글에	-16582
▁때문인지	-16583
▁아르헨티나	-16584
▁그러자	-16585
▁폭스바겐	-16586
화도	-16587
▁김관	-16588
▁아무튼	-16589
▁글로	-16590
사과	-16591
▁삼성의	-16592
▁파크	-16593
▁경부	-16594
▁사라져야	-16595
▁싶다면	-16596
▁제목의	-16597
▁하이라이트	-16598
▁버는	-16599
▁최하	-16600
▁약간의	-16601
▁늘릴	-16602
▁도입한	-16603
▁기자간담회에서	-16604
▁왕이	-16605
▁이루고	-16606
▁재인이	-16607
▁수두	-16608
▁신뢰가	-16609
▁두들	-16610
년이다	-16611
▁연평균	-16612
▁순차적으로	-16613
▁망쳐	-16614
▁아들을	-16615
통계	-16616
폭망	-16617
▁아모	-16618
더라고요	-16619
▁서울특별	-16620
▁룸	-16621
▁구원	-16622
▁싸움을	-16623
ake	-16624
▁한낮	-16625
▁트윗	-16626
게요	-16627
▁발주	-16628
▁센서	-16629
▁부끄러	-16630
▁잘사는	-16631
▁잘했다	-16632
▁IPTV	-16633
▁구축하고	-16634
▁느껴진다	-16635
▁실체	-16636
▁양질의	-16637
▁올리지	-16638
▁홈페이지에	-16639
▁랄	-16640
▁원망	-16641
▁손꼽	-16642
면세	-16643
▁증상	-16644
국민은	-16645
▁겨냥한	-16646
잖어	-16647
▁높아진	-16648
▁수요를	-16649
▁발송	-16650
▁부평	-16651
▁했더니	-16652
바가	-16653
세력이	-16654
▁더럽고	-16655
▁AC	-16656
▁맞으면	-16657
▁살던	-16658
▁취직	-16659
▁풀려	-16660
▁사료	-16661
▁하자는	-16662
강남	-16663
테스트	-16664
▁가능하게	-16665
▁키움	-16666
승리	-16667
▁밀리	-16668
▁셀프	-16669
▁수사권	-16670
레니	-16671
▁color	-16672
▁경로	-16673
▁정치는	-16674
피탈	-16675
▁여부에	-16676
라노	-16677
▁부유	-16678
변호사	-16679
▁되서	-16680
주의보가	-16681
▁착륙	-16682
기에서	-16683
위해서	-16684
▁세일	-16685
▁좋다는	-16686
교체	-16687
▁김광	-16688
▁살릴	-16689
▁수확	-16690
▁원인으로	-16691
▁전액	-16692
▁부드러운	-16693
▁트윈	-16694
▁실질적	-16695
▁이상인	-16696
▁후지	-16697
▁소통을	-16698
▁스토리를	-16699
건물	-16700
님께	-16701
들이야	-16702
▁국민의당	-16703
작으로	-16704
▁향상을	-16705
공부	-16706
모드	-16707
▁있겠지	-16708
▁구나	-16709
있는지	-16710
▁돈에	-16711
io	-16712
▁얼마든지	-16713
▁논쟁	-16714
강한	-16715
▁편한	-16716
▁박사모	-16717
▁머가	-16718
보고서	-16719
지옥	-16720
번의	-16721
▁버프	-16722
▁키운	-16723
▁fun	-16724
▁자원봉사	-16725
매수	-16726
▁관광객이	-16727
▁퍼줄	-16728
도르	-16729
사업의	-16730
인간이	-16731
▁무방	-16732
▁덴마크	-16733
▁오신	-16734
▁모두발언을	-16735
급을	-16736
▁날을	-16737
▁하루종일	-16738
▁남기고	-16739
▁미사일을	-16740
담한	-16741
▁폴란드	-16742
관리를	-16743
▁한국인이	-16744
▁있을까요	-16745
▁생방송	-16746
▁한유	-16747
▁수출이	-16748
▁다리를	-16749
▁비비	-16750
▁국가로	-16751
▁꿰	-16752
불쌍	-16753
▁정면	-16754
▁잘만	-16755
양아치	-16756
▁불필요한	-16757
혐의	-16758
▁한국관광	-16759
▁지켜보고	-16760
ory	-16761
▁문명	-16762
▁효율적으로	-16763
것입니다	-16764
▁필요는	-16765
▁내놓았다	-16766
ound	-16767
현의	-16768
.05	-16769
▁표현의	-16770
▁행복하게	-16771
오의	-16772
▁우체	-16773
▁뻔히	-16774
▁사생활	-16775
▁이뤄지는	-16776
▁인물이다	-16777
틀러	-16778
▁바다에	-16779
▁현실이다	-16780
▁이세	-16781
▁시기가	-16782
▁그대	-16783
▁당의	-16784
▁일대에서	-16785
▁맺은	-16786
▁유공	-16787
▁서비스도	-16788
년형	-16789
▁꼬집	-16790
▁낙하산	-16791
▁샤오미	-16792
▁간편하게	-16793
▁걸리면	-16794
▁높인	-16795
▁가성비	-16796
▁아름답	-16797
▁받으면서	-16798
▁수성	-16799
팅을	-16800
▁인재를	-16801
▁성장세를	-16802
히게	-16803
▁광우	-16804
▁된장	-16805
▁만일	-16806
▁단체로	-16807
▁최적화된	-16808
▁탈취	-16809
▁작살	-16810
▁방침을	-16811
▁같다고	-16812
▁도구	-16813
▁형평	-16814
▁지긋	-16815
돼서	-16816
하우	-16817
▁묻자	-16818
분열	-16819
▁법대로	-16820
▁우롱	-16821
▁이라크	-16822
▁세번째	-16823
▁노숙	-16824
▁흐르는	-16825
데체	-16826
▁귀환	-16827
▁옹호하는	-16828
▁인천시	-16829
▁구린	-16830
▁낙찰	-16831
▁될듯	-16832
▁실시하고	-16833
▁패싱	-16834
▁가족들	-16835
▁사외	-16836
ave	-16837
버드	-16838
과제	-16839
▁같으니	-16840
왔고	-16841
자들에	-16842
▁편의를	-16843
▁LCD	-16844
폰은	-16845
▁경기는	-16846
▁높다는	-16847
▁랭크	-16848
전투	-16849
▁망한	-16850
▁얻기	-16851
▁여기까지	-16852
▁기절	-16853
▁냉동	-16854
▁일제강점	-16855
▁확보했다	-16856
구청	-16857
같으면	-16858
즈키	-16859
▁이의	-16860
▁발언은	-16861
▁소감을	-16862
태우	-16863
▁월요일	-16864
양의	-16865
▁강아	-16866
정권을	-16867
▁상담을	-16868
▁너를	-16869
▁호들갑	-16870
ink	-16871
▁돕고	-16872
▁불만이	-16873
▁업체는	-16874
▁팔아먹	-16875
▁말대로	-16876
??????	-16877
▁미용	-16878
▁세상의	-16879
▁거둔	-16880
것에	-16881
영웅	-16882
▁지붕	-16883
▁역겨운	-16884
▁by	-16885
▁한국으로	-16886
스트리트	-16887
▁억울한	-16888
ork	-16889
▁성형	-16890
▁가정의	-16891
▁커서	-16892
▁동원해	-16893
▁요소를	-16894
루의	-16895
평생	-16896
▁비핵화와	-16897
수고	-16898
▁사단	-16899
▁더불어민주	-16900
▁용량	-16901
▁발사체	-16902
▁나왔는데	-16903
등장	-16904
▁크리에이터	-16905
거죠	-16906
니까요	-16907
▁결과다	-16908
교섭	-16909
▁찾아볼	-16910
지던	-16911
▁총살	-16912
▁정책의	-16913
▁유의해야	-16914
미네	-16915
▁가드	-16916
▁오키	-16917
▁class	-16918
▁시가총액	-16919
치는데	-16920
▁독일의	-16921
▁1992	-16922
▁공간으로	-16923
나올	-16924
티가	-16925
▁위메	-16926
상가	-16927
전국	-16928
▁오스트리아	-16929
▁주입	-16930
저래	-16931
▁경인	-16932
▁여권	-16933
▁비호	-16934
▁머리카	-16935
▁박람회	-16936
연료	-16937
▁각국	-16938
▁1993	-16939
조심	-16940
▁0.9	-16941
▁제공한	-16942
▁달에	-16943
티는	-16944
▁다행이다	-16945
▁성남시	-16946
▁걸친	-16947
▁강조한	-16948
▁맞았다	-16949
▁바꿔라	-16950
▁코엑	-16951
▁종목이	-16952
▁불렀	-16953
▁실어	-16954
▁염두에	-16955
▁적당한	-16956
▁돌진	-16957
▁아들은	-16958
▁스미	-16959
▁온천	-16960
▁우회	-16961
▁혼수	-16962
책임자	-16963
▁나라망	-16964
문죄	-16965
하셔야	-16966
▁죽을때	-16967
화에서는	-16968
▁각각의	-16969
▁정부세종	-16970
도서	-16971
▁구성돼	-16972
▁천주교	-16973
▁확인하는	-16974
▁쏜	-16975
▁빤	-16976
저우	-16977
▁제기됐다	-16978
▁예선	-16979
▁자아	-16980
▁동종목에	-16981
데요	-16982
▁경험할	-16983
▁문죄인이	-16984
▁스마일	-16985
78	-16986
▁우상	-16987
▁파이낸셜	-16988
▁남용	-16989
▁사전차단	-16990
되야	-16991
▁후임	-16992
▁격추	-16993
▁로드맵	-16994
▁유니폼	-16995
▁아니니	-16996
▁은근히	-16997
▁대학원	-16998
채를	-16999
매국노	-17000
▁내용과	-17001
▁전투를	-17002
물가	-17003
▁파생	-17004
수소	-17005
▁맞네	-17006
▁채무	-17007
▁달성했다	-17008
▁출연한	-17009
▁아케	-17010
▁욱일	-17011
그래야	-17012
▁찾아가는	-17013
▁거북	-17014
▁출품	-17015
▁부르고	-17016
문화예술	-17017
받으면	-17018
▁벨기에	-17019
등에	-17020
▁생계	-17021
▁침수	-17022
▁공급이	-17023
▁손해를	-17024
▁말하지	-17025
▁내밀	-17026
▁놀이터	-17027
▁강하다	-17028
▁러시아의	-17029
▁거래량	-17030
훈련을	-17031
▁립	-17032
▁이끈	-17033
합병	-17034
▁대명	-17035
▁동북아	-17036
▁벌였다	-17037
.?	-17038
▁거라	-17039
72	-17040
진출	-17041
▁대법관	-17042
▁대출을	-17043
▁활발한	-17044
(),	-17045
은혜	-17046
▁떨고	-17047
▁열쇠	-17048
대회를	-17049
▁잘도	-17050
▁주저	-17051
;;;;	-17052
좋게	-17053
▁공격에	-17054
규칙	-17055
▁근혜	-17056
▁연결해	-17057
▁진실이	-17058
▁MD	-17059
▁넘나	-17060
▁모리	-17061
년여	-17062
▁취미	-17063
▁친척	-17064
▁똑똑한	-17065
▁증가로	-17066
▁출신인	-17067
▁추가바람	-17068
▁미세먼지를	-17069
소유	-17070
▁섬유	-17071
답시고	-17072
▁업그레이	-17073
▁정상회담이	-17074
▁진상규	-17075
▁현지에서	-17076
3)	-17077
▁보충	-17078
없으니	-17079
제일	-17080
▁인류의	-17081
▁지원에	-17082
급이	-17083
▁컨소시엄	-17084
CG	-17085
▁112	-17086
야가	-17087
▁호우	-17088
▁삼고	-17089
▁논란에	-17090
▁탁월한	-17091
▁헷	-17092
해야만	-17093
▁구매한	-17094
▁비로	-17095
▁일부가	-17096
▁살길	-17097
▁세제	-17098
▁허허	-17099
▁KIA	-17100
▁공부를	-17101
▁이르기	-17102
학기	-17103
▁줬다	-17104
년차	-17105
div	-17106
▁맥락	-17107
▁선두	-17108
▁요구에	-17109
▁방에	-17110
span	-17111
▁한국에서는	-17112
설비	-17113
▁지인	-17114
AM	-17115
▁쳤	-17116
▁기차	-17117
▁돌이	-17118
▁웃기네	-17119
68	-17120
▁명동	-17121
▁대구경북	-17122
ᆞᆞ	-17123
▁지니고	-17124
▁홧	-17125
▁하나요	-17126
특보가	-17127
▁미얀	-17128
▁정글	-17129
▁안되나	-17130
▁드러났	-17131
▁가라앉	-17132
▁보건복지부	-17133
▁폭넓	-17134
▁워크숍	-17135
▁찜	-17136
범이	-17137
였나	-17138
▁불의	-17139
▁05	-17140
▁스프링	-17141
창을	-17142
▁뭘까	-17143
▁거고	-17144
▁분단	-17145
청와대	-17146
▁라운	-17147
▁일괄	-17148
▁과거를	-17149
▁고로	-17150
▁광장	-17151
버려야	-17152
대리	-17153
▁태워	-17154
▁원칙을	-17155
말라	-17156
▁울고	-17157
▁해봐	-17158
학년도	-17159
▁내용으로	-17160
▁씨와	-17161
▁해준다	-17162
▁메신저	-17163
▁이런기사	-17164
퍼런	-17165
▁싸우고	-17166
▁몇개	-17167
▁객관적으로	-17168
▁거래일보다	-17169
닫고	-17170
▁소아	-17171
▁리모델	-17172
▁행동은	-17173
▁폴리	-17174
▁호기	-17175
▁걸린다	-17176
▁지지자	-17177
▁Me	-17178
일텐데	-17179
▁결과로	-17180
▁위원장과	-17181
가짜	-17182
효과가	-17183
▁명목으로	-17184
74	-17185
번을	-17186
▁단점	-17187
▁못함	-17188
▁벗어나지	-17189
▁일본여행	-17190
▁몇명	-17191
▁결정에	-17192
▁군수	-17193
화이팅	-17194
▁의미다	-17195
▁상징하는	-17196
▁전년보다	-17197
▁차는	-17198
▁핵심은	-17199
내자	-17200
▁김형	-17201
억을	-17202
▁뚱	-17203
~4	-17204
▁활약을	-17205
▁1991	-17206
워즈	-17207
▁쎄	-17208
걸음	-17209
사막	-17210
절로	-17211
▁인명피해	-17212
▁이원	-17213
▁나누는	-17214
▁어쩌다	-17215
▁어느나라	-17216
▁NO	-17217
▁생기고	-17218
▁목표는	-17219
▁존재가	-17220
펙트	-17221
▁개발자	-17222
▁공사를	-17223
▁김정일	-17224
▁밖에도	-17225
▁SF	-17226
▁대동	-17227
▁시선	-17228
▁활동하는	-17229
▁수직	-17230
희망	-17231
▁일시적으로	-17232
▁le	-17233
▁형편	-17234
셨다	-17235
▁제도가	-17236
▁정치하는	-17237
다는걸	-17238
▁강풍	-17239
프록시	-17240
▁비서실장	-17241
▁차이는	-17242
▁시작해서	-17243
ET	-17244
▁불합	-17245
▁나가야	-17246
▁엘리트	-17247
▁보여줬다	-17248
▁명확한	-17249
▁뭐하고	-17250
▁민주주의를	-17251
ale	-17252
▁부당한	-17253
▁해운대	-17254
▁생태계를	-17255
가진	-17256
고발	-17257
당장	-17258
▁휩쓸	-17259
▁콧	-17260
시께	-17261
주냐	-17262
▁조사해서	-17263
▁싫어서	-17264
▁품고	-17265
처먹고	-17266
이기에	-17267
▁처음에	-17268
▁스트라이	-17269
▁고개	-17270
님과	-17271
당한다	-17272
▁경찰관	-17273
▁통증이	-17274
처음	-17275
▁대입	-17276
▁밥먹	-17277
▁빛나는	-17278
▁ex	-17279
▁쓰게	-17280
▁연말까지	-17281
병의	-17282
죄가	-17283
▁동쪽	-17284
▁전정권	-17285
▁가능성에	-17286
들지	-17287
▁나카	-17288
▁사항을	-17289
▁1960	-17290
▁날로	-17291
▁넣는	-17292
▁Sp	-17293
▁자폭	-17294
▁높아질	-17295
▁맛있는	-17296
▁선풍	-17297
▁알려주는	-17298
▁비는	-17299
중요	-17300
투명	-17301
▁산업을	-17302
▁웹사이트	-17303
건조	-17304
현은	-17305
▁알기	-17306
▁진로	-17307
▁죄인이	-17308
판의	-17309
법도	-17310
▁CM	-17311
▁쓰인다	-17312
직업	-17313
▁북상	-17314
▁이넘	-17315
▁국민은행	-17316
▁1∼	-17317
▁무기로	-17318
▁브랜드로	-17319
▁임차	-17320
▁구호	-17321
▁탱크	-17322
▁사라지는	-17323
▁심어	-17324
▁출력	-17325
▁240	-17326
▁이뤘	-17327
▁료	-17328
▁어떨까	-17329
▁이득을	-17330
▁머릿	-17331
▁생각한	-17332
▁건강하게	-17333
▁플레	-17334
▁퍼스트	-17335
무서	-17336
▁펑펑	-17337
▁방안이	-17338
갤럭시	-17339
▁지진이	-17340
위성	-17341
미르	-17342
였지	-17343
▁잃어버린	-17344
▁2025	-17345
▁한국전쟁	-17346
▁정화	-17347
어차피	-17348
▁가지는	-17349
▁삼성물	-17350
▁현주	-17351
▁너무나도	-17352
청의	-17353
▁종일	-17354
▁처치	-17355
디가	-17356
▁나가면	-17357
디지털	-17358
▁끝으로	-17359
많다	-17360
맥주	-17361
증후	-17362
▁북극	-17363
▁도배	-17364
▁빛의	-17365
▁무주택	-17366
▁유람	-17367
▁김어준	-17368
자리에서	-17369
▁조성을	-17370
▁주관하는	-17371
▁초당	-17372
▁도요	-17373
▁버렸다	-17374
)/	-17375
▁불쾌	-17376
▁새벽에	-17377
▁선관	-17378
▁친한	-17379
▁아침부터	-17380
▁특기	-17381
▁행성	-17382
▁선점	-17383
▁자동화	-17384
(,	-17385
▁김주	-17386
분기에	-17387
▁농림축산식품	-17388
▁,,	-17389
▁해줘야	-17390
▁YG	-17391
▁스태	-17392
롭지	-17393
▁He	-17394
▁생겼네	-17395
▁국내에서는	-17396
▁불로	-17397
홈쇼핑	-17398
▁노선을	-17399
▁비참	-17400
▁하이닉	-17401
품이	-17402
▁우위를	-17403
을지	-17404
▁제시된	-17405
▁편향	-17406
▁해변	-17407
아이가	-17408
▁부모의	-17409
▁자유한국당이	-17410
▁압박을	-17411
▁내란	-17412
▁항복	-17413
모의	-17414
꼬라지	-17415
▁호출	-17416
어지	-17417
▁아르바이트	-17418
▁로보	-17419
심도	-17420
▁방출	-17421
▁훔쳐	-17422
▁누군지	-17423
▁지속될	-17424
▁팬들의	-17425
란스	-17426
고와	-17427
▁이집트	-17428
▁적용되는	-17429
▁경선	-17430
성화	-17431
▁KEB	-17432
▁힙	-17433
인지를	-17434
▁풋	-17435
▁치료가	-17436
남은	-17437
▁중학생	-17438
숟가락	-17439
▁망하고	-17440
▁사라진다	-17441
▁협력사	-17442
▁노골	-17443
▁국영	-17444
▁나와야	-17445
▁애로	-17446
▁대변인이	-17447
hn	-17448
▁반해	-17449
▁배워	-17450
▁여성가족	-17451
af	-17452
▁구직	-17453
▁탐지	-17454
▁당국이	-17455
▁외제	-17456
▁카자	-17457
작업을	-17458
▁비판하는	-17459
▁결렬	-17460
▁싸그리	-17461
것임	-17462
▁입체	-17463
더라구요	-17464
▁공급하는	-17465
라나	-17466
▁금융감독원	-17467
▁특이한	-17468
▁여성들이	-17469
의미	-17470
▁보는데	-17471
▁격리	-17472
▁항구	-17473
박을	-17474
▁Rep	-17475
▁도시락	-17476
▁싶다는	-17477
▁요소가	-17478
▁투표를	-17479
▁송영	-17480
▁모두의	-17481
▁중이며	-17482
▁제주시	-17483
▁가면라이더	-17484
계와	-17485
▁효율적인	-17486
▁환자를	-17487
▁평일	-17488
▁죽어야	-17489
▁그런데도	-17490
▁이간	-17491
▁통신은	-17492
▁확인된	-17493
슈퍼	-17494
아파	-17495
▁람	-17496
순이	-17497
남의	-17498
▁싸고	-17499
▁빔	-17500
▁뺨	-17501
토는	-17502
▁초창	-17503
지금은	-17504
▁회장을	-17505
죽이고	-17506
제거	-17507
▁알겠지만	-17508
모임	-17509
▁수소차	-17510
▁실수로	-17511
였다면	-17512
성향	-17513
▁정류	-17514
▁진동	-17515
▁가야지	-17516
▁들지	-17517
▁여사가	-17518
▁촉구하는	-17519
▁구하기	-17520
이명박	-17521
▁먹어도	-17522
▁해당한다	-17523
국민들은	-17524
▁이벤트는	-17525
▁정복	-17526
▁남아있는	-17527
▁알뜰폰	-17528
▁2~3	-17529
▁남겼다	-17530
▁나루	-17531
▁LPG	-17532
▁동일하게	-17533
▁공격하는	-17534
▁시집	-17535
▁담합	-17536
▁스타벅스	-17537
공이	-17538
▁극히	-17539
▁다뤄	-17540
▁캐시	-17541
▁예로	-17542
▁임종	-17543
▁수산	-17544
▁정우	-17545
응답	-17546
▁럭셔	-17547
▁가능하도록	-17548
방사	-17549
살고	-17550
▁살리는	-17551
▁고추	-17552
ug	-17553
▁“‘	-17554
▁베타	-17555
기관에	-17556
▁주민들은	-17557
비즈	-17558
없게	-17559
▁6%	-17560
▁설치하고	-17561
▁병사	-17562
▁	-17563
이	-17564
.	-17565
다	-17566
는	-17567
고	-17568
에	-17569
지	-17570
하	-17571
가	-17572
을	-17573
한	-17574
로	-17575
의	-17576
기	-17577
도	-17578
서	-17579
은	-17580
사	-17581
대	-17582
인	-17583
자	-17584
라	-17585
해	-17586
아	-17587
시	-17588
리	-17589
들	-17590
나	-17591
를	-17592
어	-17593
정	-17594
0	-17595
1	-17596
수	-17597
국	-17598
으	-17599
일	-17600
있	-17601
니	-17602
전	-17603
보	-17604
제	-17605
부	-17606
만	-17607
스	-17608
2	-17609
게	-17610
주	-17611
면	-17612
장	-17613
그	-17614
상	-17615
원	-17616
과	-17617
했	-17618
ᄏ	-17619
,	-17620
성	-17621
거	-17622
구	-17623
문	-17624
공	-17625
?	-17626
적	-17627
비	-17628
것	-17629
미	-17630
데	-17631
안	-17632
화	-17633
조	-17634
위	-17635
동	-17636
진	-17637
소	-17638
무	-17639
마	-17640
중	-17641
개	-17642
요	-17643
경	-17644
세	-17645
신	-17646
오	-17647
여	-17648
야	-17649
우	-17650
3	-17651
당	-17652
내	-17653
관	-17654
회	-17655
재	-17656
유	-17657
선	-17658
트	-17659
5	-17660
모	-17661
치	-17662
업	-17663
와	-17664
할	-17665
민	-17666
!	-17667
통	-17668
되	-17669
간	-17670
계	-17671
년	-17672
등	-17673
용	-17674
말	-17675
생	-17676
영	-17677
없	-17678
연	-17679
드	-17680
4	-17681
명	-17682
발	-17683
터	-17684
금	-17685
려	-17686
까	-17687
단	-17688
네	-17689
차	-17690
산	-17691
방	-17692
실	-17693
분	-17694
러	-17695
행	-17696
건	-17697
바	-17698
~	-17699
며	-17700
체	-17701
9	-17702
8	-17703
6	-17704
된	-17705
교	-17706
더	-17707
7	-17708
반	-17709
저	-17710
었	-17711
운	-17712
입	-17713
역	-17714
e	-17715
때	-17716
물	-17717
히	-17718
남	-17719
임	-17720
식	-17721
본	-17722
현	-17723
후	-17724
작	-17725
력	-17726
강	-17727
난	-17728
매	-17729
노	-17730
최	-17731
습	-17732
출	-17733
르	-17734
심	-17735
북	-17736
o	-17737
타	-17738
래	-17739
음	-17740
학	-17741
월	-17742
않	-17743
각	-17744
표	-17745
프	-17746
파	-17747
속	-17748
레	-17749
겠	-17750
불	-17751
결	-17752
청	-17753
감	-17754
냐	-17755
합	-17756
권	-17757
양	-17758
같	-17759
직	-17760
호	-17761
람	-17762
법	-17763
예	-17764
점	-17765
포	-17766
처	-17767
받	-17768
a	-17769
던	-17770
t	-17771
설	-17772
n	-17773
i	-17774
달	-17775
두	-17776
준	-17777
종	-17778
울	-17779
버	-17780
%	-17781
김	-17782
피	-17783
번	-17784
못	-17785
판	-17786
외	-17787
런	-17788
배	-17789
크	-17790
)	-17791
(	-17792
카	-17793
추	-17794
박	-17795
능	-17796
S	-17797
살	-17798
s	-17799
근	-17800
올	-17801
질	-17802
함	-17803
디	-17804
집	-17805
평	-17806
·	-17807
알	-17808
’	-17809
‘	-17810
군	-17811
r	-17812
약	-17813
격	-17814
증	-17815
급	-17816
투	-17817
많	-17818
태	-17819
령	-17820
린	-17821
날	-17822
천	-17823
형	-17824
품	-17825
너	-17826
키	-17827
m	-17828
석	-17829
참	-17830
특	-17831
열	-17832
A	-17833
른	-17834
좋	-17835
언	-17836
목	-17837
C	-17838
토	-17839
따	-17840
술	-17841
초	-17842
록	-17843
환	-17844
확	-17845
코	-17846
T	-17847
“	-17848
았	-17849
잘	-17850
망	-17851
”	-17852
애	-17853
든	-17854
-	-17855
편	-17856
온	-17857
O	-17858
또	-17859
담	-17860
론	-17861
새	-17862
럼	-17863
걸	-17864
복	-17865
억	-17866
책	-17867
루	-17868
먹	-17869
변	-17870
테	-17871
독	-17872
료	-17873
활	-17874
총	-17875
l	-17876
승	-17877
협	-17878
I	-17879
광	-17880
검	-17881
c	-17882
절	-17883
G	-17884
쓰	-17885
련	-17886
란	-17887
벌	-17888
별	-17889
병	-17890
항	-17891
글	-17892
친	-17893
워	-17894
티	-17895
됐	-17896
였	-17897
M	-17898
줄	-17899
향	-17900
길	-17901
맞	-17902
랑	-17903
B	-17904
순	-17905
짜	-17906
브	-17907
P	-17908
황	-17909
플	-17910
왜	-17911
규	-17912
누	-17913
돌	-17914
밝	-17915
뉴	-17916
악	-17917
메	-17918
'	-17919
h	-17920
씨	-17921
창	-17922
필	-17923
앞	-17924
돈	-17925
족	-17926
폭	-17927
D	-17928
베	-17929
죽	-17930
량	-17931
삼	-17932
찰	-17933
험	-17934
늘	-17935
될	-17936
E	-17937
좀	-17938
막	-17939
렇	-17940
:	-17941
육	-17942
K	-17943
존	-17944
/	-17945
손	-17946
송	-17947
느	-17948
즈	-17949
택	-17950
잡	-17951
져	-17952
페	-17953
머	-17954
철	-17955
립	-17956
L	-17957
극	-17958
께	-17959
름	-17960
패	-17961
넘	-17962
축	-17963
"	-17964
d	-17965
끼	-17966
쳐	-17967
탄	-17968
범	-17969
충	-17970
높	-17971
죄	-17972
앙	-17973
핵	-17974
취	-17975
u	-17976
p	-17977
먼	-17978
혔	-17979
뭐	-17980
접	-17981
얼	-17982
갈	-17983
놈	-17984
듯	-17985
님	-17986
돼	-17987
폐	-17988
견	-17989
희	-17990
N	-17991
백	-17992
졌	-17993
봐	-17994
및	-17995
R	-17996
채	-17997
빨	-17998
림	-17999
류	-18000
쟁	-18001
커	-18002
완	-18003
겨	-18004
냥	-18005
엔	-18006
율	-18007
빠	-18008
g	-18009
곳	-18010
익	-18011
블	-18012
응	-18013
뒤	-18014
션	-18015
놓	-18016
힘	-18017
획	-18018
닌	-18019
긴	-18020
객	-18021
V	-18022
답	-18023
락	-18024
쪽	-18025
ᄒ	-18026
색	-18027
허	-18028
눈	-18029
k	-18030
움	-18031
ᅳ	-18032
w	-18033
짓	-18034
싶	-18035
좌	-18036
몰	-18037
F	-18038
측	-18039
볼	-18040
홍	-18041
케	-18042
침	-18043
퍼	-18044
왔	-18045
효	-18046
럽	-18047
엄	-18048
y	-18049
탈	-18050
츠	-18051
착	-18052
득	-18053
싸	-18054
센	-18055
큰	-18056
혜	-18057
혼	-18058
밀	-18059
끝	-18060
슨	-18061
징	-18062
욕	-18063
논	-18064
찾	-18065
녀	-18066
랜	-18067
액	-18068
클	-18069
켜	-18070
팔	-18071
혁	-18072
렸	-18073
ᄍ	-18074
농	-18075
폰	-18076
귀	-18077
찬	-18078
뿐	-18079
b	-18080
떨	-18081
ᅲ	-18082
례	-18083
휴	-18084
풍	-18085
H	-18086
U	-18087
왕	-18088
릴	-18089
암	-18090
혀	-18091
f	-18092
캐	-18093
웃	-18094
팀	-18095
골	-18096
봉	-18097
났	-18098
융	-18099
슬	-18100
률	-18101
텐	-18102
굴	-18103
v	-18104
써	-18105
갖	-18106
떠	-18107
죠	-18108
밖	-18109
풀	-18110
꾸	-18111
갑	-18112
널	-18113
틀	-18114
째	-18115
압	-18116
층	-18117
쿠	-18118
염	-18119
낮	-18120
^	-18121
깨	-18122
콘	-18123
큼	-18124
붙	-18125
쇼	-18126
W	-18127
퇴	-18128
댓	-18129
템	-18130
떻	-18131
훈	-18132
념	-18133
몇	-18134
곡	-18135
놀	-18136
벤	-18137
롯	-18138
팅	-18139
십	-18140
균	-18141
덕	-18142
괴	-18143
윤	-18144
혹	-18145
갔	-18146
텔	-18147
찍	-18148
릭	-18149
꺼	-18150
믿	-18151
숙	-18152
둘	-18153
엘	-18154
잠	-18155
략	-18156
봤	-18157
웨	-18158
끌	-18159
X	-18160
뭔	-18161
줘	-18162
솔	-18163
값	-18164
숨	-18165
픽	-18166
낸	-18167
첫	-18168
링	-18169
핑	-18170
헌	-18171
갱	-18172
슈	-18173
잔	-18174
램	-18175
궁	-18176
욱	-18177
컨	-18178
옥	-18179
똑	-18180
척	-18181
꼴	-18182
킬	-18183
탁	-18184
혈	-18185
넷	-18186
쉬	-18187
ᆞ	-18188
쉽	-18189
델	-18190
떤	-18191
털	-18192
싫	-18193
흥	-18194
잖	-18195
찌	-18196
얘	-18197
혐	-18198
닥	-18199
J	-18200
몸	-18201
맨	-18202
;	-18203
꼬	-18204
턴	-18205
킨	-18206
맛	-18207
벨	-18208
=	-18209
뽑	-18210
즘	-18211
킹	-18212
밥	-18213
겁	-18214
뜻	-18215
+	-18216
뇌	-18217
빌	-18218
룹	-18219
싱	-18220
얻	-18221
빈	-18222
똥	-18223
벽	-18224
칭	-18225
딱	-18226
즐	-18227
맹	-18228
빼	-18229
쓸	-18230
씩	-18231
롭	-18232
홈	-18233
넣	-18234
칠	-18235
땅	-18236
낙	-18237
젠	-18238
ᅮ	-18239
꼭	-18240
냈	-18241
헤	-18242
랄	-18243
Y	-18244
렌	-18245
x	-18246
셔	-18247
딸	-18248
짱	-18249
폼	-18250
섭	-18251
곤	-18252
납	-18253
엇	-18254
쳤	-18255
딩	-18256
춘	-18257
>	-18258
뻔	-18259
듣	-18260
촉	-18261
몬	-18262
힌	-18263
뜨	-18264
럴	-18265
휘	-18266
ᄉ	-18267
맡	-18268
뛰	-18269
럭	-18270
푸	-18271
랐	-18272
즉	-18273
끄	-18274
랫	-18275
맥	-18276
탑	-18277
둔	-18278
멀	-18279
쌍	-18280
즌	-18281
탕	-18282
콜	-18283
팬	-18284
흐	-18285
뤄	-18286
겼	-18287
△	-18288
칼	-18289
탓	-18290
졸	-18291
멍	-18292
삶	-18293
컬	-18294
뭘	-18295
뢰	-18296
셨	-18297
렵	-18298
밤	-18299
걱	-18300
짝	-18301
잇	-18302
쥐	-18303
뷰	-18304
꾼	-18305
컴	-18306
헬	-18307
멸	-18308
튼	-18309
덜	-18310
됩	-18311
ᆢ	-18312
갤	-18313
랍	-18314
봇	-18315
섬	-18316
짐	-18317
쓴	-18318
뮤	-18319
콩	-18320
둥	-18321
홀	-18322
빛	-18323
춰	-18324
랙	-18325
흔	-18326
슷	-18327
깝	-18328
ᄃ	-18329
렉	-18330
웠	-18331
꿈	-18332
<	-18333
첨	-18334
웅	-18335
꽃	-18336
폴	-18337
쁜	-18338
튜	-18339
#	-18340
콤	-18341
흡	-18342
팩	-18343
셀	-18344
줬	-18345
촌	-18346
젊	-18347
ᄌ	-18348
캠	-18349
닝	-18350
픈	-18351
빙	-18352
ᄋ	-18353
쩌	-18354
므	-18355
롱	-18356
읽	-18357
멘	-18358
챙	-18359
녹	-18360
펼	-18361
됨	-18362
봄	-18363
괜	-18364
깔	-18365
맘	-18366
뀌	-18367
곧	-18368
낼	-18369
켓	-18370
묘	-18371
앱	-18372
쁘	-18373
큐	-18374
쯤	-18375
묻	-18376
앉	-18377
첩	-18378
찮	-18379
샤	-18380
∼	-18381
딜	-18382
ᄇ	-18383
닐	-18384
쇄	-18385
칙	-18386
흘	-18387
뒷	-18388
낌	-18389
딴	-18390
묵	-18391
뿌	-18392
멋	-18393
*	-18394
벗	-18395
탐	-18396
잃	-18397
덧	-18398
끔	-18399
냉	-18400
앤	-18401
촬	-18402
빵	-18403
흑	-18404
싼	-18405
→	-18406
깊	-18407
늦	-18408
ᄀ	-18409
씬	-18410
[	-18411
롤	-18412
렴	-18413
펴	-18414
]	-18415
앵	-18416
j	-18417
z	-18418
몽	-18419
옷	-18420
삭	-18421
깐	-18422
Q	-18423
섰	-18424
핀	-18425
젤	-18426
빅	-18427
닉	-18428
펀	-18429
춤	-18430
슴	-18431
힐	-18432
끊	-18433
썩	-18434
륙	-18435
젝	-18436
겪	-18437
톤	-18438
엑	-18439
밑	-18440
껴	-18441
훨	-18442
떼	-18443
겸	-18444
촛	-18445
겐	-18446
꼽	-18447
칸	-18448
닭	-18449
켰	-18450
덤	-18451
옆	-18452
&	-18453
겹	-18454
숭	-18455
엠	-18456
엉	-18457
틱	-18458
릿	-18459
랬	-18460
퀴	-18461
닫	-18462
걷	-18463
옛	-18464
톡	-18465
퓨	-18466
왼	-18467
쌓	-18468
ᄅ	-18469
낫	-18470
틴	-18471
펜	-18472
떡	-18473
넓	-18474
셈	-18475
넥	-18476
Z	-18477
꿔	-18478
옮	-18479
릇	-18480
★	-18481
릉	-18482
잉	-18483
덩	-18484
굳	-18485
밍	-18486
잊	-18487
낭	-18488
텍	-18489
놔	-18490
쩝	-18491
룡	-18492
땐	-18493
멤	-18494
듀	-18495
겟	-18496
쏘	-18497
닛	-18498
낳	-18499
윈	-18500
헛	-18501
흉	-18502
씀	-18503
둑	-18504
컵	-18505
꿀	-18506
렬	-18507
옵	-18508
셜	-18509
쩔	-18510
냄	-18511
붕	-18512
읍	-18513
긍	-18514
쾌	-18515
웹	-18516
뱅	-18517
넌	-18518
뜯	-18519
햇	-18520
쌀	-18521
깜	-18522
◇	-18523
셋	-18524
렀	-18525
쏟	-18526
덴	-18527
벼	-18528
앗	-18529
랭	-18530
밌	-18531
싹	-18532
옹	-18533
ᄂ	-18534
놨	-18535
녕	-18536
튀	-18537
줌	-18538
룸	-18539
끈	-18540
빚	-18541
밴	-18542
끗	-18543
덮	-18544
랩	-18545
탱	-18546
쿨	-18547
걍	-18548
쿄	-18549
앨	-18550
괄	-18551
꽤	-18552
짧	-18553
듬	-18554
껏	-18555
봅	-18556
굉	-18557
맺	-18558
톱	-18559
썼	-18560
닙	-18561
듭	-18562
돕	-18563
맙	-18564
꼼	-18565
맵	-18566
믹	-18567
뭉	-18568
룬	-18569
캡	-18570
엽	-18571
횡	-18572
긋	-18573
쇠	-18574
훼	-18575
훌	-18576
쁨	-18577
쑈	-18578
녁	-18579
낄	-18580
♡	-18581
둬	-18582
숲	-18583
ᄁ	-18584
옳	-18585
뷔	-18586
헐	-18587
쉐	-18588
륜	-18589
븐	-18590
밸	-18591
닷	-18592
짖	-18593
렁	-18594
띄	-18595
띠	-18596
낀	-18597
밟	-18598
댄	-18599
셉	-18600
늙	-18601
룩	-18602
핸	-18603
_	-18604
빗	-18605
멈	-18606
좃	-18607
눠	-18608
섯	-18609
뚜	-18610
펙	-18611
쪼	-18612
껄	-18613
섹	-18614
멜	-18615
맑	-18616
룰	-18617
틸	-18618
숫	-18619
빡	-18620
텀	-18621
삽	-18622
퀘	-18623
깡	-18624
컷	-18625
땜	-18626
뼈	-18627
쯧	-18628
갓	-18629
짤	-18630
굿	-18631
윗	-18632
팽	-18633
똘	-18634
륭	-18635
좁	-18636
옴	-18637
캔	-18638
쫓	-18639
●	-18640
샌	-18641
깃	-18642
뚱	-18643
벅	-18644
곽	-18645
ー	-18646
뇨	-18647
씽	-18648
팝	-18649
냅	-18650
■	-18651
딘	-18652
엿	-18653
푼	-18654
팡	-18655
ᅵ	-18656
눌	-18657
돋	-18658
씹	-18659
왠	-18660
뚫	-18661
밭	-18662
셰	-18663
뿔	-18664
뺏	-18665
닮	-18666
틈	-18667
챔	-18668
쥬	-18669
묶	-18670
곰	-18671
눔	-18672
렛	-18673
빕	-18674
샘	-18675
쏠	-18676
팍	-18677
톨	-18678
덱	-18679
뚝	-18680
섞	-18681
툰	-18682
췄	-18683
땡	-18684
》	-18685
붉	-18686
얀	-18687
궤	-18688
️	-18689
멕	-18690
낚	-18691
뜬	-18692
《	-18693
찔	-18694
쩍	-18695
×	-18696
웬	-18697
떳	-18698
펑	-18699
칩	-18700
벙	-18701
켄	-18702
픔	-18703
뻥	-18704
턱	-18705
ᄆ	-18706
겉	-18707
썬	-18708
흠	-18709
삐	-18710
쉴	-18711
곱	-18712
ᄊ	-18713
롬	-18714
잼	-18715
쩡	-18716
@	-18717
뀐	-18718
쭉	-18719
헝	-18720
뉘	-18721
씌	-18722
콧	-18723
줍	-18724
펠	-18725
닿	-18726
핫	-18727
ᄎ	-18728
굽	-18729
낯	-18730
헨	-18731
뒀	-18732
탠	-18733
됬	-18734
쫄	-18735
q	-18736
뻐	-18737
땀	-18738
뱀	-18739
♥	-18740
왈	-18741
웰	-18742
꼈	-18743
갚	-18744
샷	-18745
늠	-18746
릎	-18747
훔	-18748
렷	-18749
찢	-18750
굶	-18751
쎄	-18752
팎	-18753
핏	-18754
둠	-18755
덥	-18756
릅	-18757
댕	-18758
。	-18759
몫	-18760
붓	-18761
☆	-18762
윌	-18763
퀄	-18764
뽕	-18765
쫌	-18766
럿	-18767
○	-18768
뜰	-18769
껍	-18770
컸	-18771
뻘	-18772
랏	-18773
횟	-18774
젓	-18775
깎	-18776
뜩	-18777
쏴	-18778
잣	-18779
「	-18780
」	-18781
뱃	-18782
흰	-18783
솟	-18784
넨	-18785
볍	-18786
엮	-18787
궐	-18788
쑤	-18789
넉	-18790
쟤	-18791
흙	-18792
랴	-18793
밋	-18794
▷	-18795
엎	-18796
펄	-18797
젖	-18798
꽁	-18799
켈	-18800
늬	-18801
녔	-18802
톰	-18803
ᅡ	-18804
샵	-18805
잭	-18806
찐	-18807
뽀	-18808
좆	-18809
휠	-18810
킴	-18811
엣	-18812
캘	-18813
꼰	-18814
퉁	-18815
샀	-18816
믄	-18817
뱉	-18818
퉤	-18819
ᅩ	-18820
렘	-18821
칫	-18822
쿼	-18823
※	-18824
펫	-18825
숍	-18826
킷	-18827
겄	-18828
늄	-18829
닦	-18830
씻	-18831
、	-18832
얄	-18833
휩	-18834
짚	-18835
쿵	-18836
끓	-18837
렐	-18838
꽂	-18839
뮬	-18840
곁	-18841
✔	-18842
껀	-18843
캄	-18844
쯔	-18845
갇	-18846
쌩	-18847
깽	-18848
썰	-18849
팟	-18850
잦	-18851
썸	-18852
쨌	-18853
빔	-18854
넬	-18855
잎	-18856
몹	-18857
윙	-18858
ᄐ	-18859
듈	-18860
쿡	-18861
꺾	-18862
빽	-18863
앓	-18864
킥	-18865
뇬	-18866
툴	-18867
볶	-18868
툭	-18869
깍	-18870
❤	-18871
ᅢ	-18872
콕	-18873
춥	-18874
늑	-18875
햄	-18876
씁	-18877
짙	-18878
츄	-18879
펌	-18880
`	-18881
쌈	-18882
쩐	-18883
텅	-18884
왓	-18885
궈	-18886
슐	-18887
얹	-18888
푹	-18889
팜	-18890
뤘	-18891
←	-18892
삥	-18893
꿨	-18894
뿜	-18895
뭣	-18896
쟈	-18897
‧	-18898
찜	-18899
캬	-18900
딪	-18901
꽉	-18902
쫒	-18903
벚	-18904
솜	-18905
갯	-18906
벡	-18907
탔	-18908
툼	-18909
붐	-18910
벳	-18911
퀸	-18912
풋	-18913
댐	-18914
첼	-18915
쑥	-18916
뭇	-18917
딧	-18918
뀔	-18919
힙	-18920
훗	-18921
깥	-18922
뒈	-18923
゚	-18924
멧	-18925
댈	-18926
삿	-18927
짠	-18928
돔	-18929
겔	-18930
슥	-18931
▶	-18932
쭈	-18933
•	-18934
륨	-18935
챌	-18936
}	-18937
볕	-18938
댁	-18939
귤	-18940
{	-18941
딥	-18942
『	-18943
빤	-18944
©	-18945
』	-18946
얽	-18947
앰	-18948
셧	-18949
웍	-18950
뻗	-18951
얇	-18952
뭄	-18953
뎅	-18954
탭	-18955
μ	-18956
|	-18957
쾅	-18958
꾀	-18959
뺀	-18960
쌔	-18961
ᄑ	-18962
팰	-18963
걔	-18964
쏙	-18965
넹	-18966
렙	-18967
굵	-18968
퓰	-18969
킵	-18970
뤼	-18971
귄	-18972
딕	-18973
챠	-18974
떵	-18975
팁	-18976
댔	-18977
낱	-18978
딨	-18979
튬	-18980
홧	-18981
꿇	-18982
긁	-18983
낡	-18984
°	-18985
☞	-18986
돗	-18987
흩	-18988
뎌	-18989
깁	-18990
쩜	-18991
섀	-18992
쉼	-18993
쏜	-18994
짬	-18995
싣	-18996
↓	-18997
뎀	-18998
캣	-18999
텨	-19000
쉰	-19001
뻑	-19002
꿰	-19003
헷	-19004
탯	-19005
겜	-19006
햐	-19007
샹	-19008
엥	-19009
끽	-19010
▼	-19011
껑	-19012
찝	-19013
퍽	-19014
핍	-19015
뺑	-19016
윽	-19017
맷	-19018
텝	-19019
샛	-19020
뺨	-19021
봣	-19022
숟	-19023
췌	-19024
콰	-19025
샐	-19026
홉	-19027
캉	-19028
훅	-19029
↑	-19030
밉	-19031
뜸	-19032
촘	-19033
갸	-19034
훠	-19035
젯	-19036
젼	-19037
짭	-19038
탬	-19039
$	-19040
꽈	-19041
얌	-19042
껌	-19043
넛	-19044
슘	-19045
콥	-19046
떴	-19047
≫	-19048
옌	-19049
퐁	-19050
꽝	-19051
눴	-19052
챗	-19053
떄	-19054
뵈	-19055
샴	-19056
챈	-19057
괘	-19058
쿤	-19059
폄	-19060
갭	-19061
\	-19062
졋	-19063
꿍	-19064
첸	-19065
뽐	-19066
웜	-19067
꺄	-19068
퀀	-19069
찡	-19070
쵸	-19071
∙	-19072
☎	-19073
〈	-19074
꺽	-19075
텃	-19076
꾹	-19077
뉜	-19078
즙	-19079
슛	-19080
띵	-19081
둡	-19082
륵	-19083
팥	-19084
━	-19085
뚤	-19086
〉	-19087
【	-19088
】	-19089
팸	-19090
딛	-19091
―	-19092
□	-19093
홋	-19094
옐	-19095
걀	-19096
챕	-19097
밧	-19098
솥	-19099
눕	-19100
띨	-19101
칵	-19102
쥔	-19103
찼	-19104
풉	-19105
큘	-19106
▲	-19107
븅	-19108
훤	-19109
튕	-19110
괌	-19111
켐	-19112
❄	-19113
띈	-19114
♪	-19115
룻	-19116
쉑	-19117
ᅥ	-19118
쁠	-19119
얍	-19120
갠	-19121
젬	-19122
싯	-19123
줏	-19124
펭	-19125
꿋	-19126
é	-19127
썪	-19128
맴	-19129
욘	-19130
룽	-19131
썅	-19132
뮌	-19133
욜	-19134
깟	-19135
–	-19136
헉	-19137
쌤	-19138
뺐	-19139
됫	-19140
퀵	-19141
맏	-19142
굼	-19143
뺄	-19144
팠	-19145
뛴	-19146
곶	-19147
딤	-19148
쒸	-19149
핥	-19150
폈	-19151
돠	-19152
엌	-19153
좇	-19154
땠	-19155
쪄	-19156
샬	-19157
숴	-19158
컥	-19159
줫	-19160
얕	-19161
깅	-19162
찿	-19163
톈	-19164
꿉	-19165
퉷	-19166
쬐	-19167
♬	-19168
셸	-19169
얏	-19170
헥	-19171
뎃	-19172
썻	-19173
늪	-19174
ᄄ	-19175
랠	-19176
랖	-19177
깬	-19178
띤	-19179
❌	-19180
ᅦ	-19181
겅	-19182
뭡	-19183
↔	-19184
컫	-19185
쎈	-19186
옇	-19187
썽	-19188
랗	-19189
텟	-19190
잽	-19191
섣	-19192
튠	-19193
웁	-19194
됀	-19195
댜	-19196
뮈	-19197
눅	-19198
죗	-19199
～	-19200
넼	-19201
⛔	-19202
냔	-19203
잤	-19204
팻	-19205
츰	-19206
썹	-19207
펍	-19208
—	-19209
큽	-19210
샅	-19211
믈	-19212
짊	-19213
탤	-19214
뺌	-19215
쫑	-19216
쨋	-19217
녘	-19218
왤	-19219
셴	-19220
멱	-19221
찻	-19222
쨍	-19223
뾰	-19224
퇘	-19225
귓	-19226
쨩	-19227
뻣	-19228
앴	-19229
ᄈ	-19230
숱	-19231
횃	-19232
◆	-19233
꿎	-19234
ᅠ	-19235
픕	-19236
숏	-19237
늉	-19238
쟎	-19239
듦	-19240
궂	-19241
뛸	-19242
왁	-19243
닳	-19244
넋	-19245
빴	-19246
씸	-19247
ᄡ	-19248
됏	-19249
뽄	-19250
쐈	-19251
엊	-19252
쌌	-19253
잿	-19254
혓	-19255
쫙	-19256
덫	-19257
겻	-19258
덟	-19259
밈	-19260
◀	-19261
욧	-19262
켠	-19263
↘	-19264
ᅣ	-19265
캥	-19266
뭍	-19267
윅	-19268
댑	-19269
튿	-19270
⁄	-19271
벵	-19272
몆	-19273
쉘	-19274
낵	-19275
찹	-19276
쳣	-19277
쭝	-19278
넵	-19279
졷	-19280
갉	-19281
슌	-19282
뵙	-19283
쥴	-19284
캅	-19285
±	-19286
퉈	-19287
츤	-19288
괭	-19289
뿍	-19290
뼛	-19291
셍	-19292
갛	-19293
ᅧ	-19294
─	-19295
핼	-19296
힝	-19297
씰	-19298
[...]
